#version: 0.2
Ġ t
Ġ a
h e
i n
r e
Ġ s
Ġt he
Ġ o
Ġ w
e r
n d
a t
Ġ c
o u
i t
Ġ f
Ġ b
o n
i s
in g
o r
e s
Ġ m
e n
Ġ p
a n
Ġt o
e d
a r
Ġa nd
Ġ d
Ġ in
Ġ h
a l
Ġo f
Ġ l
a s
Ġt h
o m
l e
i c
l l
Ġ y
Ġ n
Ġ g
Ġ e
v e
i on
Ġ I
e t
o w
Ġy ou
s t
a c
Ġ re
en t
Ġb e
Ġ T
u t
o t
l y
Ġ is
Ġ Ġ
a y
i d
Ġ he
Ġf or
Ġs t
l d
Ġo n
a m
s e
i m
Ġth at
r o
Ġ u
â Ģ
a d
i g
Ġ it
i r
u r
k e
v er
it h
Ġ S
Ġw ith
Ġa n
Ġ A
c t
Ġw h
o o
t er
c e
Ġa s
i l
Ġ M
i f
Ġ C
ĠT he
Ġw as
c h
r a
Ġh a
r i
Ġa re
Ġw e
he r
i ll
ou t
o l
er s
ig h
at ion
u m
Ġ H
Ġ B
Ġs h
' s
u l
es t
Ġn e
Ġ W
an t
om e
a g
at e
Ġo r
Ġm e
p e
Ġa b
it e
ou ld
is t
r om
o re
u n
t h
Ġ P
Ġc h
u s
i ve
Ġa t
Ġs e
Ġc an
Ġyou r
Ġ r
âĢ Ļ
igh t
p p
es s
Ġe x
Ġ 1
a in
Ġf rom
e l
Ġd o
Ġc on
e m
Ġab out
a ke
Ġth is
u re
Ġw or
q u
Ġ v
o p
Ġ k
Ġa l
Ġha ve
a b
or t
al l
Ġp l
Ġc om
Ġ D
Ġm y
a nd
n t
Ġ F
ar t
Ġl i
o s
Ġp ro
Ġd e
g h
Ġh is
i es
ĠĠ ĠĠ
u st
u d
Ġb y
Ġs o
Ġb ut
r ou
Ġ G
i e
re d
r ite
ar d
a k
Ġhe r
Ġ R
id e
Ġ j
as t
Ġ E
Ġn ot
ac k
Ġ "
Ġ (
Ġthe y
Ġs u
g e
Ġ L
Ġl e
Ġin t
o c
re s
Ġ 2
r y
p t
on g
Ġw he
Ġ N
Ġu p
on e
am e
Ġo ut
Ġa ll
it y
T he
oo d
Ġt e
Ġthe ir
Ġm o
in d
al ly
oo k
Ġ J
ou r
' t
m ent
in e
f e
Ġs ome
Ġli ke
im e
Ġwh o
Ġf e
e p
Ġw ill
ion s
ver y
Ġ Ċ
p l
i z
Ġg o
i v
ĠI t
Ġc l
Ġthe m
Ġ O
0 0
ac h
ou s
Ġs he
ac e
ow n
Ġk n
Ġon e
ic e
Ġu s
e ar
or y
ĠT h
o d
c l
Ġh as
p er
re at
Ġ en
t her
as s
Ġa d
u e
ac t
c i
as e
Ġm an
ic h
a v
Ġp o
a re
Ġs p
Ġm ore
Ġh ad
e nd
Ġa r
Ġg et
re e
a u
Ġt ime
ic k
ag e
o g
Ġ Y
Ġw ould
ĠH e
Ġc o
ay s
Ġ qu
Ġ U
h at
Ġ K
Ġint o
s o
Ġwh at
Ġ -
ing s
W rite
an s
ĠĠ Ġ
i le
Ġ âĢ
Ġwe re
Ġp e
Ġw ant
b er
ou gh
Ġ if
Ġo ther
o ve
a p
ab le
Ġ ro
ir st
Ġu n
at ed
i p
Ġm ake
Ġwhe n
ou nd
Ġcom p
Ġ im
Ġt r
Ġs a
c k
v en
ĠS t
at er
Ġs c
Ġne ed
Ġb l
Ġwor k
i ld
n e
Ġh ow
Ġd is
ar k
ĠI n
Ġf l
w e
Ġne w
Ġo ver
ar y
or m
in k
en ce
Ġhe l
Ġan y
c c
Ġf irst
Ġp r
a il
cl ud
Ġs pe
Ġsh ould
rou nd
Ġal so
nd er
Ġof f
Ġcon t
in t
Ġhel p
Ġre s
b le
âĢ Ŀ
ur n
h ing
an ce
it t
Ġc ould
i re
p h
Ġbe c
i a
Ġthe re
x t
Ġg r
d u
ct ion
o y
Ġh im
Ġy ear
Ġth an
e ll
Ġj ust
Ġl ist
ou nt
Ġwh ich
f ter
op le
re n
o se
ic al
res s
Ġt w
Ġ 3
Ġkn ow
Ġa m
or d
an g
ul t
f f
r u
or s
Ġe m
ad e
Ġa g
is h
Ġst ory
if e
ĠTh is
o nd
ve l
Ġbe en
al s
rou gh
Ġpe ople
ent s
Ġn o
n ing
Ġd ay
he d
Ġe very
Ġp art
Ġp er
e w
l es
u b
Ġb r
Ġd es
Ġo ur
ig n
Ġit s
Ġ1 9
v ed
ot her
le ase
Ġ2 0
Ġs m
ri end
i ly
Ġin clud
Ġwor d
Ġl ook
Ġb ack
ation s
m er
o b
Ġd on
v ing
Ġp re
en s
Ġe ach
ĠC h
c es
al k
l f
w n
Ġtw o
Ġb et
Ġf o
Ġl ong
he n
Ġd id
ĠâĢ ľ
on s
Ġpl ay
Ċ ĠĠĠĠ
Ġim p
f t
Ġwhe re
au se
i ous
Ġu nder
r it
ar s
g g
Ġu se
o st
ĠY ou
f ul
Ġp ers
t ing
Ġse e
f ore
ĠThe y
oc k
Ġ ke
Ġa fter
re nt
Ġth rough
Ġc ol
Ġmo st
Ġman y
Ġto o
i al
he s
f orm
Ġon ly
Ġ V
at es
om et
Ġd if
Ġsh ort
Ġs er
ic t
Ġst art
ak ing
Ġa ct
g et
le t
' m
it ion
v es
Ċ ĠĠĠ
Ġt ra
Ġm ay
Ġre c
u ll
Ġf un
Ġar t
i an
oo l
Ġn um
Ġd own
Ġf riend
is e
ver s
Ġg ood
b e
W hat
Ġa pp
Ġw ay
Ġch ar
at ing
e ct
Ġm u
Ġ ra
Ġ =
ll ow
Ġe ven
ĠS he
Ġl ife
. "
e re
Ġc he
Ġ 4
Ġa round
Ġthe se
v ent
Ġat t
ot h
Ġre m
p le
Ġh ome
n g
os s
Ġsa id
Ġe nd
Ġf ind
Ġa w
Ġl et
Ġbe fore
Ġwor ld
at h
Ġ 5
Ġc all
Ġcom m
d ay
Ġb u
Ġfe el
Ġwe ll
. .
Ġ very
Ġf am
is s
ow er
v ie
Ġw rite
an ge
Ġthe n
Ġcon s
Ġt ake
Ġm ade
o ld
Ġad d
u p
se lf
Ġword s
Ġs l
Ġdo es
Ġyear s
Ġdif fe
an k
a w
iz e
ou se
ur ing
a ve
Ġs omet
it ed
h y
Ġwh ile
Ġn ame
Ġl ove
Ġw ater
er t
Ġa cc
Ġmu ch
at her
am es
Ġc re
Ġbe l
Ġpers on
Ġch ild
Ġre l
e f
Ġc ar
Ġfo llow
Ġre t
Ġs et
Ġs k
ak es
itt le
Ġth ink
Ġth ings
Ġth ree
ul ar
Ġs ur
Ġb est
Ġth ough
Ġde c
ac ter
Ġbec ause
ra ph
pe ct
Ġa c
Ġbe ing
Ġag ain
Ġpro du
f fe
as ed
' re
Ġ ide
or n
âĢ ¢
i ed
Ġqu est
c ri
s w
Ġin d
Ġg reat
Ġ ent
ure s
Ġp ar
Ġh um
Ġn ow
Ġin v
Ġg ive
ci al
Ġex pl
Ġin c
u al
Ġm on
Ġdo g
at ive
at ch
w ard
Ġha pp
Ġf ood
Ġsh ow
I n
Ġ '
Ġo wn
it ies
it s
i b
Ġse c
Ġc r
ĠW e
Ġt ry
er m
Ġl ittle
Ġre ad
Ġc reat
i ble
Ġchar acter
Ġb ook
Ġdiffe rent
Ġf ound
ĠU n
an y
Ġfor m
in s
Ġbe g
re ad
ĠA s
a ir
th ing
l ed
Ġh igh
. [
et s
Ġg u
le ct
en er
r am
ĠW hat
Ġst r
we en
Ġl ar
b s
if ic
Ġke ep
Ġs y
ĠI f
Ġo ld
ar m
Ġst ud
d er
Ġt ri
i x
c ed
w ays
Ġha nd
n ess
Ġr ight
Ġgo ing
Ġo p
Ġsm all
ĠA l
c o
Ġin s
Ġfe w
Ġs ure
Ġf in
Ġbet ween
or k
j ect
im es
Ġe ar
Ġt y
ter n
e k
Ġsomet hing
al th
Ġm in
ant s
Ġg l
Ġin st
al e
Ġpl an
Ġre p
Ġsu ch
Ġus ed
in ce
as h
ĠM ake
Ġas k
t y
Ġex per
Ġpro v
od y
id ent
Ġa p
in es
ch ool
i et
u ally
r on
Ġc ome
ol og
t s
Ġpo em
b ot
ĠB ut
ir d
Ġs ent
Ġs im
Ġre al
c ess
Ġp h
Ġc ur
ic le
Ġpo int
Ġl oc
p r
at s
Ġre st
Ġre g
Ġfam ily
Ġv is
ic s
ĠB e
l and
ot e
re am
n er
Ġl o
T h
s s
Ġm us
i o
ot t
u ck
Ġs ay
e ver
Ġc a
ĠH ow
ag raph
Ġb re
Ġl ight
Ġan sw
mer ic
i ence
re en
Ġsu pp
pt ion
l ic
Ġas s
i k
Ġal ways
Ġm et
Ġp ass
Ġte ll
Ġw r
Ġst ill
Ġhe re
ment s
Ġus ing
Ġinclud e
Ġcall ed
Ġcl ass
Ġ $
Ġte xt
Ġne ver
Ġex t
Ġb o
Ġd et
he re
Ġch at
Ġle ar
Ġne xt
Ġe as
Ġr un
Ġg ame
am p
Ġl ast
n y
Ġpar agraph
Ġn ight
Ġf il
Ġd uring
Ġe y
m e
Ġs um
Ġaw ay
' ll
Ġt urn
Ġhe ad
Ġc le
r ow
Ġp ut
Ġpl ace
Ġp op
Ġret urn
e ad
e x
Ġp res
t e
h o
Ġin form
a z
Ġc ount
Ġm ight
i er
Ġb us
) .
ĠA meric
Ġgr ow
Ġres p
a x
at ure
Ġm ain
Ġs chool
r act
am ed
) ,
Ġdes cri
Ġto p
Ġv ar
in ess
pp ed
o k
Ġ 6
vie w
Ġfriend s
Ġu nt
h ip
r ic
Ġchat bot
g er
Ġb ig
Ġop en
ent ion
ĠThe re
Ġw alk
ĠA nd
, "
iz ed
I t
b r
i ke
an c
ation al
Ġc are
ra nd
Ġh ouse
em s
Ġ #
ter s
l ing
as on
Ġ ve
id s
Ġquest ions
Ġart icle
ĠS e
. âĢĿ
Ġkn own
ĊĠĠĠĠ ĠĠĠĠ
a red
p s
ar ch
Ġth ose
f l
o v
il ity
ĠC an
Ġpo st
a ut
Ġb oth
00 0
Ġs w
Ġw rit
Ġ1 8
Ġ1 0
ic es
ist s
Ġ20 1
Ġspe c
Ġm ed
Ġin ter
Ġhe alth
en se
Ġex p
m s
Ġ [
Ġs un
Ġan other
Ġwh y
Ġwe ek
en g
Ġunt il
au gh
Ġt alk
Ġe v
a h
Ġchild ren
C an
' ve
Ġs ame
u es
Ġs n
ion al
Ġg iv
Ġide as
Ġw om
Ġl ot
Ġre ally
Ġan im
we et
en ces
b ers
Ġsu b
Ġre qu
Ġm il
Ġte am
av or
Ġh o
Ġl ess
ro ss
ou n
Y ou
Ġbet ter
' ,
t en
Ġ20 2
er g
Ġimp ort
Ġg ener
Ġe l
ere st
vel op
Ġg ot
Ġme m
Ġfollow ing
Ċ Ċ
ĠR e
st and
ĠS p
Ġn amed
Ġd r
" ,
Ġwith out
Ġs ound
om m
ĠN ew
in ed
Ġmon th
Ġre f
Ġtr ans
y le
Ġsec ond
Ġh ist
Ġ 8
Ġ {
Ġst ate
i red
Ġ2 00
Ġf act
Ġle ft
ĠW hen
_ _
l ine
Ġs ign
l ess
c er
Ġinclud ing
ac es
Ġd el
Ġp os
re t
Ġa ut
Ġc ent
âĢ ľ
Ġc at
ic ally
Ġp ur
Ġs ong
Ġp oss
Ġne ar
Ġs ol
Ġyou ng
ĠP lease
Ġle ad
Ġsp ace
Ġf our
H e
ĠA n
j oy
es e
y s
âĢ Ķ
Ġsome one
A nd
Ġf ive
Ġm aking
Ġcre ate
ro p
Ġdid n
u nd
u c
H ow
Ġl and
ain s
1 5
S t
Ġg rou
ut e
Ġp ol
ow s
Ġv al
Ġa v
Ġde velop
Ġm ust
Ġa ir
Ġh ard
Ġnum ber
one y
Ġdis c
Ġd i
Ġto get
Ġtoget her
Ġd ri
ate ly
id ed
Ġint erest
it ing
id er
id es
Ġro om
Ġprodu ct
s ide
ĠS h
Ġinform ation
Ġhum an
Ġb ody
at t
Ġd ist
Ġlar ge
t o
Ġem ail
Ġf ree
as k
Ġk ind
g an
P lease
Ġd ays
Ġ 7
ĠHe re
, ;
; ,;
ce pt
od e
e red
' d
gg est
are nt
ĊĠĠĠĠ ĠĠĠ
Ġp ain
Ġp ower
ĠM ar
t on
Ġen joy
Ġp ub
Ġj ob
Ġm om
Ġof ten
Ġo b
at ur
Ġf ull
ĠA d
Ġlear n
ĠW h
ĠJ o
1 9
b y
ffe ct
W hen
Ġl ive
c om
Ġm ag
Ġle ast
Ġap pe
Ġe at
st er
or ies
Ġm iss
ri es
Ġbel ie
qu e
o es
Ġs ince
ra in
Ġunder stand
ne y
Ġbu ild
t he
is hed
Ġhe art
Ġty p
ard s
le ep
Ġs ing
o on
ĠM ay
Ġcont in
it ive
ar r
Ġl ine
ĠD e
ĠUn ited
Ġw ent
ir l
1 7
, âĢĿ
u g
Ġ ed
Ġp at
Ġpro g
Ġlook ing
5 0
Ġd ire
Ġthough t
Ġto day
us h
Ġdoes n
Ġey es
m an
Ġf ore
ert ain
Ġc ook
Ġp rom
Ġe ver
en c
Ġs al
Ġab le
Ġp ot
Ġex am
Ġsu ggest
Ġbe h
v ice
Ġm ark
Ġha ving
Ġcomp any
i ent
Ġbe aut
Ġget ting
Ġtry ing
re ate
if t
Ġp ast
Ġpro f
ĠO n
Ġen ough
( )
en e
ru ct
Ġe le
Ġcomp let
a ur
ĠK e
m ed
Ġc ame
u ff
um p
ĠP l
Ġagain st
ill ion
Ġ es
Ġfun ction
it al
ie ld
p ort
Ġw ind
an e
Ġw a
ro du
ĠA r
Ġ 9
Ġc our
ĠA t
Ġbec ome
ĠF r
fe ct
Ġbus iness
Ġc ity
Ġd ra
ĠM y
m y
Ġbre ak
Ġon ce
ch n
Ġqu ick
W e
Ġst and
Ġtra vel
2 0
ut es
Ġimport ant
ar th
i um
ar ing
ag es
Ġb ul
Ġh our
ci ent
ĠB l
pe nd
Ġm ind
Ġs ide
c on
Ġpr ot
us s
Ġal ong
Ġany thing
ut ion
if y
i ents
ĠF or
un ch
o ice
Ġsy st
Ġpro ble
ew rite
Ġ Q
Ġfil m
Ġm ar
at a
Ġm other
ĠSt ates
Ġth ing
Ġcomm un
b all
Th is
ĠL e
Ġun i
b o
ro om
Ġact iv
pp ing
ĠF l
a pe
Ġw in
in ing
B ut
1 0
R ewrite
Ġf all
Ġm akes
em ber
Ġtoo k
en ed
Ġbl ack
Ġw ays
on es
Ġmo vie
Ġw on
Ġco nd
Ġc al
Ġst ay
Ġstart ed
in a
Ġp ay
out h
ill s
Ġme an
Ġsu per
Ġf avor
Ġb it
Ġexper ience
Ġsupp ort
Ġo pp
Ġm or
Ġl ater
Ġst ore
Ġlet ter
ust om
ĠTh at
Ġ 0
Ġmo ve
Ġp lease
ot s
ent ly
ĠâĢ ĵ
Ġm oney
? "
Ġt re
Ġt imes
Ġpop ular
at ter
Ġgrou p
us ed
em ent
Ġdr ink
g r
ig in
ĠThe se
el s
os ed
Ġs leep
Ġf ar
Ġle g
pt ions
Ġexpl ain
b l
Ġb oy
a j
c hed
Ġbeg an
Ġs it
ri ed
Ġevery thing
Ġpart ic
o int
ip s
Ġcol or
Ġwrit ing
Ġansw er
clud e
s h
Ċ Ġ
Ġcomm on
c ent
M y
en n
Ġp arent
H ere
c le
Ġt one
Ġwh ite
is ion
Ġre view
Ġf ace
ĠB r
el t
Ġ Z
Ġor der
h or
Ġb ed
is m
Ġres ult
Ġcon f
Ġdo ing
ell ow
ĠE ng
Ġdes ign
h n
ur y
Ġch ange
Ġhist ory
Ġg irl
Ġk ids
ĠE arth
Ġho pe
A s
f ort
Ġch ang
Ġser ies
Ġinc re
se l
Ġcl im
Ġbeg in
Ġare a
Ġex c
Ġde f
pl oy
itt en
ĠAmeric an
Ġn ames
ie w
as es
ab y
Ġpro cess
Ġme et
Ġw atch
Ġde ep
Ġg ames
Ġde p
Ġt reat
ou d
m ing
Ġd ark
Ġre d
id d
Ġall ow
Ġte chn
av es
Ġeas y
as ter
ur t
Ġbel ow
an n
ir on
Ġother s
Ġcur rent
Ġwith in
Ġpl ant
Ġhapp y
Ġo cc
Ġdet ail
er c
read y
Ġdire ct
Ġen g
o id
Ġc ou
Ġansw ers
Ġt em
ĠI s
ĠW rite
Ġe lect
ĠHow ever
Ġwom an
ĠG ive
Ġmus ic
or ld
Ġp a
Ġevery one
Ġbr ing
Ġl a
Ġl aw
Ġe gg
ĠO ne
cc ess
Ġsent ences
Ġvis it
p ar
Ġt it
er r
Ġmin utes
ver se
r ay
Ġal ready
Ġprog ram
Ġs ays
Ġp ark
et h
Ġst ep
Ġcon st
Ġsa w
ĠC l
p ut
t ed
Ġg round
Ġse em
Ġ i
Ġto ld
A n
Ġc ustom
olog y
at or
Ġe vent
Ġor igin
al ity
Ġro ck
w ay
un g
ord ing
Ġsum m
ll ing
oo se
Ġg ra
Ġse ver
ud d
Ġspe cial
Ġprov ide
Ġh ot
ffe e
a pp
Ġf r
Ġle vel
Ġinv est
y ear
! "
Ġw ar
Ġwork ing
Ġbec ame
Ġa ud
Ġf ill
Ġto wn
) ;
ver n
Ġha ir
Ġty pe
Ġac ross
Ġcle an
Ġanim als
Ġbul let
Ġkn ew
Ġm ess
on t
ĠS o
a i
g est
w ork
ĠS c
un e
Ġout side
Ġsever al
l ish
ĠE x
pect ive
Ġcharacter s
Ġc or
Ġb ro
Ġcom es
it her
Ġst yle
ro l
be red
The re
ĠIn clude
Ġf oc
Ġv iew
Ġwant ed
Ġp ick
Ġel se
e or
ĠW ith
Ġl ow
Ġis s
Ġr hy
ĠK ing
Ġposs ible
Ġre se
Ġcol le
en ing
ĠA ll
Ġnew s
Ġ19 9
Ġre le
Ġre ce
Ġco st
Ġt est
ir th
ore d
ĠU se
Ġfavor ite
Ġc ap
res h
Ġrep ort
Ġm illion
z z
ent ial
Ġp ie
ĠT o
ĠD o
Ġmor ning
Ġb ird
Ġst op
ĠP r
Ġcount ry
Ġsyst em
if ul
ĠN o
Ġf ather
le y
e le
Ġt ree
Ġimp ro
- -
Ġto ward
Ġh or
Ġapp ro
in ation
Ġche ck
Ġse en
Ġpart y
Ġcomplet e
if ied
ron t
Ġb en
al f
ol ate
Ġper fect
Ġb ased
Ġcl ose
C h
Ġso cial
Ġoff er
W ho
ĠH is
ition al
Ġe ffect
Ġear ly
iet y
is ed
iv es
Ġbl ue
ĠA fter
Ġen c
ĠKe ep
Ġloc al
Ġp ri
Ġj o
b ed
l ight
r ing
or th
pp er
Ġa ge
on y
o or
Ġan n
m ost
Ġd ream
Ġli ving
Ġpub lic
Ġw o
Ġwho le
ĠU S
Ġprof ess
ack s
Ġsu ccess
.. .
Ġd one
ĠO r
ĠâĢ Ķ
ang u
Ġd ue
Ġquest ion
ab ly
ren ce
g ed
Ġh old
Ġme ans
Ġ ing
Ġf ut
b ut
ure d
Ġpr act
Ġke y
Ġche ese
er v
Ġg reen
ĠD on
iv id
ĠJo hn
Ġw arm
e e
Ġper form
Ġsim ple
v iron
Ġ `
Ġt aking
Ġor gan
Ġad v
Ġlook ed
Ġco ffee
le x
T o
Ġbl og
ren ch
Ġb ad
Ġstr ong
Ġfe et
i vers
Ġparagraph s
Ġ z
Ġl ay
Ġdo or
Ġso on
Ġide a
Ġhour s
Ġb all
ab les
Ġinv ol
Ġask ed
atur al
) :
Ġf ur
Ġb irth
O n
Ġl im
ra ft
Ġem ploy
Ġcons ider
re et
Ġdog s
it ions
ĠT r
Ġpl ants
Ġt erm
om p
Ġst e
av ing
re w
ow ers
r al
Ġg ard
ĠH er
Ġm en
Ġins ide
I f
] [
t ime
Ġbook s
Ġmonth s
Ġh y
Ġtr ad
o ll
Ġyour self
Ġ1 2
ne ct
u ed
Ġf elt
ĠY ork
Ġcour se
Ġse lf
Ġv ide
Ġspe nd
Ġit ems
Ġen erg
ĠP ro
Ġ1 7
oc olate
Ġrec ord
Ġm ention
ull y
Ġex pect
Ġbeaut iful
r ist
is on
ĠS ome
Ġsk in
k s
Ġj our
Ġinst ead
at ic
ri ef
Ġexam ple
Ġ ;,;
Ġbut ter
Ġc up
Ġb as
Ġp ress
Ġpos itive
Ġbo x
C reate
Ġm ult
Ġcont ain
o f
is ing
ar ry
Ġd in
Ġhelp s
Ġc ut
Ġben ef
c hes
Ġc ode
Ġs weet
Ġc ell
it ch
Ġ1 5
Ġle ave
Ġbeh ind
Ġ &
Ġ est
ag er
Ġing red
er al
Ġse ason
Ġneed s
Ġmark et
Ġ ice
Ġc amp
ra p
Ġgo ld
al es
Ġl angu
Ġnum bered
Ġcre am
hy s
Ġrest aur
Ġsing le
Ġsum mer
Ġfut ure
c an
Ġbl ood
w here
Ġt ast
pl ay
Ġspec ific
Ġparent s
b it
Ġf ight
Ġe qu
a im
ate g
Ġwr itten
Ġad ult
Ġsl ow
Ġo ptions
Ġsh o
Ġneed ed
Ġam ount
Ġpres ent
viron ment
Ġf ly
ur s
ĠW orld
ast ic
ac hed
Ġcom b
Ġpr int
Ġnot hing
ci ally
aj or
Ġenerg y
f er
y ing
il ar
Ġpl aces
Ġint rodu
Ġresp ons
y th
Ġmo d
Ġdescri ption
ĊĠĠĠĠĠĠĠĠ ĠĠĠ
Ġf ish
Ġd em
ort s
iz z
Ġhand s
Ġch all
f or
Ġso ft
i or
m b
ĠI nd
Ġre ach
enc y
1 2
m p
ĠS u
Ġy et
ĠC al
Ġra in
Ġst ra
Ġl ost
th ough
Ġtr ue
Ġpers pective
Ġaut hor
n ed
w h
Ġd ata
Ġcom ing
Ġf re
Ġk ill
Ġt akes
l er
Ġm ass
Ġe ither
ic ed
um ent
Ġtyp es
Ġuni que
t ain
eng th
yth on
s c
Ġre ci
iv ed
Ġpoint s
Ġquick ly
E D
Ġf ront
Ġb ar
an ces
Ġab ove
ĠY our
Ġ3 0
Ġtri p
Ġf resh
ud e
Ġspec ies
l s
Ġl ate
Ġli ves
Ġde ath
Ġw ild
itt ing
c ul
Ġh ig
ke y
l ike
Ġ ri
he ad
Ġlong er
Ġc ertain
Ġfeel ing
Ġind ivid
Ġs qu
at ures
Ġp u
id ing
Ġstud ents
g ar
p or
Ġf ast
Ġl ines
Ġ1 00
ĠF rench
Ġsur f
ĊĠĠĠĠĠĠĠĠ ĠĠĠĠ
Ġpre t
Ġent ire
Ġproble m
b ing
u se
Ġb aby
ang er
W h
ar ize
Ġis n
ĠC ar
Ġad vent
n ot
Ġm ount
Ġm ix
ac ed
Ġoff ic
Ġdif f
n a
an a
Ġup on
Ġin fl
Ġn on
Ġre ason
Ġbelie ve
Ġd est
ĠW ill
Ġpro ject
Ġmil es
Ġp et
Ġp hys
ĠC ol
ĠP e
Ġhim self
u ly
Ġs and
Ġne g
Ġav ail
ĠE l
Ġgiv en
Ġprot ect
it er
Ġf ire
is ter
ĠThe n
Ġwe ight
Ġ vers
ent al
Ġal most
sel ves
Ġn ove
os p
il t
ĠW ar
ist ic
Ġch ick
Ġcon vers
Ġgo vern
Ġcreat ed
( "
Ġc ult
Ġf ield
il i
Ġfo ot
Ġperson al
Ġcle ar
Ġfoc us
Ġf ru
Ġplay ing
i od
Ġs our
Ġd a
Ġcont rol
Ġsent ence
v ious
ict ion
Ġhe ard
il s
Ġse a
S o
Ġplan et
Ġs ix
Ġto m
Ġe ff
Ġre pl
Ġen vironment
Ġwo nder
z e
he l
ver age
Ġget s
Ġob ject
ed s
Ġoff ice
ele br
1 8
Ġs ize
ĠM r
Ġmy self
Ġcould n
Ġve get
c ing
e c
Ġex erc
ĠEng lish
C l
Ġp ack
Ġsh are
Ġb rain
Ġm ajor
Ġg rand
Ġem ot
Ġrele ased
er y
Ġan t
Ġcont ent
Ġingred ients
Ġst ri
ort un
ik u
Ġval ue
Ġ ess
ir t
ers on
ap s
g round
Ġr ange
ĠN e
Ġd ate
Ġh it
E R
Ġh alf
Ġpre p
Ġph one
d om
Ġst ar
Ġco ld
b or
er ing
ĠIn st
Ġvar ious
ĠC on
Ġwas n
ĠR o
Ġcommun ity
Ġhe av
Ġlo ved
Ġwom en
f ully
u ro
Ġs ense
Ġn ut
Ġn ice
et y
iz ation
Ġplay ed
Ġread y
Ġmet h
Ġ *
Ġc ool
ed d
Ġhe ar
ations hip
i ans
Ġm atter
Ġin f
ver t
em pt
Ġs cient
Ġ1 6
Ġcom fort
ĠWh ile
i am
m in
Ġc ause
Ġb rief
Ġgr ad
Ġmom ent
Ġ /
Ġb ot
Ġam ong
augh ter
Ġre du
Ġst ru
] ,
Ġm ot
__ __
Ġlangu age
Ġf air
Ġd iv
Ġro le
Ġsa fe
Ġgard en
Ġc elebr
ic ult
Ġtit le
in y
ou ra
Ġf ig
um b
Ġcl os
Ġsc ene
Ġlear ning
ol f
Ġmo on
Ġfin ally
Ġev ents
Ġg en
Ġv ol
pl es
Ġsk ills
b ook
v al
Ġs il
Ġb ott
is es
est s
ĠD is
Ġfun ny
Ġn atural
pe cially
Ġrel ationship
Ġactiv ities
Ġavail able
ac her
Ġdiff icult
s y
Ġf ro
omm end
g es
Ġ <
Ġs on
Ġo per
Ġd ig
Ġn ature
Ġmo der
Ġlike ly
c ol
ð Ł
Ġ }
Ġo bs
ĠA m
ide red
Ġmed ia
Ġmeth od
Ġth ird
ĠC he
ri ll
0 9
Ġs at
id a
Ġopp ortun
al y
.. ..
Ġca pt
Ġhealth y
Ġc ir
Ġb reat
um e
pl ain
g ing
ĠN ot
Ġcol ors
ac y
re me
Ġpro per
Ġper iod
Ġrun ning
at ors
ĠQ u
Ġact ually
Ġph ot
Ġt ou
Ġg ave
Ġrec ommend
Ġcons idered
Ġhum ans
Ġegg s
W ith
Ġatt ention
Ġdec ided
Ġturn ed
Ġbuild ing
Ġrese arch
i ver
s et
is k
rough t
i als
Ġf em
Ġb ag
ce an
Ġare as
. )
1 1
as ons
ĠB rit
ak en
Ġwork s
Ġdis co
Ġimpro ve
Ġw ood
Ġc ast
iz ing
Ġar ri
Ġag o
Ġlar gest
Ġstud y
Ġb orn
Ġbr ight
Ġpa per
" .
r or
Ġ ident
as hing
ĠP h
ĠL et
res ent
The y
ren g
ĠCh rist
Ġnum bers
d d
um m
Ġwant s
Ġwhe ther
ĠJ ust
Ġacc ess
Ġey e
T hat
as y
and s
ĠG eor
oc i
Ġus ually
Ġsomet imes
Ġins p
N o
s on
Ġt weet
Ġm ater
Ġab s
ond s
Ġsim ilar
Ġmem bers
Ġc rit
ow l
Ġon line
oo p
ul ation
Ġch ocolate
Ġgo es
Ġbu y
Ġcou ple
Ġvide o
Ġf it
Ġto t
id ence
ĠAd d
Ġwa it
Ġus er
on se
ĠM an
Ġcon nect
Ġli ved
ove red
ĠCh ar
Ġind ust
ĠAl so
Ġfore st
I N
w ord
Ġne igh
Ġcomp ut
Ġweek s
Ġdetail s
l ished
ĠT w
us es
Ġs ad
id ay
ch ie
augh t
Ġs au
or ing
Ġqu ite
Ġatt empt
Ġpartic ular
Ġf ail
Ġb ase
Ġh ost
art ment
Ġbr other
Ġacc ount
Ġmil k
e es
Ċ ĉ
Ġd ied
Ġe p
Ġsk y
Ġsur pr
Ġes c
Ġt ips
ad es
Ġdis e
Ġrem ember
ank s
Ġext ra
1 4
i ant
Ġb ur
Ġha iku
Ġprofess ional
Ġt able
op s
Ġbec om
Ġsurf ace
F or
Ġt our
Ġp ull
Ġv oice
Ġco ver
Ġtri ed
Ġaud ience
b um
g o
h ood
ough t
Ġexper i
Ġes pecially
Ġw ife
ĠT e
Ġ19 8
Ġtem per
ĠP ark
Ġreg ular
Ġdisc uss
att le
i res
Ġb al
Ġh ol
ĠC o
ap an
Ġrem ain
Ġnove l
ĠE n
Ġen s
ĠUn ivers
Ġwr ong
1 3
k n
Ġl if
as ing
ĠT V
her n
un t
Ġar g
Ġany one
Ġappe ar
Ġc ry
it c
Ġp ict
ĠP res
Ġex ist
Ġthrough out
Ġsuggest ions
r ation
Ġc ard
Ġst reng
ĠS m
ant ly
Ġex ce
Ġspe ak
i ally
p ly
og raph
Ġser vice
Ġtalk ing
k y
ac hes
el p
med i
m ber
if f
ab ility
Ġle aves
og n
Ġatt ract
Ġproduct s
idd le
Ġdin ner
Ġd ou
Ġal one
Ġde g
Ġanim al
S he
or ida
Ġr ather
a pt
Ġa ff
Ġw all
ill y
Ġus es
Ġgiv ing
a el
Ġd ress
ci ence
Ġimp act
f ast
Ġl ab
ic ious
ac ing
Ġac cept
Ġrestaur ant
ag ed
Ġse par
ick s
Ġro ad
Ġvar iety
e g
k ay
re g
ĠN ational
Ġcl ot
Ġsa ve
Ġacc ording
ĠC ity
Ġr ul
ĠG erm
Ġ19 7
Ġexpl ore
Ġwr ote
Ġs ens
Ġw ide
as ure
ie f
Ġte eth
Ġpos ition
Ġmag ic
Ġjour ney
A l
G ive
v ices
Ġ +
Ġb an
ĠJ apan
ĠAmeric a
Ġmess age
Ġc and
ĠG r
Ġte le
is hing
Ġse nd
Ġbirth day
Ġthem selves
Ġhapp ened
Ġfin al
ĊĠĠĠĠĠĠĠĠĠĠĠĠ ĠĠĠ
Ġmoder n
c ome
o x
Ġp ort
ight s
Ġc ase
âĢ ĵ
A S
b ody
Ġb rought
ĠG u
Ġgovern ment
Ġr ad
izz a
Ġchick en
al ing
Ġex act
ĠD ay
Ġexp ress
Ġav oid
Ġrhy me
Ġown er
Ġgener al
Ġmult ip
l t
ic o
Ġe ating
Ġk ing
Ġk id
Ġfam ous
Ġpass ed
Ġresp onse
Ġsign ific
m a
Ġc ake
ĠM c
ab et
ĠE very
Ġco ll
Ġ5 0
er a
Ġin tern
Ġstart ing
Ġtre es
H i
O ne
Ġlook s
Ġwind ow
ĠR ep
Ġfe ed
Ġpr ote
Ġcolle ge
Ġl ower
Ġmy ster
ĠE uro
Ġrequ ire
e b
Ġo il
Ġal bum
ĠN ow
Ġim ag
pr il
a f
n ow
p ose
ar c
Ġst ories
ĠB y
ĠP ython
Ġli k
ĠE d
ĠE m
Ġsu gar
ber t
Ġ202 3
ĠFl orida
3 0
s u
Ġcomp an
Ġsc ri
Ġsur v
p ite
er ry
Ġp ath
et er
Ġwor th
Ġfe ar
Ġcomp et
Ġbr own
led ge
Ġfor ward
Ġear th
Ġpur ch
u ation
er ve
Ġh on
am m
ad d
Ġwe ather
Ġsc he
Ġthink ing
Ġwalk ing
Ġed uc
Ġtot al
l o
ll s
Ġbe ach
Ġse arch
sw er
Ġdet erm
udd en
f riend
if orn
Ġsur round
Ġda ily
ĠEuro pe
Ġt en
Ġc atch
Ġb and
Ġcare er
Ġexerc ise
le ment
il le
il ities
ĠF in
Ġmo v
Ġcreat ive
Ġpret ty
Ġstru gg
Ġst ars
Ġte acher
Ġ19 6
Ġpre vent
Ġsay ing
Ġpie ce
Ġ1 4
b ack
Ġch oice
Ġcan not
ound s
Ġform at
Ġreci pe
Ġ X
om s
Ġse ems
ĠG o
Ġ2 5
Ġshow s
Ġsound s
Ġconvers ation
id ge
Ġwe bs
Ġv ill
Ġsp read
ens ive
Ġhist or
Ġorigin al
Ġenc oura
re st
Ġtr ack
ub lic
Ġask ing
anc y
a ff
Ġt all
Ġc am
Ġan g
ct or
Ġdo c
Ġspe ed
Ġrequ est
Ġscri pt
O N
Ġd am
Ġra nd
Ġbird s
Ġinfl u
Ġneg ative
iforn ia
p es
Ġs us
Ġst ress
ĠD r
Ġfur ther
ĠUnivers ity
Ġstreng th
Ġt ask
Ġst ream
Ġv ac
olog ical
He y
Ġmov ies
o ff
u ct
re ct
Ġb rand
Ġin it
Ġon es
Ġsau ce
Y our
p os
he t
Ġl ength
ad y
Ġfe atures
d ef
Ġa verage
re ci
ĠM e
ĠM ex
Ġloc ated
Ġmultip le
e en
l ist
Ġc orn
Ġhe at
Ġ1 1
Ġmay be
Ġdevelop ment
Ġt aken
Ġp ig
Ġd ro
ĠC ent
Ġset ting
con om
? âĢĿ
h a
r ict
s ing
Ġd iet
Ġy ellow
Ġe t
ent y
ur al
ant asy
Ġr an
Ġpart s
Ġsim ply
o ke
re l
Ġr ate
Ġde ad
ĠR es
Ġ4 00
Ġgl ass
ĠSp ace
Ġcent er
Ġchang es
ĠBrit ish
w rite
Ġf und
ar p
Ġl ed
Ġor d
Ġch oose
Ġproble ms
Ġchall eng
g s
n am
r ight
z y
Ġp an
ir m
ĠA pril
Ġte a
Ġhow ever
v in
at oes
Ġd ry
Ġg ar
Ġne cess
Ġso ld
ĠJ une
Ġbu ilt
Ġmiss ion
Ġtast e
Ġrand om
Ġb oss
Ġd ial
al d
Ġgo als
Ġeas ily
Ġexc ited
v ision
or row
ag ue
ĠN orth
Ġt rou
Ġa chie
Ġto ol
Ġd aughter
Ġr out
iz es
Ġfl owers
Ġsm ell
bo ard
Ã ©
Ġc ats
Ġm at
ĠM ich
ol ution
ib ility
Ġcomplete ly
Ġbenef its
ĠCal ifornia
Ġo cean
ĠS w
ag ing
air s
Ġstud ent
Ġcontin ued
Ġann oun
Ġhig her
k en
m es
Ġin vent
Ġst o
Ġcl oud
Ġread ing
Ġ ill
ic ate
Ġre ve
us ion
Ġext reme
Ġsw im
i os
om b
il ed
Ġr u
Ġde al
Ġcl aim
du le
Ġcreat ing
Ġpol it
D ear
e pend
Ġt urt
ag o
Ġincre ase
Ġelect ric
` `
Ġa st
Ġs we
at o
it ter
Ġp le
Ġl oss
Ġbe ar
am s
pp y
ĠĠĠĠ ĠĠĠĠ
Ġar ray
Ġpres ident
az ing
Ġdra w
Ġfill ed
Ġpri v
in o
Ġhe ld
ĠS er
og ue
Ġpre vious
Ġplay ers
Ġrec ogn
ĠPres ident
o ver
ra w
ĠB ar
Ġfood s
Ġfact s
Ġstep s
Ġsumm ary
Ġadvent ure
ing er
Ġv i
Ġnear ly
Ġpain t
Ġiss ues
it es
ĠD es
Ġfru it
Ġcomput er
Ġv ict
iv ity
end ed
Ġrece ived
Ġtou ch
2 00
e ke
u el
ro ll
Ġpro b
ĠG reat
ell o
Ġper cent
Ġclass ic
Ġgrow ing
Ġgiv es
Ġinterest ing
Ġocc ur
Ġevent ually
Ġinvest ig
b and
Ġf ine
Ġis land
Ġst ates
ig er
ĠA ust
us ing
Ġcon cer
S h
g ov
Ġa ction
an ced
st r
Ġpower ful
A fter
Ġt er
Ġo ption
Ġmo ved
ock s
Ġser ious
aw s
Ġprov ided
Ġdisc overed
Ġstra ight
c ast
v as
as p
ive ly
Ġpl at
ĠR ed
B e
k ing
n um
Ġw at
im ately
ag ement
ord er
Ġseem ed
itc hen
I s
Ġs av
Ġf arm
ic a
ic y
Ġg one
Ġst ruct
Ġde b
Ġinclud es
Ġinter view
Ġcent ury
umm arize
Ġneigh bor
d o
Ġm is
Ġh us
ĠM ark
Ġr isk
Ġim medi
Ġass oci
Ġindust ry
Ġfor mer
Ġme al
Ġle aving
iv al
Ġvar i
u ge
Ġpr in
Ġapp reci
Ġmus cle
Ġpot ential
Ġmount ain
est ion
Ġch ance
Ġset t
Ġm outh
Ġd ram
Ġd anger
ĠThe ir
ĠH arry
Ġgr id
Ġcol lect
Ġfollow ed
Ġloc ation
Ġtechn ology
u ary
Ġa ffect
ar get
ant ic
un k
Ġtra ining
Ġfem ale
E x
g en
Ġm ach
Ġh op
Ġst age
ĠS am
fe rence
ĠSt e
E N
O h
S ure
ĠA pp
ĠD av
ĠG ree
Ġfl avor
Ġsong s
Ġab ility
Ġdo ll
Ġwork ed
Ġlo ves
Ġcontin ue
Ġep is
eke nd
ĠC omm
ĠH ouse
Ġde fe
ĠJ ames
Ġinclud ed
! âĢĿ
re es
Ġf ix
Ġth row
om an
Ġre ached
ur ity
ĠM ount
ak ed
ĠJ ack
Ġpe ace
Ġcons um
Ġstr ing
Ġdise ase
A R
g y
it ary
Ġf at
Ġn et
Ġwe ar
Ġde cl
iss ion
Ġsec ret
Ġtoward s
in ary
Ġp izza
Ġn orm
Ġg ift
Ġe conom
ĠM ars
Ġwe ekend
Ġadd ed
Ġsub ject
Ġbreak fast
Ġphys ical
an z
Ġit self
Ġsh op
Ġfl oor
Ġatt ack
Ġrep resent
Ġbeaut y
Ġcond itions
Ġwatch ing
ĠGeor ge
I I
Ġs ight
Ġin put
Ġh arm
ir ing
Ġqu ality
Ġfeel s
n es
Ġare n
Ġr ound
Ġso il
Ġmo ving
Ġdel icious
Ġpress ure
b on
n ers
Ġplay er
Ġgl ob
ashing ton
kn own
H ello
Ġp red
ĠF rom
Ġsp ent
Ġsp ot
Ġadd ition
Ġass ist
oun ter
Ġ202 0
Ġbegin ning
Ġindivid ual
Ġsour ce
il es
her s
ĠW ho
Ġher self
ĠO h
Ġ3 00
Ġfind s
Ġmain tain
Ġsn ow
Ġ rom
Ġf ile
ĠG et
Ġknow ledge
Ġgrow th
Ġresult s
edd ing
or ry
Ġst uff
ĠA ng
ĠâĢ ĺ
Ġpract ice
Ġtrad itional
1 6
A t
g on
Ġs ou
it ude
ed y
am b
ĠS outh
ĠW hy
Ġk itchen
ĠE ven
rop ri
ĠBl ack
i ber
Ġc aught
Ġb read
Ġth ous
ĠA re
Ġme at
ĠJ an
Ġstart s
Ġterm s
Ġveget ables
S ummarize
Ġs cience
al t
Ġpl ot
Ġim m
Ġold er
ĠOn ce
Ġin n
ĠA f
iv il
Ġsp ir
Ġoff ers
Ġmeet ing
Ġopportun ity
C T
u als
Ġd ance
Ġsp ring
Ġfriend ly
Ġent ertain
Ġinter act
Ġdri ve
Ġcustom er
o le
it ation
Ġb i
ar a
Ġg ain
ĠM ed
em y
Ġthough ts
Ġprov ides
pr int
Ġcount ries
B A
W here
Ġme l
Ġal i
Ġdec or
Ġopen ing
udden ly
i us
y ond
ic ation
ĠW ashington
ĠG l
Ġj oy
Ġdis play
Ġpr im
Ġiss ue
n et
Ġt iny
he st
Ġre lease
ĠC reate
Ġthem e
ang ing
ff ic
Ġrec ent
n ight
Ġb ank
am in
il ing
ĠM in
ak er
ĠE ach
Ġnot e
Ġsu it
Ġdis h
Ġfl ight
Ġcons ist
Ġreg ard
ĠSu per
E S
an ch
Ġg as
ow d
Ġu r
Ġde pend
ĠO ct
Ġknow s
Ġinst ruct
Ġens ure
Ġexact ly
D o
y l
st orm
id ents
Ġsc reen
Ġstate ment
Ġdial ogue
m on
o oth
Ġth reat
ill a
ul a
op h
Ġrem ind
Ġrem ove
Ġchang ed
A T
Ġ ,
in ct
ĠT ake
Ġst ick
am ing
Ġmean ing
Ġprob ably
2 5
e xt
n s
n al
p ro
in al
Ġre pe
Ġpr ice
Ġrec ently
Ġche m
Ġeng ine
" )
W hy
m ore
Ġb ask
ĠP a
Ġgo al
ue en
Ġar r
Ġcont act
Ġser ved
Ġdiffe rence
Ġprodu ce
Ġc ross
Ġj ump
Ġ[ '
Ġpol ice
Ġcustom ers
Ġwebs ite
y st
Ġb urn
Ġm iddle
Ġl uck
Ġl iter
ĠA I
os ing
ĠG od
Ġ2 4
Ġthan k
Ġke pt
Ġadd itional
ib ly
Ġbullet ed
Ġhus band
h t
l ife
en ced
Ġre asons
ĠM any
ri b
ĠJ e
Ġfe ature
Ġ4 0
Ġrel ax
cri pt
Ġca used
Ġopen ed
Ġsal t
2 6
Ġt ail
Ġc as
ĠJ uly
Ġgr ass
ress ion
Ġwalk ed
An swer
Ġheav y
A N
Ġb le
ar ies
Ġh ik
Ġon to
im ate
ĠL ou
Ġsa f
Ġam azing
Ġtyp ically
Ġdesign ed
Ġbott om
ĠMich ael
O R
Ġc red
Ġadd ress
Ġve h
Ġpu zz
i est
o ved
Ġe ight
Ġse ven
Ġv ir
iv ing
Ġsl ight
Ġemploy ees
Ġest ab
Ġimmedi ately
Ġt arget
Ġc ateg
Ġb ra
ĠM oon
ra b
Ġte en
Ġte ach
ren ces
ock ed
Ġmag ical
a res
y ellow
ad a
Ġcomp lex
Ġfl o
Ġem erg
Ġsuccess ful
Ġslow ly
C ome
e ch
g reen
h ouse
m pt
nd s
Ġf ict
Ġb ud
Ġm id
ĠA b
ĠW est
ĠP ot
ĠO ver
Ġaw are
Ġwin ter
Ġcal cul
an ut
Ġst orm
ru ction
Ġrel ated
Ġexpl an
Ġbeh av
Ġmar ried
Ġleg s
Ġet c
b re
re y
at ory
Ġc op
ic ated
Ġfe ll
Ġcreat ures
Ġlar ger
und red
Ġpub lished
Ġlevel s
Ġcap ital
Ġbas ic
Ġfig ure
c raft
Ġm ist
Ġfor get
ĠW ell
Ġus ers
Ġdis hes
Ġinc red
Ġbo ard
Ġpat tern
ĠIs land
Ġtrou ble
Ġw ish
Ġb owl
en ge
Ġfor ce
Ġit em
ore s
Ġj u
av ors
Ġqu iet
Ġser vices
ĠSe pt
Ġcult ure
Ġt on
Ġw edding
ot es
Ġme ant
us hed
Ġ202 1
Ġgrou ps
Ġreport ed
Ġsand w
ĠM arch
ri but
Ġ1 3
Ġprodu ction
Ġclim ate
Ġjo in
Ġcir c
f act
s p
u k
ar ily
ens ion
Ġscient ists
D on
h ost
r is
Ġh om
Ġre v
ot ing
ĠS an
ĠP ar
all ow
com ing
wh ite
Ġdoc ument
Ġfict ional
Ġ .
Ġp age
ĠT ry
Ġst reet
Ġar ms
Ġ= =
Ġtell ing
Ġesc ape
c he
e y
g in
Ġ ut
re ly
Ġallow ed
Ġappro ach
Ġmention ed
Ġexpect ed
Ġp air
Ġin j
Ġh uge
ĠM ary
ĠF irst
Ġco ast
omet imes
Ġadult s
Ġcomfort able
7 0
L et
M ake
w are
Ġf ac
Ġd om
Ġh un
Ġup d
cl es
ap ed
Ġdec ide
Ġpur pose
Ġredu ce
2 2
ï ¿
Ġc ro
on ic
Ġl ose
ĠR uss
Ġall ows
ous ly
od ay
Ġar m
Ġro ll
Ġpre fer
Ġtra in
Ġfil ms
ug ust
Ġpartic ip
Ġinvol ved
Ġtele vision
ĠAf ric
Ġf antasy
ĠM ost
ĠH ave
ace book
Ġad m
ĠSt ate
Ġcar ry
Ġreg ion
Ġeas ier
Ġgra b
Ġvers ion
Ġvi ol
b ased
l in
o ber
ĠT y
ĠT ex
Ġse ll
Ġr id
ĠL a
Ġint e
ock et
Ġend ing
Ġreal ized
Ġsol ar
Ġdevelop ed
Ġcook ing
bo x
err or
Ġdam age
ropri ate
ï¿ ½
p oint
Ġm atch
Ġl augh
Ġg iant
ĠC ount
Ġad vice
Ġ- -
Ġhelp ful
Ġfin an
Ġdescri be
Ġactiv ity
Ġsit uation
ed eral
Ġbe yond
ut h
Ġwho se
itt ed
Ġdec ision
Ġmiss ing
Ġcond ition
On ce
v est
Ġg ro
Ġst ock
out hern
um ents
ĠH aw
Ġsh ape
ĠR em
Ġwrit er
Ġdi am
Ġele ments
H elp
R e
h ol
Ġl unch
Ġth r
im ent
ĠS un
Ġan x
Ġan cient
Ġag re
anc ing
Ġess ential
Ġ/ /
Ġs ort
es tern
am a
ĠP ut
Ġcon c
Ġcon cept
Ġstr ange
ĠAl though
Ġplan ning
ines e
Ġnear by
Ġtemper ature
Ġnecess ary
A ll
o om
Ġt ick
ĠA ward
ĠC le
ol ute
Ġr ace
Ġal tern
pt y
ber ry
Ġfind ing
Ġreturn ed
Ġresp ond
Ġev idence
sy ch
Ġo kay
Ġb ath
ĠT urn
ĠB u
ag ram
Ġr ough
Ġres our
Ġlot s
m as
p erson
Ċ ĊĠĠĠ
an i
Ġh undred
ĠA nt
ĠP er
em ic
Ġ' $
Ġgu ess
Ġwa iting
Ġcell s
Ġfre qu
Ġpl enty
ĊĠĠĠĠ ĊĠĠĠ
Ġgu y
Ġsmall er
mb ol
Cl ass
Ġmater ial
' ],
o pe
w ood
Ġd ie
Ġr ich
Ġfeel ings
Ġass ign
Ġbelie ved
Ġcor rect
Ġclos er
Ġplat form
Ġc ards
or por
Ġm ic
Ġto oth
ĠC r
Ġpl astic
Ġtr ust
ĠSt ar
Ġhapp en
Ġcr owd
Ġpass age
Ġrequ ired
Ġexplain ing
Ġcurrent ly
Ġsignific ant
Ġsto pped
f ish
in ated
Ġm ill
Ġl og
and er
Ġout line
Ġwould n
Ġover all
ob b
ĠQ ueen
ĠWill iam
O f
d e
Ġs ite
Ġl ink
Ġu lt
ct ions
Ġne ck
Ġal ph
Ġro se
ub e
Ġsee ing
Ġdef in
Ġhor ror
Ġindivid uals
ĠSept ember
Ġ ir
Ġa head
Ġs ister
at ives
es ter
Ġth ick
Ġst at
Ġu nd
Ġch o
ĠG ener
Ġnot iced
Ġatt end
Ġclot hes
. ,
a ult
i pped
Ġo pt
Ġc y
Ġd rop
al ed
ĠB ill
ĠP at
ĠG old
Ġshe l
Ġbel ong
ĠSe c
Ġunderstand ing
mpt oms
4 0
N ow
c y
h old
u x
v ille
Ġ verse
Ġc raft
Ġst anz
se um
ĠC omp
ag on
ĠF acebook
Ġar ch
Ġfl our
Ġfl ower
Ġhigh ly
Ġturn s
Ġsepar ate
Ġachie ve
d own
m osp
on na
Ġl at
ĠT om
im s
ab or
Ġli br
Ġbl ock
Ġear l
Ġdream s
Ġbreat h
p re
ã ģ
im port
te red
ĠAmeric ans
Ġref lect
Ġexce ll
Ġrul es
W ell
d a
t r
Ġs itting
Ġc ash
Ġp al
ĠN ame
Ġfl at
Ġfl ow
Ġhelp ing
Ġser ve
Ġact ive
Ġbask et
" :
E very
i qu
z en
Â ł
er n
Ġc ra
Ġy ard
Ġst ation
ĠH ar
Ġso ci
rou d
ative ly
Ġown ers
Ġinst all
Ġed ge
-- --
ĠOct ober
a id
h ib
l or
Ġc ars
Ġb attle
im um
ad o
ĠS pe
ĠA c
ĠA ugust
ĠH en
oy al
ĠCh inese
Ġmu seum
Ġfin ished
osp ital
Ġparticular ly
Ġcompan ies
, [
f ree
Ġa f
Ġc ities
se c
ĠM on
Ġv an
Ġal though
ru pt
Ġreal ity
Ġla unch
Wh ich
Ġsaf ety
r s
Ġthe rap
Ġf le
Ġh urt
ve y
Ġst ood
Ġst aff
il ies
ate ver
ort ion
Ġbl ank
Ġsm ile
Ġgener ally
Ġmem ber
Ġinterest ed
ĠBl ue
Ġdem and
Ġtool s
Ġassoci ated
Ġmach ine
2 9
l a
o ot
Ġc it
Ġm ental
Ġh ar
Ġn ational
Ġsh ip
Ġat mosp
Ġex cept
ĠO ur
Ġsy mbol
Ġcook ies
Ġrespons ible
f ill
h am
i pp
Ġw ings
al se
Ġl ack
Ġde v
Ġad op
cc ording
ĠV al
Ġdri ving
Ġprom pt
Ġsal es
Ġbecom ing
Ġdou b
Ġchem ical
6 0
j ust
s es
Ġc ow
Ġp en
Ġfor g
el es
Ġsp orts
Ġsc en
Ġspe ech
Ġapp lic
Ġlet ters
Ġext ract
Ġpop ulation
Ġmil itary
Ġpa id
Ġpie ces
ĠJapan ese
A L
B l
J o
Ġt im
Ġun f
Ġhelp ed
Ġlead ing
Ġele ment
Ġexc iting
ĠPe ople
Ġarri ved
Ġast ron
ĠTex as
ï¿½ ï¿½
it or
as hed
ĠI m
ĠI nt
ot o
Ġha ven
um ber
ul ate
art s
ĠJ im
ĠTh ank
ci ous
ash ion
Ġmet al
Ġlearn ed
Ġchall enge
ĠInst ead
h aps
Ġc ivil
ic les
ve red
Ġr ide
ib r
ĠAs s
Ġdist ance
ĠEng land
Ġbro ken
Ġintrodu ction
Ġfinan cial
S u
Ġf irm
Ġb ones
or a
Ġh ung
Ġg e
Ġwe l
um n
ook ing
Ġem p
Ġdeg rees
ĠMex ico
Ġinstruct ions
Ġslight ly
9 0
S ome
Ġs pl
Ġf an
Ġb aking
Ġwor ry
os h
ĠG reen
Ġright s
Ġcomplet ed
bl ack
Ġvac ation
* *
1 00
2 1
Ġs ick
Ġst ret
ur ies
us hing
Ġman ager
Ġart ist
Ġind epend
Ġsub st
Ġho le
Ġprote in
Ġextreme ly
Ġnet work
Ġnorm al
m ark
n o
Ġb ill
Ġb illion
is p
Ġl oud
ll a
ur ch
Ġad vert
Ġtr uly
Ġstr ateg
ĠWh ite
Ġemot ional
Ġhol iday
Ġvill age
ĠLou is
Ġexplan ation
C omp
F rom
i xt
Ġt ax
Ġb ite
Ġm ax
Ġto w
ar ter
Ġd ed
Ġre act
âĢ ¦
ĠM ag
ĠW ater
ess ert
Ġsu bs
ĠSt art
Ġback ground
Ġsec urity
Ġap artment
bl ue
Ġmot iv
Ġvol can
Ġdisco ver
Ġbal ance
c ause
r ated
Ġm ur
st yle
ad s
ĠP ort
us i
all s
Ġfl avors
Ġkeep ing
Ġeffect s
Ġbecom es
friend ly
Ġpriv ate
ĠJan uary
! !
c are
Ġhe ro
ant a
Ġr ise
ĠU p
Ġcar bon
Ġfollow s
Ġsupp osed
Ġsol ution
Ġeff ort
Ġpict ure
AS A
Ġcas ual
Ġbud get
C on
n ame
w ater
Ġs illy
ad ed
ĠS atur
ce nd
Ġme as
ĠP ol
Ġun s
Ġapp ly
Ġ202 2
Ġ0 9
Ġbro ad
ĠDis ney
Ġthous ands
D es
P l
Ġs orry
om en
ĠT ell
ro y
ĠM ore
ĠC om
ĠH igh
ĠP re
ĠR ich
ĠR ock
ap pe
Ġsc ary
ob by
Ġhum or
Ġbeg ins
Ġbig gest
eng u
Ġtrans port
Ġsumm arize
Ġpict ures
Ġaff ord
ĠHaw ai
Ġalph abet
n oon
Ġt ired
Ġp ool
ic ing
ent le
ĠS ince
ag s
Ġcom ment
Ġpro p
Ġte nd
Ġpo or
Ġpo et
Ġeven ing
Ġprodu ced
Ġprog ress
Ġexam ples
ĠFr iday
ĠKing dom
Ġhig hest
ĠRep ublic
ĠPot ter
l ies
u gg
Ġc ere
ri ble
ĠN ove
The n
Ġtr uck
Ġres c
Ġmost ly
Ġform ed
Ġgu ide
ok u
Ġfull y
Ġfore ver
Ġincre ased
Ġpurch ase
Class ify
N ame
ĠĠ Ċ
Ġst y
se e
se ct
ĠC ons
Ġsh oes
Ġse at
Ġr ow
Ġsp r
Ġem pty
ĊĠĠĠĠ Ġ
Ġra ise
Ġdirect ly
Ġperform ance
Wh ile
Ġtom orrow
ĠChrist mas
ograph y
ĠGerm an
v ia
as c
Ġg rew
ĠT im
se qu
ro ph
ĠM us
Ġpl ays
Ġad apt
ne w
Ġlist en
Ġend s
Ġcr ime
____ ____
Ġsurpr ise
8 0
a e
i ers
k in
Ġs uddenly
Ġc ru
Ġd en
ic ago
ot ed
ite ly
ĠL ake
ĠO ther
cl aim
Ġsc ore
Ġra p
Ġsy mptoms
idd en
Ġeduc ation
Ġbehav ior
2 3
F l
O U
g le
in i
Ġo ven
Ġc ases
Ġb ond
as ion
ly mp
ra id
ĠL ove
Ġpe anut
Ġ19 5
ian a
Ġca uses
Ġposs ess
() `
Ġtravel ing
Ġsyst ems
Ġrece ive
Ġpu ppy
J ust
Ġw it
Ġp ink
ĠM ond
ate ful
Ġse ction
ĠJ ul
Ġrem ains
ott en
Ġbus y
Ġwrit ers
Ġbrain storm
Ġfair y
Ġmyster y
Ġexcell ent
I C
Q u
w ise
x ic
om as
Ġn arr
ĠI I
ĠA ny
ce mber
ust ain
Ġ2 1
ĠO ff
ber ries
Ġrem ote
pect ed
Ġop in
Ġjob s
Ġmove ment
Ġmass ive
Ġpolit ical
Ġspir it
ĠNove mber
I T
r ics
Ġ er
Ġd ad
Ġn ative
im p
ĠC a
Ġ2 2
ell ig
Ġsm ooth
Ġnum er
Ġappe ared
Ġcolle ction
Ġgrad u
Ġturt le
Ġatmosp here
9 9
E O
F r
I S
O r
d oor
e ed
Ġf ans
Ġnot ice
ĠO lymp
Ġpo ll
Ġim age
ĠSt ud
Ġdis appe
Ġtw ist
Ġinc ome
Ġkeep s
az e
Ġref er
ĠFr ance
ĠGerm any
Ġepis ode
ĠSatur day
A r
Ġ |
Ġf iction
Ġof fe
Ġst uck
oc r
ĠN ASA
ĠSt reet
Ġpart ner
Ġtra il
Ġent h
anc is
Ġspend ing
Ġprep are
B y
y m
Ġ x
is l
ar ian
al ian
Ġl one
ĠS al
ĠS im
ak s
Ġsp in
Ġco vered
Ġend ed
St ep
ĠMay be
gr id
.... ....
Ġdou ble
Ġsche me
Ġlibr ary
4 5
= "
C ould
Ġ ver
Ġw olf
er o
Ġp ir
Ġp and
Ġh ospital
Ġbe at
ĠA ct
ĠM ic
un ning
ĠP art
Ġpro s
ĠR iver
Ġfam ilies
ific ation
Ġteam s
Ġfour th
Ġ9 0
ĠFr ank
Ġdrink s
Ġpuzz le
2 8
a per
u nder
Ġm ir
Ġp ets
Ġn ation
ĠW here
Ġr ing
pl ace
od ies
Ġpre m
Ġpres ence
Ġhor se
Ġexperi ences
Ġneighbor hood
Ġvir us
Ġton ight
Ġp sych
Ġd essert
ch ange
ĠP ac
Ġapp ropriate
Ġaw ard
Ġlight s
Ġdire ction
Ġlik es
Ġcit iz
2 4
A M
f ly
x imately
Ġg host
Ġhe ight
ĠS pr
Ġsh ut
Ġpl ans
ail s
ĠCh ina
Ġadd ing
Ġproject s
ili ar
Ġwonder ful
ĠChar l
Ġcloud s
Ġresour ces
b an
r ate
Ġl au
ac on
ĠC ont
ĠP o
ĠL ike
ĠPl ay
Ġmod el
Ġcorn er
Ġaf raid
b es
g ers
v ant
he ro
Ġm ale
an ish
al ax
ĠT H
ĠS ign
iz ard
Ġcont ains
ord s
Ġart ists
ĠDe cember
Ġuni verse
ĠPr in
Ġfly ing
Ġstra w
Ġprep ared
Ġdanger ous
ĠDav id
O T
a it
i que
is c
Ġm ood
Ġg entle
ro st
ĠA g
Ġha bit
Ġv it
ĠF ood
Ġspe ll
Ġcont ract
Ġem b
Ġchar ge
Ġind ex
co hol
Ġdet ect
room s
ĠEx plain
Ġcost s
e ah
w ide
Ġf if
Ġp ow
Ġp ounds
le ar
ri age
ĠB el
Ġme als
od es
ond on
Ġacc ident
Ġcour t
ĠAt t
ann el
Ġlay er
Ġchalleng es
T urn
b ur
Ġs ustain
Ġw is
Ġb ound
ĠM art
em on
Ġcom mer
ud oku
ĠL ist
Ġshe et
Ġfl u
ĠCh icago
ost on
cri be
Ġent ry
Ġvis ual
Th ank
Ġclass es
ĠSe a
Ġpat ients
ĠFr ancis
Ġlim ited
Ġrestaur ants
Ġkill ed
Ġbase ball
ĠAust ral
olute ly
N ot
U n
b its
it le
on ent
Ġd ru
Ġd uck
Ġh ur
Ġ2 50
ress ive
Ġact or
Ġtop ic
Ġmethod s
Ġrom antic
ĠHen ry
R ED
p ur
Ġ ign
Ġp un
Ġl y
Ġn erv
ĠS chool
ĠA lex
ĠM om
ra g
ĠB o
ĠB est
Ġse x
Ġcl ub
Ġqu al
Ġafter noon
Ġrel ig
Ġread er
Ġgu ests
Ġph r
ott ed
Ġtell s
Ġimport ance
Ġval ues
Ġemot ions
Ġproper ty
Ġglob al
Ġearl ier
< /
Ġn est
ac he
ri e
ĠH ol
ĠP al
Ġse qu
Ġ1 50
Ġpl ate
ĠD uring
ile t
Ġcol on
Ġear n
Ġreturn s
Ġaut om
Ġpri or
oll y
Ġfight ing
use um
Ġwall s
I m
S p
m other
u able
ar l
Ġth rill
im al
Ġor ange
av a
we ll
Ġbo at
Ġput ting
ok es
Ġtrans it
Ġsecond s
Ġfall s
Ġfall ing
Ġeffect ive
Ġappear ance
Ġappreci ate
Ġgro cer
B r
a ign
g u
Ġt iger
Ġf ashion
ac co
ort hern
ĠG rand
Ġsu ff
ĠL ife
Ġman agement
Ġsc ream
Ġra b
Ġprov iding
amp ions
Ġlead er
Ġstand ard
ify ing
Ġcond uct
Ġsho pping
Ġmount ains
Ġobject s
Ġmater ials
Ġsoci ety
Ġenth usi
A CT
M ay
T ell
u fact
Ġthe ory
it z
Ġin sect
Ġbe ars
Ġwe ak
ul ated
Ġme asure
ĠL ondon
Ġres ist
ell y
Ġinc hes
Ġhapp ens
Ġcr ack
Ġca using
Ġcal m
Ġtit les
app oint
Ġfr ust
ĠCent er
Ġprin ci
Ġhik ing
2 7
Ġt al
Ġa im
Ġb ow
ic an
Ġe c
Ġbe ans
ĠA p
Ġwh atever
ce ed
ĠB at
ĠB oston
fe rences
ne ction
Ġsm art
Ġide al
Ġbre ed
Ġ8 0
Ġrock s
Ġdig ital
m en
o ons
er ved
Ġf aster
Ġth ri
ow ing
Ġst re
ri an
Ġsh ift
Ġr ates
Ġint ellig
Ġun able
Ġgr own
Ġvis iting
Ġlim it
Ġmen u
Ġgold en
Ġsat is
ĠTw o
Ġang ry
Ġanx iety
ĠMond ay
f ile
t le
Ġ :
Ġb ought
Ġh at
Ġn av
ĠM or
ĠM ax
ĠB ig
Ġsh ared
ĠIn tern
Ġturn ing
Ġdescri bed
Ġ6 0
Ġexp and
Ġmem ory
Ġfoc used
Ġintrodu ced
min ist
Ġru le
Ġlat est
3 5
E T
I D
Ġc ounter
le ction
id th
im in
ĠM et
ĠM useum
Ġv oc
Ġv ia
ick ed
Ġun us
Ġtr uth
Ġsc r
Ġche st
Ġdec ades
Ġtri es
Ġinvol ves
Ġri ver
Ġphot os
Ġrout ine
Ġveh icle
) )
w hat
er se
on a
on ed
Ġd ust
Ġth in
et te
ol a
ĠB en
ĠB ro
un ge
th let
ĠD ep
Ġbut ton
Ġpe pper
Ġgr ant
Ġdes pite
Ġstud ies
Ġmus cles
Ġbig ger
Ġmed ium
Ġexp ensive
Ġcommon ly
erv ation
Ġsqu are
ĠSm ith
`` `
ĠTurn er
S ince
i pping
Ġt un
Ġt ight
Ġn ine
Ġab ortion
Ġex ec
ĠIt alian
Ġsc ared
Ġ= >
Ġent er
Ġpass ion
Ġfact ors
Ġlead ers
Ġdri ver
Ġpain ting
Ġpat ient
Ġdra gon
ĠChe ck
Ġopportun ities
Ġpull ed
Ġdeg ree
ĠGree k
A re
Ġc oc
Ġh ang
ve re
Ġfor ced
Ġwh ales
ch ing
Ġsh ot
pp ers
The se
ĠO ut
ĠY es
fl ict
ĠBr own
ĠSc ott
can vas
P e
m ade
v is
at re
or us
om pl
ĠS ometimes
ĠC ong
ist ics
Ġse lect
qu it
Ġdes ert
Ġinc orpor
Ġrun s
Ġ201 6
Ġsn ack
Ġsign ed
Ġstand ing
Ġdoll ars
Ġtherap y
Ġnerv ous
O L
m et
Ġs am
Ġc ave
Ġm aster
Ġp engu
Ġg ather
Ġe th
ĠS et
Ġwe alth
igh ter
ul ations
ĠG ood
Ġcl osed
Ġman ufact
Ġsp ark
end er
Ġpr ices
Ġres idents
Ġ201 7
ĠAr t
Ġprot agon
Ġla un
Ġcup s
Ġwat ched
Ġvari able
ĠJe ff
Ġoffe red
b ow
Ġf uel
ing ers
Ġh ide
Ġe ars
ĠC our
Ġsh out
Ġr at
Ġli qu
ĠU K
Ġlong est
Ġact ing
Ġacc ompl
Ġdel ight
Ġdrink ing
Ġincre asing
Ġemploy ee
Ġfru its
Ġclot hing
Ġking dom
Ġsandw ich
iqu es
B C
D e
b orn
Ġs outh
Ġw et
ĠT ra
ĠS l
ĠS at
oo f
um an
ĠB re
ĠP ri
Ġr ub
ain t
Ġcom pl
ĠG ame
Ġwork ers
Ġdis appoint
Ġtw ice
Ġfo x
Ġcall s
Ġcre w
Ġfound ed
Ġplan ets
Ġreal ize
Ġmet eor
Ġclean ing
Ġappro ximately
Ġadv ant
Ġhy per
for ce
Ġsour ces
Ġbag s
Ġsche dule
Ġsurround ing
U S
] .
g l
l ines
r ast
Ġf ol
Ġp ush
Ġto ilet
st e
Ġbe ll
Ġfor ces
ĠB ob
ag ers
ĠF e
Ġso ck
ĠR on
Ġj ud
ĠĊ Ċ
cl usion
ĠâĢ ¢
ip ment
Ġcomp ared
ĠV is
pect s
Ġgreat est
Ġext end
Ġyoung er
Ġenjoy ed
ĠChar les
Ġarg ument
Ġbasket ball
Ġcommer cial
O M
P ro
w in
w ar
Ġb ab
Ġn orth
et her
ter m
ĠC at
Ġch air
ab eth
Ġ2 3
ĠIt aly
Ġset s
ĠRe c
ĠAn other
Ġcal ories
Ġtreat ment
Ġbro ke
Ġmarket ing
Ġcamp aign
Ġrespons es
Ġfre ed
Ġeff ic
Ġgen re
3 3
E n
M an
Y es
b u
g n
k es
m o
n ie
x y
Ġt ale
or g
Ġn one
Ġn ose
id ers
ri al
ĠR ead
ĠE r
Ġro ots
Ġlist ed
Ġhapp iness
Ġlo an
Ġcent ral
Ġele ph
Ġsuper hero
Ġtreat s
Ġhold ing
abet es
yst em
d ed
he m
Ġb oo
Ġp roud
Ġg re
Ġg un
ot ic
ur ance
Ġwas te
ol es
ĠW he
Ġcon flict
ĠF eb
os es
ĠR oman
iz abeth
Ġra ised
az on
19 9
app y
Ġjo ke
Ġjour nal
Ġstri ke
Ġinsp ir
Ġannoun ced
Ġstruct ure
Ġcred it
f ield
k a
he red
it ure
Ġh am
ic ip
ad emy
ĠF ord
art ed
ĠR ob
ast ed
ĠJ ew
ĠTh omas
Ġsp aces
ru ary
ub ble
oss ible
Ġrel atively
Ġsk ill
Ġshow ing
Ġresp onds
Ġmed ical
Ġval uable
Ġgirl s
Ġocc up
Ġwood s
Ġinsp ired
Ġswim ming
Ġincred ible
R E
r ome
Ġs le
Ġw ake
Ġp itch
Ġbe aches
ĠA ir
ag n
Ġal ive
Ġcom plain
ap es
ĠIn c
Ġtra ffic
ĠBe cause
ok en
Ġprogram s
Ġconst antly
Ġhy d
Ġmyster ious
Ġagre ed
Ġhundred s
Ġshel ter
Ġlone ly
RED ACT
( '
h and
l ength
n ic
Ġw ine
Ġin h
ic ations
Ġfor t
el ine
Ġsome where
ĠO ld
Ġshould n
Ġlight ning
Ġ201 8
Ġappe ars
Ġspecific ally
ĠMr s
ĠInst agram
Ġcelebr ate
Ġcho ices
Ġunus ual
T r
k i
Ġs ac
Ġc ore
Ġc ute
Ġf ab
Ġh oney
ol ar
ĠB ur
Ġr ice
Ġdo ctor
Ġv irt
Ġk il
ĠF ind
ĠE mp
Ġnot es
ge nd
ĠL in
Ġmo dule
we ets
ĠSp anish
Ġpay ing
Ġbring ing
Ġequ ipment
Ġban ana
Ġhistor ical
Ġencoura ge
Ġtask s
Ġentertain ment
Ġstanz as
Ġnumer ous
Ġpow der
REDACT ED
G ood
u ing
w ith
y n
Ġm ent
Ġm ine
Ġp od
Ġl ady
am el
if ts
ri z
Ġcon v
Ġcon nection
Ġout put
ep s
Ġun c
Ġhigh light
ĠBe fore
ĠRo bert
Ġcast le
Ġhon est
Ġcam era
ĠPar is
m ail
it ors
Ġb atter
Ġp ill
et ime
ay lor
ĠM o
ĠM ention
Ġwe igh
Ġwe ird
um my
ul s
Ġse asons
Ġwor st
Ġal cohol
Ġmo ves
ap ter
urn iture
Ġno ise
ĠV ir
Ġact ual
Ġmom ents
Ġstore s
Ġchang ing
Ġrhy ming
Ġmix ed
Ġdro pped
ĠMark et
Ġhop ing
ĠFeb ruary
A b
c ar
in ations
Ġc e
is ions
Ġm er
ĠT ime
ĠS und
ĠM ac
ĠC up
Ġwe aring
Ġse es
Ġcan cer
os aur
Ġde vice
Ġgo d
ĠU nder
ĠK n
ph as
Ġgr ateful
Ġag es
Ġ19 4
Ġsm ok
Ġshow ed
Ġloc ations
Ġbre aking
ĠMar io
Ġopp os
Ġclim b
Ġgra v
word s
Ġsus p
ĠPa ul
Ġestab lished
ĠRich ard
A A
t t
w ing
Ġb are
Ġb odies
or ce
ent ed
Ġpl aced
rou p
Ġup coming
cl us
ile y
Ġbl ind
Ġcreat ure
Ġform al
ĠAs k
Ġap art
Ġsupp ly
Ġvide os
Ġreci pes
Ġt ur
Ġs ides
Ġo dd
Ġf ederal
is ters
ĠS il
ĠM iss
ch an
est yle
Ġse lling
pp ort
Ġmy th
os quit
Ġso da
Ġout door
ear ch
Ġevery where
hen s
ock ing
Ġexper t
Ġ18 9
Ġdi abetes
Ġdep th
Ġoffer ing
Ġtom atoes
Ġhol es
Ġdeterm ined
ribut ed
/ /
t op
he w
Ġw aves
Ġc ab
Ġm ut
Ġp ure
Ġre write
Ġst one
ld er
Ġch ips
iv en
ĠO p
ĠTh ough
ĠTh anks
Ġco ach
Ġany where
Ġpr ison
Ġperson ality
Ġthink s
Ġsy n
Ġinst ance
Ġsol ve
Ġwind ows
Ġlaw s
eral d
Ġscient ific
Ġphot o
Ġoccur red
Ġconcer ns
Ġinn ov
Ġcateg ory
Ġju ice
ĠCount y
Ġhung ry
E xt
L e
M ar
S e
g ia
w orld
Ġt ough
en a
en ny
Ġh idden
Ġl ake
Ġn uc
Ġg onna
et t
ĠT oday
ut s
ĠS oc
Ġwe ap
Ġsh arp
ĠF ore
ak ers
Ġad just
Ġman age
ap le
Ġres pect
Ġapp oint
Ġstud io
ron ic
Ġsupp lies
Ġtop ics
anc hes
ĠJo e
Ġsleep ing
Ġleg al
iction ary
Ġrelationship s
ĠTw itter
Ġinit ial
Ġprim ary
Ġhom es
8 9
h ow
Ġm ixt
Ġg ir
ot a
ĠC O
Ġse eds
ĠR et
Ġ2 000
Ġover w
Ġimp lement
Ġuse ful
air y
Ġold est
Ġfin ish
ott a
Ġdra ft
fort un
Ġest im
ĠEl izabeth
Ġnut s
Ġfail ed
Ġbath room
ĠGener al
alax y
A d
M e
N A
O ver
] )
a ver
o ids
r ad
v ide
it ar
ic ial
Ġn om
Ġre ward
il os
ol ved
ĠE nd
Ġ2 7
ĠIt s
Ġus ual
Ġman ner
Ġbr ings
gg ed
Ġra re
atch ing
Ġread ers
Ġgu ys
Ġhand le
ĠCan ada
Ġtalk s
Ġsign s
Ġorigin ally
Ġfr ame
Ġsav ed
Ġali en
Ġcitiz ens
g al
w o
Ġ ðŁ
in er
Ġs outhern
Ġf inger
Ġp il
Ġp up
Ġh all
Ġre ference
ĠS ar
oo gle
ĠM ass
Ġab and
ess ion
ust ed
ĠL ittle
Ġcl ock
Ġsp ots
Ġfam iliar
ĠAs ia
Ġgu ard
Ġdescri bing
Ġsol id
Ġpast a
Ġbed room
Ġhy p
Ġsqu ir
Ġgrand mother
Ġcrit ical
Ġinflu ence
Ġturt les
Ġali ens
ĠHawai i
Ġly rics
Ġgrocer y
a o
g ent
w est
or ter
Ġh ous
Ġl osing
Ġv ast
Ġcom ments
Ġcom edy
Ġ2 6
Ġup set
Ġwill ing
Ġhas ht
Ġsp ort
Ġtr ash
Ġknow ing
Ġact ions
Ġgreat er
Ġhapp ening
Ġcreat es
Ġprom ise
ene ath
Ġmar riage
Ġsoft ware
ĠCar ol
Ġess ay
ĠQu estion
Ġsurpr ised
Ġlik ed
ĠMex ican
Ġinvestig ation
Ġdepend ing
Ġcop y
Ġresc ue
ampions hip
Ġprotagon ist
ĠCour t
3 9
Ġa thlet
Ġb one
Ġh unt
Ġre nt
Ġhe aring
ĠW ork
ain e
ĠL u
Ġmo ist
Ġfe llow
Ġent ered
co pe
Ġcur s
Ġ201 9
Ġgener ate
Ġallow ing
Ġnut ri
Ġnut rit
Ġsil ver
ĠAm azon
Ġsurv ive
Ġdeterm ine
het ic
Ġdefin itely
L ist
] :
s ized
Ġ era
Ġt ables
Ġs ale
Ġb at
or ation
om er
Ġg all
ad ow
ĠM att
Ġse g
Ġtr ade
vel and
Ġbr ush
Ġdes k
Ġlove ly
Ġap olog
Ġcur ious
Ġwalk s
Ġrequ ires
Ġtrans l
Ġinterest s
Ġele v
Ġtechn iques
Ġdetail ed
Ġdirect ed
ĠTr ue
Ġdem on
Ġdest ination
Ġdest roy
Ġfoot ball
Ġeff orts
go ing
Ġrad io
Ġmill ions
Ġoverw hel
P r
r d
Ġs ke
Ġo w
Ġm ath
Ġto ys
Ġy og
ad ing
ĠM al
ĠH am
ĠB er
ĠB ra
ĠB owl
un ar
ress ed
Ġbr anches
let s
uck y
Ġpass ing
Ġkind s
Ġbuild ings
ann a
IN G
Ġexperi enced
pur ple
A meric
r an
er ves
ar row
Ġl oop
ut o
id en
ir ty
ĠS ur
ĠA v
ĠM ad
ĠW ay
ĠP et
ĠY ellow
Ġdis order
Ġper m
hes s
Ġrem oved
Ġmin ute
Ġmus ical
Ġtext ure
Ġve gan
Ġlead s
enc ing
() ;
Ġtom ato
Ġdisco very
j i
m ond
s pe
u ce
Ġt ro
es ar
ar ge
Ġd ates
Ġg ri
ent ially
ĠM ur
if ting
ĠB oth
ĠF orm
Ġpro pos
Ġle an
ĠN ight
Ġmo ons
ĠTh urs
ĠHe alth
Ġro y
Ġro bot
Ġro of
Ġun known
Ġcomm and
Ġhouse hold
Ġmem ories
ĠRe g
Ġpot atoes
Ġstand s
Ġpartic les
Ġla id
Ġhot el
Ġview s
ĠPr ince
Ġadvent ures
Ġmot ion
Ġregular ly
Ġport ion
ĠFin ally
Ġgar lic
Ġdoub t
Ġpir ate
Ġinsect s
O ur
U se
c ount
p ass
p aper
s v
it ute
it ution
Ġb un
Ġm ad
Ġm ouse
Ġp owers
Ġd ut
Ġg aming
Ġyou th
Ġre n
ot y
ct ors
oo s
ce ler
ĠM other
Ġwe b
qu ar
Ġal le
Ġ2 8
Ġte asp
ĠO f
Ġen h
ĠY ear
Ġun w
ink ing
Ġper haps
Ġ19 0
Ġser ving
ict ed
Ġche ap
Ġcr ust
Ġtrans form
Ġdist ract
Ġsal ad
wh ich
por ary
Ġcand y
rel ated
Ġdram atic
ĠAfric a
Ġrough ly
Ġwel come
rost ic
Ġstre ets
p ack
u a
Ġ Â
er as
Ġb ark
or age
Ġp y
an as
Ġbe es
Ġst im
oo per
ĠC ap
um es
ĠH y
ĠH ome
ĠH elp
ul f
Ġpl us
ĠJ ud
ĠO b
Ġar my
Ġrel ief
Ġform s
Ġtri al
Ġask s
Ġschool s
ĠAt l
enn is
Ġwar ning
Ġorgan ization
Ġwild life
Ġoffic ial
Ġoffic ials
Ġfro zen
Ġlab or
Ġchalleng ing
ĠAc ademy
Ġwit ness
ĠVir gin
5 5
I nt
r ig
or ney
Ġm ort
Ġp in
Ġd at
Ġh ate
Ġth read
Ġy ell
et ch
Ġre ven
ut ter
ĠS n
ĠS en
ĠB et
ĠD em
Ġwere n
Ġgr ams
ars h
Ġsee k
Ġfun ctions
Ġacc ur
ĠUn ion
Ġph ilos
Ġrest rict
Ġvis ion
ues day
Ġcontin ues
uff y
Ġuni vers
Ġsit es
Ġinvol ve
Ġstrugg ling
Ġinte ger
Ġopin ion
ĠPac ific
Ġnav ig
Ġfreed om
Ġmixt ure
b les
e al
i pe
y ard
Ġ ic
Ġa ster
Ġc her
Ġb order
or se
om ach
ac hel
Ġha un
Ġsh ower
ast e
Ġco in
Ġqu een
Ġqu arter
Ġmake up
Ġwork out
ub s
Ġsun light
rop ical
Ġcook ed
ĠOn ly
Ġbenef it
Ġident ify
Ġdeb t
Ġble nd
Ġastron aut
Comp ose
T H
f rom
i ation
y e
Ġt weets
re m
is her
Ġh ike
as tern
ll o
ĠT ri
ay ing
ro gen
ch ant
um ps
ĠH ist
Ġsh own
est ic
Ġat e
ĠL ear
own ed
Ġany more
ens es
Ġke ys
ĠV en
Ġlo ving
Ġcook ie
ĠPl an
Ġjo ined
Ġadv ance
Ġrecord ed
Ġcertain ly
Ġclear ly
Ġlif estyle
su it
Ġhistor ic
Ġswe at
ĠCong ress
Ġliqu id
Ġadvant age
S D
T ake
Ġs ch
Ġw ire
ic orn
Ġg reet
ut en
ra ge
Ġsh all
Ġex cess
Ġdo ors
Ġv ary
Ġman aged
Ġpre y
ition ally
Ġac rostic
Ġclass ified
ĠSh arp
arr ing
Ġ199 0
Ġpract ices
wh ile
Ġenvironment al
Ġabs or
ĠEurope an
Ġdram a
Jo hn
Ġpod cast
i ance
y a
Ġ error
Ġt ong
Ġw ond
Ġc in
Ġb es
Ġl ift
Ġl oyal
ac le
ĠT uesday
Ġst ir
Ġst omach
âĢ į
Ġwas h
un a
Ġch ip
Ġv ibr
ĠD og
Ġj ew
our ce
Ġun like
ĠSt ep
Ġpre gn
Ġact s
Ġ4 5
Ġbu ck
Ġbu ying
ĠAl ice
Ġplan ned
Ġpur ple
enc ies
Ġcolor ful
Ġcou ch
Ġvisit ors
Ġrecord s
umb led
Ġconnect ed
Ġremain ing
Ġwide ly
Ġintern ational
Ġcompet ition
Ġprevious ly
Ġeconom y
Ġaltern ative
Ġstat us
Ġrefer red
ĠAustral ia
Ġlaun ched
Ext ract
ĠThurs day
H er
o llow
Ġt ire
Ġs ore
Ġm osquit
ed nes
Ġd ough
ot ion
ĠM at
ĠC or
um mer
ite ct
th at
Ġv en
ĠG e
ast s
res p
ĠN BA
Ġall erg
our s
Ġcl ient
Ġthem es
so le
Ġpe as
ber g
alk ing
Ġmus h
Ġfriends hip
Ġdel iver
Ġdist rict
Ġtyp ical
Ġmajor ity
Ġbott le
Ġabs olutely
Ġprote ction
Ġord ered
ĠSund ay
H is
L E
f all
Ġ id
Ġf ingers
Ġto xic
Ġd im
ic hes
ut ive
ay ed
ĠW ild
un ction
Ġv ent
ĠN et
fe ction
ose ph
Ġem br
ĠV ol
vent ion
Ġchild hood
Ġinst r
ask a
Ġsit u
Ġrese arc
Ġhon or
Ġpig s
Ġannoun ce
Ġinvent ed
Ġter rible
do ors
Ġregard ing
ĠComp any
Ġsatis f
xy gen
Ġboo st
W ill
b ors
i as
n el
y ou
ar ant
Ġl as
ĠM id
ĠC ould
ol ve
Ġsh ark
ĠW estern
Ġwor se
Ġde but
ĠL ook
Ġint ense
Ġcl ients
Ġgr ay
ang le
Ġ201 0
Ġfore ign
Ġstay ing
Ġclim bing
Ġperform ed
Ġamount s
Ġcomb ination
Ġtemper atures
Ġcry st
Ġreve al
ĠRuss ia
ĠRuss ian
Ġhumor ous
ĠFrancis co
Ġkil omet
E ven
b ird
r ical
v an
Ġc os
it a
Ġf ert
or ial
st ers
Ġbe ef
ĠA D
ĠC ome
ĠP eter
Ġv ote
ĠD id
Ġte ars
Ġco at
ĠK enn
Ġfl ash
Ġspe ct
Ġthan ks
Ġrem ark
Ġmon key
Ġgu itar
Ġmin or
Ġ200 5
ret end
Ġeat en
Ġrock et
Ġcap able
Ġexist ing
Ġinte gr
ĠCle veland
Ġmic ro
K e
M any
f i
re ts
Ġw ra
at in
Ġf lex
Ġp ython
Ġy es
ĠS y
Ġan aly
ĠC ard
ĠB ook
Ġcon sequ
Ġwor ried
Ġk iss
ĠD ad
ĠG ames
ĠE ast
Ġint ro
Ġ2 9
Ġfe at
Ġro les
Ġspe aking
ang ed
Ġpre c
hen omen
Ġsee king
Ġworld wide
Ġcar ried
ib l
ib ilities
Ġdescri ptions
Ġdi agn
ĠLe ague
Ġdirect or
Ġpick ed
ĠGeor gia
Ġdise ases
Ġrecogn ize
ĠSte ve
ĠApp le
ĠGold en
5 00
6 6
O W
f it
Ġt aught
Ġo h
er ick
it able
Ġb on
es sel
Ġm amm
Ġl emon
om ing
Ġn or
ac les
ri er
ĠW ednes
ĠP oint
Ġch annel
Ġde vices
ĠG ard
ĠL ast
iz ations
ĠTh ree
Ġhad n
Ġun l
Ġag ree
Ġunder ground
Ġfew er
olog ist
Ġ7 0
Ġsing er
Ġsuggest s
Ġconf ident
Ġhold s
ĠDes pite
Ġwat ers
Ġdefe ated
ĠOff ice
Ġpand emic
4 9
7 5
A ccording
E m
f ess
i at
m ic
p et
Ġf ra
Ġp ine
Ġth us
Ġwh ale
Ġas ide
ĠM od
ĠB ay
Ġme chan
Ġr ank
Ġde ar
Ġgr ade
Ġag g
ious ly
Ġear ned
Ġ201 3
Ġ201 4
Ġposs ibly
Ġair pl
Ġdist inct
gr ade
Ġconst ruction
Ġcor por
but ton
Ġrepl ied
Ġsurround ed
Ġvan illa
Ġtong ue
P h
w rit
Ċ ĠĠ
Ġt ent
Ġt ag
Ġw est
Ġw izard
Ġc ous
Ġf a
Ġf urniture
Ġb eneath
is ms
Ġto y
Ġst ro
ro at
Ġu pper
ĠS anta
ĠC ur
Ġse vere
Ġex change
Ġcon ven
ĠD ef
ick en
ild ren
Ġem phas
Ġag ency
Ġtra ils
Ġapp le
Ġatt ached
Ġcre ation
akes pe
Ġdec ade
Ġgrow s
Ġcare fully
Ġsw itch
Ġ18 8
Ġcent uries
Ġland ed
Ġmiss ed
Ġperfect ly
Ġoffic er
Ġfro g
Ġintern et
Ġfix ed
Ġeconom ic
Ġrepe ated
Ġfrequ ently
Ġsubs cri
G et
S S
b led
c ase
p al
Ġo l
Ġo ct
or able
an es
om ic
ic ine
ĠS and
ce ption
ĠM il
ĠB aby
Ġal arm
os ure
os ition
Ġle gend
av y
Ġother wise
Ġro ot
ĠSt an
Ġfl ood
itt y
ĠCh ocolate
Ġlet ting
Ġplan e
az z
Ġtrans fer
Ġadv anced
Ġdin osaur
Ġequ al
Ġfield s
Ġdiv ided
ĠDis c
Ġcapt ured
Ġupd ate
ĠAfric an
Ġarch itect
Ġcra zy
Ġmur der
Ġvit amin
ste in
ĠEmp ire
Ġoppos ite
Ġnuc lear
4 1
A D
A P
A m
M r
i h
i able
u ous
es la
Ġd ating
Ġd irt
Ġd ancing
Ġin fect
Ġl it
le an
Ġg ently
ol ph
um in
Ġor bit
Ġme ets
th is
all ed
ĠG ar
cl ass
Ġsp oke
ick ing
ĠK ore
Ġcont ro
Ġlist ening
Ġour selves
Ġdec re
io x
Ġev il
Ġsn acks
Ġob st
Ġtechn ical
Ġpark s
Ġtest s
Ġhor iz
ĠCol le
Ġemot ion
Ġstru ck
Ġproper ly
Ġcrit ic
Ġinit ially
roll ed
ĠGree ce
Ġdiam ond
Ġindepend ent
ĠTH E
ĠCarol ina
ĠWednes day
akespe are
D uring
c ers
f ound
l ong
Ġ iron
Ġc ert
Ġf est
Ġh anging
Ġl ic
ut ions
ot al
am i
âĢ Ĭ
ĠB ull
ĠB udd
ĠD el
ĠL os
are n
og ether
ĠU sing
clud ing
be at
Ġret ail
Ġexper ts
Ġhead s
te en
ĠSe e
Ġ201 2
Ġgener ation
Ġhuman ity
ĠMar vel
Ġob vious
Ġbutter fly
Ġbenef icial
Ġrespons ibility
ĠInd ia
Ġremain ed
Ġter rit
ĠPrin cess
ĠDep artment
Ġfab ric
fortun ately
I ON
S c
n atural
y er
Ġt err
at ically
Ġf ought
Ġp ra
Ġp add
Ġp henomen
Ġd u
Ġd ining
ig en
ol ves
um ble
ĠH all
ul ous
Ġch oo
os en
Ġj okes
Ġun icorn
fore st
Ġapp l
ath y
Ġsec ure
ĠWh ich
the med
Ġstore d
Ġleg isl
Ġann oy
Ġcontain ing
Ġimag ine
Ġstream ing
Ġelectric ity
allow een
Ġgrab bed
Ġmuseum s
Ġrap id
ĠCa esar
Ġlau g
Ġteasp oon
6 5
b ell
g ame
m ove
o ir
r id
Ġs in
Ġthe atre
Ġw ing
nd rome
Ġc t
it o
ing ly
Ġn arrow
ĠT aylor
Ġst ead
ĠS ch
ol ars
ĠH og
ĠB iden
ĠW all
Ġch ill
Ġr is
Ġk itten
ust er
ĠG al
ie ce
ĠR ose
Ġout doors
Ġsc ar
Ġimp ossible
omet hing
Ġ5 00
Ġac celer
Ġexper iment
Ġnight s
Ġmag n
Ġbelie f
ĠPl ace
Ġreport s
Ġsho e
Ġrepl ace
Ġfro st
Ġbrother s
Ġcompan ion
lo ad
Ġsou l
Ġpattern s
ester day
Ġfle w
Ġaccompl ish
F irst
G B
I L
N ew
d raw
z ing
Ġt ied
Ġf ishing
Ġin ner
as m
Ġg ym
et ic
ĠT ur
ĠM ike
ĠC ra
Ġsh ade
Ġv s
Ġv essel
ĠD own
ĠĠĠĠ ĠĠĠ
ĠG oogle
Ġint ended
Ġmo b
ĠO l
Ġad minist
Ġar rest
ĠK h
ph one
ang es
Ġcall ing
up id
Ġbel oved
Ġexpl oring
Ġmon ster
Ġcr isp
Ġland ing
Ġland sc
Ġenjoy ing
Ġbusiness es
con st
Ġwin ning
Ġconst ant
Ġmod els
Ġwonder ing
Ġperiod s
ĠPh il
Ġfit ness
Ġstrugg le
Ġvict ory
EN T
Ġepis odes
ĠRem ember
ani el
Ġphr ase
Ġjew el
Ġlaug hed
p y
u ch
Ġs ig
Ġs ink
Ġf aces
Ġb ars
Ġb ull
is a
Ġg olf
ĠT or
ĠC ast
ĠH olly
Ġex cer
Ġcon cent
ĠD et
Ġli es
per or
are t
Ġco zy
ĠSt r
Ġdes cend
Ġfo ld
ĠYou T
Ġadd s
up s
Ġent r
Ġsub m
Ġprom in
Ġboy friend
Ġocc asion
Ġwo ke
Ġorgan ized
Ġlim erick
Ġentire ly
Ġreve aled
Ġprim arily
ĠTy pe
Ġopt im
ĠAss oci
Ġcab in
3 7
H ave
c a
h ors
p ress
y an
Ġ >
Ġt ip
Ġt ape
Ġs isters
Ġm ig
Ġm ile
Ġm ap
Ġm ask
Ġg room
Ġe ast
ĠI ce
ĠI mp
ly ing
ĠS ov
Ġan al
ĠH alloween
Ġk m
ĠD ra
ĠD ist
Ġj ack
Ġsome what
ree k
Ġcont ext
int end
Ġapp s
Ġinv ited
Ġinv iting
Ġgl ad
Ġsim pl
Ġob tain
atur ally
Ġcommun ication
Ġexc ite
app le
Ġmult i
Ġbreat hing
Ġ197 0
Ġcand id
Ġviol ence
Ġapplic ation
ĠCons ider
Ġhasht ags
Ġroy al
F L
c her
Ġo xygen
Ġw and
Ġc art
Ġb aked
Ġp ushed
Ġe ager
ĠM ont
ch o
Ġch a
us er
Ġr ude
em ies
ĠD a
ĠD NA
Ġli e
ĠG irl
Ġle af
ĠJ erry
Ġen emy
act ion
ĠK y
Ġcont em
Ġpar am
Ġgu id
Ġca ffe
Ġbre w
ĠRe v
Ġpur s
Ġprogram ming
ĠCl ub
Ġprofess ion
Ġball s
Ġconsider ing
ĠTr ump
Ġcut ting
Ġfre el
Ġexce ption
reg on
Ġcam eras
Ġple as
ĠAng eles
Ġluck y
Ġincred ibly
Ġut il
Ġtooth p
Ġmax imum
Ġalphabet ical
ĠBat man
F C
L ike
d og
f ather
p ed
Ġt iss
Ġs ne
Ġf ier
Ġf alse
Ġp ump
Ġto ss
Ġn ail
Ġg otten
am ent
ur b
ke ep
ĠA ccording
ĠB as
Ġch osen
Ġex hib
ĠR ome
ĠL and
ĠL ord
ood les
Ġfe ather
ĠO cean
Ġshe ll
Ġqu ote
Ġqu otes
Ġres pective
Ġbr anch
Ġdes ire
Ġchar ged
Ġatt acks
co in
Ġvis ited
Ġbre eds
Ġreturn ing
Ġroom s
Ġlarge ly
Ġpark ing
Ġstrong er
Ġlangu ages
Ġpack age
col or
Ġcapt ure
Ġident ity
Ġaccess ible
ĠEvery one
Ġsuit able
Ġaware ness
Ġdiam onds
Ġult imately
Ġded icated
Ġcru cial
Ġinspir ation
Ġnutri ents
Ġoct op
C E
C ont
d r
i ate
u le
in ter
Ġm att
en ger
Ġh obby
al i
ow nt
am ily
Ġan ger
ct ic
ĠC ook
Ġsh r
ĠP ict
ĠP enn
Ġcon sole
ĠE lect
ĠJ ava
Ġcl iff
ĠHe ad
Ġwant ing
Ġun ex
Ġtr ig
ict or
Ġrel ie
Ġform ation
iet ies
Ġhead ing
Ġsw ing
ten ance
Ġpol ar
Ġpay ment
Ġtown s
Ġmess ages
Ġnews paper
Ġrele vant
Ġtest ing
acks on
Ġz oo
Ġcult ural
Ġexperi encing
Ġlif etime
Ġexist ence
ĠBar b
Ġisland s
ĠMount ain
gy pt
Ġassist ance
Ġpoet ry
claim ed
Ġsustain able
Ġbab ies
Ġestim ated
Ġaband oned
Ġphilos op
Ġsitu ations
Ġresearc hers
Ġkilomet ers
Ġct x
Ġexcer pt
Ġexcite ment
" ;
7 6
F in
i j
i very
o ving
s er
w idth
Ġ !
Ġt ie
er als
Ġb old
or al
Ġp it
Ġh orn
ac ob
ro g
ĠS us
ĠS outhern
ĠM ir
ĠW ould
ag ine
Ġch urch
el f
Ġcon clusion
Ġal t
ab ilities
ĠD ire
ĠE ve
ĠJ ones
Ġkn ife
Ġpo nd
Ġsc hed
Ġcont est
Ġevery day
Ġtra ined
Ġche er
Ġac id
Ġgu est
Ġvis ible
ĠBe at
uck s
Ġ201 1
Ġ200 6
ĠAn swer
ĠBr ad
Ġpret end
ĠMc C
Ġteacher s
Ġstruct ures
Ġeffic ient
Ġmatt ress
Ġsched ul
. '
c ular
e ction
f ire
o a
y cl
Ġ @
Ġf ul
Ġf ancy
or ough
Ġm ac
Ġp ocket
Ġd ictionary
st ar
st one
ĠT ok
Ġhe s
Ġst ated
Ġwh om
Ġas pects
ĠH arr
Ġsh aring
un ny
Ġsu c
ang ers
Ġbr idge
Ġtra pped
Ġrem em
Ġbu zz
up iter
Ġdec isions
Ġspace craft
ĠSh akespeare
by e
Ġappe al
Ġsing ing
Ġconf used
Ġdep ression
Ġinvest ors
Ġaud io
Ġrhy th
Ġ199 6
Ġvers es
Ġfair ly
Ġcelebr ation
Ġrecommend ations
ĠChrist ian
Ġill ness
Ex plain
Ġthrow ing
Ġveh icles
Ġspl it
Ġer u
ĠIntern ational
Ġbare ly
Ġcurs or
3 8
B u
T oday
T wo
f oot
i i
m ony
o ves
y o
Ġ err
Ġw ave
Ġf ant
Ġf ries
Ġp m
Ġto ast
Ġre ferences
Ġbe er
ĠT ina
ĠM em
ĠC ab
ĠC amp
ri x
out s
Ġsh ine
Ġch apter
Ġse ed
Ġr ising
ess ed
and a
ĠJ ane
ans as
âĢĿ .
Ġ3 50
Ġsm iled
Ġexpl ains
Ġins urance
Ġsn ake
Ġrequ ests
ĠNew s
less ly
Ġconst ruct
Ġgold fish
Ġsil ent
Ġwood en
ĠEd ward
Ġdoc uments
Ġblank et
Ġadop t
Ġmeas ures
Since rely
ĠVirgin ia
ĠSov iet
L ove
N D
S T
l ook
u ke
Ġ %
he ast
it an
Ġb acon
on ents
ing u
Ġst unning
Ġst orage
ĠM ong
um st
ĠF alse
os is
Ġj oint
ĠE gypt
ĠL oc
Ġle ague
ĠO regon
Ġco vers
ail and
Ġshould er
hes is
erm aid
Ġmin imum
Ġpain ted
Ġanswer ing
Ġconf idence
Ġwarm ing
Ġintrodu ce
Ġreach ing
Ġauthor ities
Ġkill er
ĠCol or
Ġant i
Ġrecommend ed
Ġaccept ed
Ġsepar ated
ĠSer ies
Ġcy cle
---- ----
Ġnarr ative
Ġfif th
Ġpengu in
Ġeleph ant
R es
U sing
a pping
e qu
r ick
s ize
w ind
Ġb omb
Ġl amp
Ġn od
Ġg or
Ġg ifts
st art
ac ity
Ġbe an
Ġst icks
im a
ir ts
ur d
ĠC in
ĠB ird
Ġsh ore
th ur
Ġex ha
Ġcon qu
ĠF ederal
ĠL ight
ĠL aw
ĠO w
av ed
Ġco al
ck now
Ġcont rib
Ġam b
Ġsur ger
Ġac qu
ĠBe ach
az ine
Ġcare ful
fl ies
oun ce
Ġgener ations
rodu ct
Ġsupport ing
Ġconf ir
Ġeng aging
Ġfr anch
Ġenc ounter
Ġsho ot
Ġcomb ined
Ġfeed ing
Ġemerg ency
tr ack
ĠRepublic an
Ġrelig ious
Ġrab bit
intend o
9 5
C he
c ake
f ace
k l
Ġt ank
Ġo ils
at hered
it age
Ġp ork
ic ian
Ġg ender
ĠI II
st ract
ĠS now
ĠH ot
ĠP ower
Ġr ot
ĠE v
ry ing
pt ic
Ġwhe el
Ġte ch
ear l
og y
Ġcomp re
ĠSt one
Ġlist s
Ġback yard
Ġact ors
Ġche ek
Ġcar r
Ġac ad
Ġcr ash
Ġmin erals
Ġreg ions
te xt
Ġpost s
ĊĊ Ġ
stand ing
Ġ200 3
Ġ200 8
ys is
Ġdri ed
Ġresult ing
Ġtreat ed
Ġeng age
ĠTr ans
Ġste pped
Ġcamp ing
Ġtast y
Ġveget able
ĠNot hing
Ġdisco vers
Ġneigh bors
Ġbur st
ĠTe chn
ĠComm un
ĠSec ond
ĠVal ley
ĠCharl ie
Ġinh ab
ĠFore st
Ġdemon str
3 2
D r
E M
g a
g or
m ates
s k
u it
Ġthe ater
at itude
Ġf ault
Ġh obb
as hes
Ġth rew
om a
st ate
Ġre new
ĠT re
ĠT enn
Ġfor th
ad ows
ĠS udoku
ĠA riz
um s
ĠW al
ist ry
Ġr ac
Ġ( "
ĠL y
ĠJ oseph
Ġsome how
Ġro b
Ġbl ow
Ġover ly
xt on
Ġno body
gg y
Ġcol umn
Ġser ver
be ing
aw ay
Ġret ire
Ġcr is
olog ists
ĠBut ter
Ġreal istic
Ġass um
Ġhead ed
Ġve t
Ġ201 5
omm y
Ġdi verse
ane an
Ġtravel ed
Ġcommun ities
Ġopp onent
Ġpresent ed
Ġexerc ises
Ġant icip
Ġlab el
Ġrequire ments
Ġfund s
Ġvict im
Ġvict ims
Ġjump ed
Ġestab lish
Ġteach ing
Ġmist akes
eles cope
Ġcere mony
Ġmir ror
Ġec os
bu ild
ĠDem ocr
Ġunex pected
4 4
4 6
J an
a pped
a iley
b el
b oy
o e
o ly
u h
ã Ĥ
Ġt ut
Ġf acing
Ġb ake
Ġb acter
Ġd ent
Ġh int
Ġn orthern
Ġe lder
ĠT esla
ĠS ky
ĠM ill
if orm
ol ic
ul ating
ĠW ars
un es
ive red
Ġcan vas
ĠR ow
Ġj elly
ĠL uc
ĠJ u
ĠJ ackson
ĠTh ailand
Ġro lls
Ġun cle
Ġim ages
Ġcont rast
Ġ3 1
Ġpart ners
ign ed
Ġgood s
ĠAs ian
Ġgl ow
Ġland s
Ġprom ote
Ġele ction
rodu ction
Ġdra g
Ġstay ed
Ġreview s
Ġprofess or
Ġwarm th
Ġbas is
ĠNe xt
nam on
Ġrout e
ĠĠĠĠĠĠĠĠ ĠĠĠĠĠĠĠĠ
Ġpeace ful
Ġplatform s
Ġafford able
Ġsty les
Ġbound aries
ĠHol mes
Ġconduct ed
clus ive
Ġtables p
Ġ! =
ĠAriz ona
+ +
A dd
B ec
G E
P retend
b al
w w
ã ĥ
Ġs en
Ġw id
at ers
Ġc oun
Ġd ense
Ġl ying
le vel
ĠS k
ĠH um
ĠB oy
Ġsh irt
Ġr ack
ain ed
Ġpro ve
Ġ" )
ĠL ong
ĠJ upiter
od ing
Ġen emies
Ġpo ison
Ġqu ant
ap ers
Ġcomp ar
Ġtr ick
Ġbl oom
we ight
Ġ3 2
ĠCh ris
lf riend
Ġtra p
land s
Ġpass word
omm od
St r
Ġfall en
Ġdep artment
Ġz one
Ġredu ced
Ġeduc ational
ĠGo vern
Ġill ust
Ġliter ally
Ġfeature d
Ġtick et
Ġintellig ence
Americ an
ĠSen ate
ibl ings
igen ous
ĠYouT ube
Ġcris is
A ny
D A
R em
f ord
l ooking
t ail
y nam
¸ ı
ï ¸ı
Ġt error
he at
in n
in als
Ġw ins
it ate
Ġb unch
Ġb ored
Ġp ace
Ġd ownt
Ġn ap
st ood
ĠT alk
Ġit er
ĠS a
ĠA x
un te
Ġch orus
Ġcom ic
ĠE astern
ĠN ative
ĠJ r
Ġcl in
Ġcl ick
ĠTh ose
ĠTh rough
Ġsp ider
Ġcont ribut
itt ee
ph ones
Ġ3 5
Ġdes p
Ġaw ards
Ġsl ice
Ġacc ommod
Ġmin i
Ġ6 4
Ġref res
Ġ200 9
Ġaut hors
ĠSh ow
Ġmar ine
Ġdep os
Ġocc urs
Ġpick ing
Ġneg ot
Ġfig ures
Ġdig est
Ċĉ Ċ
Ġcoll abor
Ġsearch ing
num bers
Ġpred ators
Ġsou p
Ġremind er
Ġassign ed
Ġhar vest
Ġadop ted
Ġadvert is
Qu estion
Ġsex ual
Ġpil ot
ĠSar ah
ĠForm at
Ġfeat uring
C H
D C
D oes
R ead
c est
o h
Ġt ropical
he arted
Ġs iblings
Ġc ott
ou st
on i
Ġp ier
Ġl ock
Ġl oose
om y
Ġe ase
ĠT oy
Ġon going
ro ad
ke ys
ĠS ol
Ġwh is
ol i
ĠB ru
ĠB rand
ĠD ream
ĠF riend
ĠR el
pt ive
ĠN ick
ree ze
Ġco ord
ĠK at
Ġshould ers
Ġser ves
let e
Ġdiffe rences
Ġfollow ers
Ġind oor
ram id
ĠAl aska
ik ing
Ġmet ers
Ġdel ivery
How ever
Ġsuggest ed
Ġbreak s
ann ed
Ġla wn
Ġfill ing
Ġappro ached
Ġpract ical
Ġgard ening
Ġcontain er
Ġcontain ed
ĠCon st
Ġheav ily
Ġarri ve
Ġsens es
ĠEvery thing
Ġpurch ased
het t
Ġaffect ed
ĠAng el
bre ak
Ġchemical s
Ġscen es
ï¿½ï¿½ ï¿½ï¿½
Ġdru g
Ġconsequ ences
Ġris ks
) |
D is
S pe
c or
g age
p m
p ir
Ġc ord
st ep
Ġhe aling
im ents
ad er
ĠS ystem
Ġan th
ul es
pe red
ĠP M
Ġch ose
ĠF ire
Ġli ver
Ġli ps
ast ing
Ġnot able
ĠL ink
ĠN or
ĠJ on
iz er
ĠO kay
ĠK en
Ġfl ies
ru it
Ġdes per
let ter
az ed
Ġ6 5
Ġstate ments
Ġpot ato
con t
Ġcommun icate
Ġfar mer
Ġexplain ed
ĠCl ass
Ġann ual
Ġreason ing
ĠWill ow
ĠCol umb
Ġclos ing
Ġident ified
ĠGu ard
Ġdraw ing
Ġprin cess
Ġdecl ine
Ġmaintain ing
Ġthous and
ĠBu ild
Ġgrav ity
Ġgir lfriend
Ġhous es
' .
3 1
M ost
i ants
t ies
Ġ ille
Ġa cknow
in ity
Ġs ci
Ġs izes
at tered
Ġc ig
Ġc ul
Ġf are
Ġb er
Ġb ike
an ing
Ġh ook
Ġl itter
Ġl ux
as ters
ĠT imes
se mb
ur i
ĠS her
Ġan ime
ra el
ĠB ack
us et
Ġr ust
Ġcon vin
Ġsu ffe
ĠL atin
iz ers
we red
Ġpart ies
ub es
Ġart s
Ġcomm it
iss ions
Ġhapp ily
Ġvar ieties
Ġve ter
ov als
Ġ18 6
Ġexp enses
Ġless on
Ġ200 1
Ġpol icy
Ġsupport ed
Ġmor al
Ġeng aged
Ġcou rage
Ġla pt
Ġingred ient
Ġrain bow
Ġrepl aced
ĠRo ad
Ġbrief ly
col n
Ġattempt ed
Ġattract ions
eg as
Ġrecogn ized
str ong
Ġdecl ared
Ġrelax ing
Ġemerg ed
Ġinj ured
Ġrid ers
Des pite
Ġtransport ation
Ġspirit ual
Ġdisappe ar
erse y
ĠOp en
quar ium
Ġvibr ant
Ġcous in
Ġol ive
ĠHolly wood
Ġcaffe ine
Bec ause
3 4
C ol
C hor
I F
O O
i ency
in th
Ġs ir
Ġs arc
Ġc hess
Ġf ate
Ġf asc
es see
ar i
ar io
Ġin qu
al ia
Ġl ately
ĠI r
Ġre ject
ĠT op
Ġst upid
Ġab ilities
ĠP op
Ġwor n
ĠG ra
Ġher bs
ĠE gg
Ġint ention
Ġsp otted
Ġfl uffy
Ġgr atitude
ell a
Ġapp arent
Ġrep ut
Ġass ess
Ġass ass
Ġass ets
Ġdisc ount
19 6
Ġheart s
Ġtre asure
Ġboy s
sh aped
Ġdesign s
Ġdark ness
Ġinvest ment
Ġimpro ved
ĠUS A
Ġcomb at
Ġnove ls
Ġ198 0
Ġexpress ion
ĠSw ift
ĠOh io
Ġsandw iches
Ġult imate
Su per
Ġstrateg y
ĠSpr ing
Ġsam ple
ĠSat urn
ĠJew ish
van ia
Ġfa ith
ĠCra ig
gor ith
Chor us
4 00
b age
o nder
p her
t uce
w a
Ġt ort
Ġt ons
re ens
Ġs its
Ġs aving
Ġc ock
Ġf ool
Ġf iber
es ome
Ġm ail
Ġl unar
Ġth roat
st ream
Ġre ly
ig an
ĠS ing
if fe
ĠC all
Ġv o
op y
Ġpl ates
Ġcl aws
Ġkn ock
av as
og rap
ĠK os
Ġpr on
Ġ19 29
ens ions
Ġatt ended
Ġsur vey
Ġdec ides
Ġprodu cer
olog ies
Ġpoem s
row s
az y
Ġdescri ptive
ĠSe attle
Ġexp osed
Ġmonth ly
Ġdevelop ing
Ġlearn s
() :
ĠAr thur
Ġpopular ity
Ġfr idge
Ġcost ume
Ġsuccess fully
Ġlay ers
Ġcomb ine
Ġscient ist
Ġforest s
Ġattempt s
Ġcry pt
Ġsignific antly
Ġord inary
ĠDes cribe
Ġdeb ate
Ġdefe nd
Ġburn ing
Ġteen ager
Ġmist ake
Ġprop osed
ĠOlymp ics
ĠMart in
Ġdru gs
Ġchoo sing
Ġful fill
umst ances
Ġsurger y
" .[
7 9
A ss
B est
C o
F riend
H T
I nd
R eg
a un
c sv
d ire
k ins
r ame
u is
Ġt ension
he nt
re c
Ġs udden
ou l
Ġm ild
Ġd ur
Ġd ental
om ed
ĠT ower
ĠT itle
ĠS qu
ĠM el
ĠM ouse
ĠB it
ĠB us
Ġr ays
Ġr iding
Ġcon ver
Ġal mond
Ġpro ceed
ĠG ro
ĠG erald
oc a
ach uset
ass er
av ored
Ġsp oken
Ġ- >
Ġpe ppers
Ġim pl
Ġover night
ink le
Ġpr ay
Ġtw enty
Ġem o
Ġdes ired
Ġra w
Ġcons ists
Ġown ed
co ver
Ġdist ant
ĠDe ath
ĠKe vin
Ġalong side
ĠPro vide
ĠInd ian
Ġchick ens
Ġvol ume
ðŁ ĳ
Ġattempt ing
ĠCent ral
ĠRes earch
Ġclaim s
ĠMed it
Ġconsist ent
Ġbra ve
ĠAb out
Bl ue
ĠOlymp ic
Ġpoll ution
Ġstraw berries
ĠMass achuset
Ġenh ance
Ġairpl ane
Ġentr ance
Ġoctop us
Ġsuc ceed
ĠMassachuset ts
' )
A B
M A
V ID
c ies
d ata
} .
Ġs an
Ġs que
Ġw al
Ġp or
Ġp atch
ic ide
Ġst ab
am an
ĠC hat
ol en
ĠH ubble
ĠB on
pe l
ĠP u
ĠP ost
ess ions
Ġso ap
ĠG en
ĠR ing
ĠN i
Ġqu it
ĠU t
Ġgr amm
du c
ft en
ĠV ictor
Ġapp les
Ġbu gs
Ġind ic
Ġcr im
Ġsy ndrome
Ġmain tenance
Ġmed itation
Ġel imin
19 8
Ġwa ited
Ġeng agement
err anean
Ġcor resp
Ġconvers ations
sy l
Ġobs erv
Ċĉ ĉ
Ġsurpr ising
Ġport ray
Ġintern al
Ġglass es
ĠSer vice
Ġhop es
Ġrom ance
Ġrev olution
Ġagre ement
Ġforg ot
Ġincorpor ate
ĠTra il
war f
Ġconfir med
g i
k er
p an
r ating
s udoku
Ġ vert
he ight
re act
Ġc ried
Ġf ence
ar n
al le
Ġn ick
Ġn aturally
Ġg ig
Ġbe e
ĠS ummer
Ġan s
ĠA ut
ri a
ant ha
Ġch ampionship
Ġr ides
Ġdo ctors
ĠF ort
ĠG roup
ĠR E
ĠJ acob
ach ing
ap ing
Ġsc ale
ne ath
Ġdis p
Ġgr ace
Ġsm oke
ĠV egas
Ġhome work
Ġcomm a
Ġcre ep
Ġexpl os
Ġinform ative
Ġtalk ed
ĊĊ Ċ
Ġdel icate
Ġval id
Ġob l
ĠDe v
Ġdef ense
ung le
min ute
Ġdiv orce
Ġaccount s
Ġrequest ed
Ġple asure
Ġsett le
Ġcateg ories
Ġconc ise
Ġconc ert
ĠAward s
Ġadvert ising
Ġaccident ally
Ġvirt ual
Ġic onic
Ġjewel ry
ĠAssoci ation
ĠMedit erranean
G o
G u
M L
T ime
p o
p ill
r un
w orth
re p
re al
re te
er ies
it ut
Ġb rill
is y
Ġp anc
ed ge
Ġh iding
Ġh arsh
Ġy esterday
Ġas leep
ĠB attle
Ġsh apes
Ġne ither
ĠW olf
Ġch ain
Ġr um
Ġr acing
Ġk ick
ĠD ata
and y
oc aly
ĠN ap
Ġshe ets
Ġco ins
Ġevery body
ĠCh icken
In st
tern al
Ġph ones
Ġext ended
row ing
ric ane
Ġhealth ier
Ġhard er
Ġdi vers
Ġprof ile
Ġdra wn
Ġbul b
Ġwin ner
Ġtre nd
An other
ĠSc ot
Ġstop s
ĠOr ange
Ġoffic ially
Ġcult ures
Ġfocus ing
Ġmot or
Ġoper ations
Ġban anas
Ġserious ly
Ġcollect ed
ĠDav is
Ġgain ed
ĠJim my
Ġbroad cast
Ġwis dom
Ġdisappoint ed
Ġce iling
Ġdestroy ed
ĠBer lin
Ġpropos al
ĠPenn syl
P ress
S am
S ub
d iv
f unction
i ences
l am
u i
v y
Ġs ought
Ġw estern
Ġp ages
Ġin ch
as ive
om ers
ĠI re
Ġhe ating
ĠS cience
ĠC EO
ĠH aving
ĠB al
Ġsh ares
Ġsh aped
ĠW ood
ant is
Ġch am
Ġch ron
Ġr ush
Ġr acco
qu ality
Ġal gorith
ĠF il
ĠF red
ĠR om
ĠR ad
ĠR edd
Ġnot ed
Ġsu g
ĠN umber
Ġmo le
ind ex
Ġqu iz
ĠK ent
Ġun it
ater pill
Ġsc ent
clud ed
ĠCh oose
Ġtra ged
Ġmu ff
." [
Ġret reat
Ġinc ident
Ġmon arch
anc er
Ġtrans m
Ġdel ivered
Ġaut hent
Ġkind ness
com fort
ug s
sh ine
par agraph
Ġground s
Ġfr ight
Ġclose ly
ĠJohn son
Ġinvol ving
Ġauthor ity
Ġdiscuss ing
Ġord ers
num ber
Ġinn oc
Ġcalcul ate
Ġparticip ate
Ġstanz a
Ġvolcan ic
roph y
bur g
Ġwis hes
Ġtal ent
Ġintellig ent
ĠMong ol
E d
O ut
R I
c ur
i ac
l ace
t a
u um
w as
w arts
z il
Ġt ap
he alth
in ating
er ving
Ġb ills
on ut
Ġp ale
Ġh ill
Ġth under
Ġg alaxy
im ize
ĠS EO
ĠH el
Ġsh y
Ġsh ake
ĠW y
ĠW as
ate ll
us hes
oc ado
act s
ap se
irst y
ip es
ĠIn ter
Ġnew ly
ord an
ian o
Ġcomm itted
Ġgu arant
Ġstud ying
Ġeas tern
ric ult
ĠAnd y
ov o
Ġmed icine
Ġsun ny
St ate
Ġmag net
Ġmag azine
Ġprom oting
Ġmark ed
ĠLe ave
Ġdef ine
Ġdef ined
Ġprocess es
Ġdeep er
Ġdirect ions
Ġste al
Ġexpect ations
Ġoper ation
Ġobs erved
Ġtour ist
Ġcover ing
Ġimag ination
Ġsurv ival
Ġearth qu
Ġencoura ging
Ġclaim ed
Ġinvestig ate
Ġengine er
Ġburn ed
che ck
ĠAnt ar
Ġlink ed
Ġwealth y
ĠRead ing
Ġsac r
Ġinnov ative
Ġyog a
Ġmush rooms
Ġembr ace
ĠCard inals
fess or
Ġphenomen on
ĠHog warts
Ġarrest ed
ĠRev olution
Ġhobb ies
ĠTenn essee
Ġber ries
ĠPennsyl vania
E L
W ould
a us
i ors
l en
s m
u ated
Ġw ise
Ġf ake
Ġb oring
Ġto es
Ġd er
Ġd ash
Ġd olph
Ġin her
Ġh its
Ġl ion
Ġn ic
Ġg ang
ĠI N
Ġre verse
ĠT ree
ĠT ony
ig or
ĠS ant
ĠS iber
ĠA ven
ĠC apt
Ġsh orter
pe lling
el ess
el come
ĠD en
ĠF ox
Ġli z
Ġde er
ĠL o
ĠĊ Ġ
ass ion
ĠK now
Ġpr ime
ren cy
let on
Ġrec ording
Ġra rely
Ġrem oving
Ġcons ult
Ġsl ices
ward s
ener y
Ġph ase
ĊĠĠĠĠĠĠĠĠ Ġ
Ġev olved
ĠSp ain
Ġref ers
uff ed
ump y
ĠIs rael
Ġjo ining
ony m
Ġtrad itions
Ġ;,; $
for ward
Ġrain forest
Ġfast est
Ġinfl amm
Ġgrad ually
Ġdifficult y
Ġcapt iv
Ġfem ales
Ġsad ness
Ġ196 0
Ġmat hem
ĠSw ed
Ġnorm ally
Ġassist ant
Ġregard less
Ġliter ature
Ġflo at
Ġstret ch
Ġstrateg ies
Ġsmok ing
Ġfeather s
Ġremem bered
Ġacad emic
avas cript
Ġans wered
E r
L A
N N
S im
S ometimes
T ri
c as
d ing
d ri
Ġa id
Ġs ons
er ge
Ġb ol
Ġl ung
ic otta
ll ed
Ġst olen
am er
ĠS ir
ĠS ally
Ġan cest
if er
ĠC are
ĠC ivil
Ġse as
Ġr ating
Ġal ike
Ġcom ed
ĠD ut
ĠF all
ĠF antasy
Ġde ck
Ġj e
oc ate
ĠN ever
ĠO sc
av en
ound ing
ĠSt ock
ĠIn vest
Ġover come
Ġany way
Ġdes erve
ĠYou ng
Ġchar ges
Ġaw esome
Ġinv ite
Ġcreat ivity
Ġcharacter istics
Ġlo ver
Th anks
io let
Ġdescri bes
Ġve gg
Ġev ac
ĠAn n
St ar
ĠPl us
Ġclim bers
Ġelect rical
Ġlaw yer
sc reen
Ġinf o
Ġinf ant
Ġgrad er
Ġsafe ly
Ġcir cle
Ġrad i
Ġtall est
Ġpercent age
Ġharm ful
Ġhun ting
Ġrid ic
ĠRem ove
ibr ary
Fr ame
........ ........
Ġenthusi astic
Ġresist ance
Ġvoc al
Ġshout ed
Ġaster oid
Ġmosquit oes
5 1
D id
N e
S m
c ons
f ood
i ro
p ret
r ants
s ent
Ġt ang
in put
re r
re ls
Ġo un
Ġf oss
en cer
Ġp our
Ġp airs
Ġg aze
Ġre in
Ġis ol
Ġhe al
ĠA st
ce ans
ĠM aster
Ġsh ook
ĠP izza
ĠD ou
ĠF ar
ĠF ur
ĠF oc
Ġpro of
ard ash
ĠE aster
ĠL as
ĠJ ersey
ear s
ĠTh ink
Ġen cl
Ġsp an
Ġsp ine
ĠHe y
so ft
Ġpr ide
ru b
Ġunder stood
Ġgl uten
ever al
ov a
Ġ18 0
Ġexp ans
ĠSp orts
Ġ200 7
Ġsol o
Ġpol ite
Ġdi ary
Ġdri vers
Ġmiss ions
Ġbelie ves
arr ass
Ġsuper natural
Ġclim bed
oud ini
Ġsumm it
Ġsho oting
ĠInd epend
Ġprotect ed
off s
Ġconcer ned
Ġsav ings
Ġcop ies
Ġroll ed
ĠCr ash
Ġprompt s
Ġelement ary
Ġapply ing
Ġsuff ering
Ġeth nic
Ġmanufact uring
ĠDist rict
Fin ally
Ġauthent ic
ardash ian
4 8
D O
S V
c us
g ic
h h
i om
i ot
m el
r iger
z ed
â Ĺ
Ġt or
Ġa x
Ġs ed
Ġw ore
or ph
Ġp aws
Ġp ushing
Ġd il
Ġin fection
al ph
Ġg raph
Ġg athered
et a
ow ed
ĠA BA
ch ar
ĠH ill
Ġsh ame
ist ant
el lect
el ines
Ġv ital
Ġpl ain
ĠD ark
ĠD oes
ĠG reg
Ġup beat
ĠJ our
ap pend
Ġun comfort
Ġwhen ever
ound ed
Ġim pe
Ġpre par
Ġend less
Ġent ering
Ġinv is
Ġmon olog
Ġsec rets
Ġreal m
Ġpoint ed
Ġfil es
Ġmain ly
St art
cient ists
pend ing
Ġplant ing
Ġ199 5
Ġben ch
Ġtrad ition
Ġbox es
Ġcream y
Ġfight s
Ġdeath s
Ġmix ing
Ġphys ically
Ġpack ed
Ġprep aring
ĠBrit ain
Ġhost s
Ġbur ied
ograph ic
Ġattract ion
Ġstrugg led
Ġachie ved
Ġconcer n
AR S
ĠGl ob
ffic ient
Ġrepe at
Ġinj uries
Ġassign ment
ĠWilliam s
Ġvolcan oes
________ ________
Ġdisappe ared
Ġlau nd
ĠAtt orney
Ġthri ve
Ġbell y
ĠWhe ther
ĠLin coln
Ġweap on
Ġsquir rel
Ġhaun ted
Ġinstr ument
Ġpine apple
keep er
Ġbacter ia
Ġsuffe red
A pp
B I
C ar
C al
O kay
e v
j o
k ens
p arent
p iece
u ate
w alk
} :
Ċ ĊĠĠĠĠĠĠĠ
Ġt ense
Ġa rom
er d
Ġc el
Ġc uis
it is
Ġb onds
is er
Ġm art
an ny
Ġd ynam
Ġl en
Ġy a
Ġy ards
se ll
ĠA L
ĠA M
ĠH on
ĠP ig
Ġr aces
el ing
Ġv ine
ĠF ancy
Ġsu ck
res ents
ĠN FL
Ġfe ars
ach ment
Ġpe ak
Ġres ident
Ġag ed
Ġag ricult
Ġper man
Ġunder neath
ĠV e
Ġact ress
Ġ4 8
ange red
Ġcons cious
Ġprodu cing
erm an
Ġstud ied
Ġrep resents
ik us
Ġair craft
Ġleg acy
Ġdeep ly
Ġtechn ique
ann ah
ĠEx pl
Ġview ers
Ġimpro ving
Ġorgan ic
Ġz omb
Ġoffic ers
Ġphys ics
Ġveget arian
Ġgrand father
Ġclos est
Ġoper ating
ĠChe ese
ĠEn ter
Ġcry ing
ĠSm all
Ġspeak er
Ġ+ =
Ġinflu enced
Ġpan ic
Ġsold iers
Ġdoll ar
Ġconsum ers
Ġinteract ion
Ġcirc umstances
ĠMus ic
ĠStud ios
Ġemb arrass
Ġqual ities
En ter
Ġbatter y
ĠRet urn
Ġalle ged
Ġmort gage
Ġfert il
Ġappl ied
Ġcha os
Ġerr ors
Ġcorresp ond
Ġbrill iant
ĠIre land
3 6
5 6
I A
R ed
T ok
V erse
a ul
a ism
c r
f u
g ram
i ary
l ers
m l
r at
r ons
in ner
re nd
Ġw itch
Ġb reeze
on ge
is hes
Ġto kens
Ġd irty
al o
Ġl aughter
Ġl ocked
Ġth orough
Ġn urs
Ġn ails
et ers
ac ement
ent h
ĠT er
ĠT elescope
Ġon ions
am ental
ĠM iddle
Ġha bits
ĠH oudini
ĠB illy
Ġsh ock
ag ues
Ġ1 000
el ve
Ġcon vert
ĠF alls
Ġint im
ĠN at
ĠN orthern
ĠN intendo
Ġen force
end ing
Ġun less
Ġtr icks
int on
Ġres ume
Ġcr unch
ific ial
Ġreal izes
ott e
Ġlight ing
hip s
ross ing
Ġposs ibility
Ġpat ience
Ġcheck ed
ĠOr der
Ġpresent ation
ĠSu pport
Ġfocus es
edd y
ĠAdd itionally
Ġfail ure
Ġfeed back
Ġsus pect
Ġinit i
Ġnecess arily
ios is
Ġpriv acy
Ġimm ig
ĠJe an
Ġcarry ing
Ġpsych ological
Ġprinci pal
Ġgrant ed
ĠSoc ial
achel or
Ġcin namon
ĠKenn edy
ĠGard en
Ġdinosaur s
ĠDisc ord
Ġlandsc ape
Ġpurs ue
Ġpleas ant
ĠEve rest
Ġfranch ise
Ġcompre hens
Ġinhab it
Ġrefres hing
Ġadvertis ement
Ġlapt op
ĠBit coin
ĠRedd it
2 50
G ener
I V
M od
P U
R A
U p
h in
h our
n ut
p art
u ber
v ard
Å į
Ġ ...
Ġa ffe
Ġs ights
Ġs essions
Ġf u
Ġf ried
Ġl ions
Ġn erve
Ġg rill
ĠT our
Ġst un
ĠS ub
ĠS up
ĠH un
ĠH ope
Ġne ut
ĠW ind
ĠW ord
ĠW alk
ĠP ant
Ġse lection
Ġyour s
Ġr ows
Ġal ert
Ġde als
ĠG ram
ĠR ab
ĠR og
ĠR oose
ĠE xt
ĠE duc
The ir
ĠJ enn
ĠO F
av al
Ġcomp osed
Ġtr acks
ĠSt ory
Ġdis m
Ġres ort
Ġthere fore
vel t
ob ia
Ġpers ist
hes es
Ġtra um
Ġrec o
Ġche f
vent ure
Ġsl iced
Ġret ired
Ġgreat ly
Ġstr ings
ific ations
ĠAl ways
Ġreg ret
Ġexp osure
Ġanim ated
Ġref used
Ġyoung est
ĠAn na
Ġ7 5
arr ay
ĠDe c
Ġpay ments
Ġconf usion
erc ury
ĠJohn ny
Ġorgan isms
Ġpack aging
Ġvol unte
Ġcapt ain
Ġindust rial
Ġarg uments
Ġexpress ed
Ġsurround ings
Ġang le
pos es
Ġfund ing
Ġmach ines
yst ems
Ġquiet ly
Ġrespond ed
Every one
Ġcow ork
osh i
Ġindepend ence
Ġsubst ance
ĠAp oll
unge on
Ġexec utive
ĠBre ak
Ġweap ons
ĠBra zil
Ġdut y
Ġsore ness
lean or
ĠColle ge
ĠBudd h
Ġterrit ory
Ġpromin ent
Ġphilosop hy
Ġschedul ed
ĠColumb ia
Ġreput ation
iffe rent
ĠRoose velt
9 4
C om
S cript
` ,
c ut
f ol
m ain
r ich
u ine
Â °
Ġf aced
Ġd ip
Ġl azy
as et
le e
Ġst aring
Ġst ages
ce l
ĠM ach
ĠC reek
Ġwas hing
ch anging
ra vel
ĠB an
ĠW atch
ĠW onder
Ġor b
Ġor ig
op her
ust ion
ie val
ak i
ĠR oll
Ġj ar
ĠE ar
Ġint ellect
ĠN one
Ġout l
Ġar c
ĠK ansas
ap h
ip ed
Ġcomp are
orm ous
ens ity
ĠCh ief
Ġplay ful
Ġpers u
Ġtra its
vent ually
Ġworld s
aw are
Ġstr ict
Ġstr anger
Ġinst ant
Ġreg ards
ĠBe aut
Ġfil ed
Ġput s
Ġref riger
Ġ200 2
Ġaut umn
ows er
Ġed itor
rodu ce
ĠLe e
ĠLe g
Ġreview er
Ġincre ases
Ġbegin ner
Ġcheck ing
Ġeffect ively
ĠOr gan
ĠInd ians
Ġsurf aces
Ġdiv ide
Ġbreat he
ops is
ĠRep resent
Ġwebs ites
Ġflo ating
abor ate
Ġmur d
ĠMic hel
Ġscr atch
Pe ople
ĠJud aism
Ġsch olars
ĠNet work
Ġwra pped
Ġcorpor ate
Ġsig hed
Ġrhyth m
Ġdownt own
Ġcrim inal
Ġinflamm ation
" ?
" );
' :
3 00
= {
b ro
p x
r us
w orm
z u
z er
Ġt ac
re pre
Ġs atell
Ġb other
Ġb ands
Ġp ic
Ġh ors
Ġn oodles
Ġg ear
Ġg rey
ĠT O
Ġst airs
ad ium
ig ning
ĠM en
ĠM ult
ĠM iam
ĠC ir
ĠC ubs
Ġha ikus
ill ing
ĠH oll
Ġsh ops
ag an
ist an
ore n
Ġch ant
Ġch ores
Ġde br
ĠR oyal
ĠE ver
Ġ( <
Ġint ake
ind ices
Ġcl ar
Ġen chant
Ġen ormous
ĠU s
ĠSt ri
ĠSt ation
Ġfl ows
âĢĿ ,
hy d
Ġacc used
Ġacc omp
Ġnow here
Ġinv asion
Ġmin ing
ty pe
ats on
Th ough
Ġsun shine
Ġsub tle
udd y
Ġhor rible
Ġstar red
Ġcelebr ated
Ġconnect ions
medi ate
Ġsens itive
ĠGr ass
Ġsignific ance
eb ra
Ġinvent ion
Ġsett ings
Ġmel ted
Ġliter ary
Ġconcept s
Ġtick ets
Ġsequ ence
Ġjud ge
Ġsusp ense
Ġtro ops
ĠHist ory
ĠColor ado
Ġille gal
Ġsarc astic
Ġuncomfort able
repre ne
Ġdebr is
" >
% .
7 8
S R
T A
] ;
m ar
s he
u gh
y our
Ġ iced
Ġt une
Ġs orts
Ġw akes
Ġf t
Ġf uck
Ġf ired
Ġb ay
Ġb att
on el
or ious
Ġm um
Ġm ales
en ic
le ft
Ġy ield
ion e
Ġst able
am ple
am ins
il ton
ra ined
Ġsh adow
Ġab stract
Ġch ief
Ġr ings
em ents
ĠD I
ĠF ollow
ĠR ick
Ġj am
ind a
ĠJ ordan
ĠĊ ĠĠĠ
pl ays
ĠSt at
Ġbl ess
Ġjust ice
Ġpre cious
Ġart istic
Ġche w
Ġind ul
ĠUn fortunately
any on
arm ing
ĠBe ing
Ġca ption
Ġwr ist
Ġext ensive
rand om
Ġweek ly
Ġsub ur
Ġsub sequ
Ġdr unk
Ġfact or
Ġsign al
Ġpur poses
Ġdevelop er
Ġprom ot
Ġdep art
err ing
Ġaud iences
Ġappro ved
Ġest ate
Ġri vers
Ġstri kes
ĠCon nect
Ġproper ties
Ġextra ord
Ġsurv iv
ĠFin al
Ġencoura ges
Ġdro ps
Ġsmell s
Ġdefe at
Ġthr one
Ġir rit
Ġdev ast
ĠJul ia
Ġopin ions
Ġgradu ate
Fr ank
ĠPart y
Ġflu id
Ġsock s
Ġconv ince
Ġcontro vers
Ġaffe ction
% ,
4 2
5 8
E ach
N umber
P S
T e
T ext
c od
d es
d ate
e an
g ener
g mail
k ind
m are
m ble
p op
t est
t able
Ġt act
in ch
in um
Ġs ession
Ġw idth
at hetic
Ġf ed
es h
Ġp ile
an while
Ġd warf
Ġh ired
Ġl ou
Ġl ad
Ġy eah
Ġg est
Ġe ats
ĠI ll
ĠT em
ut her
ro s
ĠA P
ĠA T
ĠM ain
ĠC ats
ĠC oll
ri or
est y
ĠW H
ĠP ay
Ġse ats
pp ings
Ġdo zen
Ġv ivid
Ġal ter
ĠD rag
ĠD aniel
ĠF re
ĠF ill
ĠF ive
Ġso le
ak ery
ĠR at
ĠR ub
ack ed
Ġ" \
Ġsu cc
ĠN ob
ĠJ S
Ġhas n
ĠY eah
ĠHe art
ĠK ardashian
Ġro asted
Ġun e
ĠSt ars
Ġsc an
Ġdis s
ru p
Ġ19 50
Ġback pack
Ġart if
Ġche es
Ġrel uct
Ġprodu ces
Ġmon sters
Ġop al
Ġlo ad
amp ion
Ġinter ior
oun ced
Ġgener ated
ĠRe act
Ġdel ay
Ġair port
ĠMar g
ĠMar ia
Ġenjoy s
ug ar
ĠKe y
ĠBr ady
Ġcou p
Ġlaw suit
Ġkey words
Ġperform ing
play er
Ġmod e
ili pp
Ġgen uine
Ġfail ing
Ġdiscuss ed
Ġdress ed
Ġsend ing
Ġalbum s
Ġfund amental
Ġpaint ings
Ġtouch ing
Ġconsum ed
ĠPa xton
Ġpuzz les
Ġteen age
Ġprefer red
Ġthr own
Ġadapt ation
Ġhabit at
rie ve
Ġweak ness
Ġfrust rated
Ġaim ed
unge ons
Ġpengu ins
Ġincreasing ly
Ġhighlight s
Ab out
Ġsyn opsis
Ġappoint ment
ĠCO VID
ĠMatt hew
Ġoverwhel ming
ĠAv oid
Ġperm ission
Ġastronaut s
Ġflex ible
Ġarchitect ure
ĠCast le
ĠBeat les
Str ong
ĠKos ovo
Ġtraged y
Tri via
Ġvegg ies
sent ence
Ġmonolog ue
ĠSup reme
B ob
E l
M ic
P eter
W ater
b rain
c hers
d f
d en
h uman
l i
r ange
Ã ¡
in ate
Ġs oph
Ġo ak
Ġo ceans
Ġf ry
Ġb ub
Ġp ou
Ġp ed
ed ing
as ma
ic it
Ġg ross
Ġst ays
am ic
am ous
se y
ĠS av
ĠS omething
ce ived
ĠM ind
ĠC ut
ĠC ream
ĠC oun
ĠH ood
ĠB ible
Ġsh ield
Ġsh adows
ul ary
Ġab und
ĠP earl
Ġch ili
Ġse m
ab out
ab el
ĠD ub
ĠF a
ĠF ah
ĠF amily
ĠG alaxy
ĠL im
Ġte nder
ind ing
Ġsome body
Ġshe d
Ġen viron
Ġcomp onent
ĠCh urch
lf red
Ġimp ressive
form ation
Ġrec ycl
Ġlet tuce
Ġsk i
Ġind icate
Ġop ens
ik i
Ġclass ify
Ġclass room
Ġfil ter
Ġinform ed
Ġinform al
fl ix
ov id
Ġsw ord
Ġless ons
Ġmem orable
Ġsound ed
Ġ200 4
Ġed ges
ĠFl ash
ustom er
Ġocc as
Ġelect ron
Ġtit led
ĠSc out
ĠWith out
Ġcap acity
Ġsil ence
Ġtou ched
Ġtour ists
Ġdead ly
Ġmat ters
Ġsett led
Ġconsum ption
Ġspir its
Ġregard ed
AT E
Ġcro ps
Ġcivil ization
isc ons
ĠAg ain
Ġrelig ion
Im agine
Ġmanufact ure
Ġsock et
Ġoccup ied
ĠVen ice
Ġpregn ancy
Ġagg ressive
ĠKore an
iox ide
Ġcandid ate
ĠBru ce
Ġchron ological
ĠFoc us
Ġcuis ine
Ġorig ins
ĠMiam i
Ġenviron ments
) [
5 2
9 7
S k
c orn
g ie
j is
n amed
t hen
Ġa quarium
in et
at ile
Ġb orrow
or ize
Ġm ud
Ġre aches
Ġbe et
ĠT ele
Ġst ocks
ĠS ure
ĠB ad
ĠB ase
ul u
ag hett
un ks
ĠP ublic
Ġch ase
Ġch airs
Ġcon ference
ĠF le
ĠF ather
Ġj ungle
ĠE leanor
ĠL ive
ĠL ady
Ġout er
ood le
ĠJ ess
ĠJ ason
ĠTh ings
od a
are r
are st
Ġsp y
Ġun iform
Ġcomp rom
Ġdis aster
orm al
Ġcol ored
Ġgood bye
Ġra il
Ġaw k
Ġcons ume
Ġprodu cers
Ġmon keys
Ġsmall est
Ġins ist
Ġloc als
Ġpass es
Ġcle ver
Ġmed ieval
Ġexp ed
Ġav ocado
Ġmark s
ĠPl ant
Ġdeep est
Ġelect ed
put er
Ġ199 1
Ch ar
Ġz ero
Ġcamp us
ĠCal cul
Ġprotect ing
Ġinsp ire
Ġcoll apse
Ġsurv ived
Ġ196 9
Ġvac uum
ĠSpace X
nam ent
Ġplat inum
Be fore
ole on
bre aking
Ġparticip ants
Ġthr ust
Ġfrequ ent
Ġapplic ations
ĠAlex ander
ĠBo ard
Ġphr ases
Ġtun nel
Ġcoc onut
Ġgather ing
Ġcompl icated
ĠAtl antic
Ġunlike ly
Ġmamm als
Ġconven ient
Ġmob ile
Ġfier ce
ĠSus an
Ġdesp air
Ġvo ices
ĠABA B
Ġhors es
9 8
= '
C ola
R ep
S te
T im
c up
d on
h ome
m aking
n ings
p ower
p read
v a
y on
in cluding
it ivity
Ġf its
Ġb io
Ġb anks
Ġp ests
Ġd read
Ġh al
le ments
Ġre pt
ent er
ĠT ik
Ġst ared
se lling
ro ck
ad as
ĠC anyon
ch ain
ĠH or
ĠH orse
ĠB arry
ĠW omen
th rough
ĠP y
Ġch asing
us age
ab ulary
ĠD ar
ĠD ave
ĠD ead
os ph
red ients
ĠR est
Ġint ent
ind y
Ġshe lf
per t
ci um
Ġro lling
Ġ3 6
ish ment
Ġunder water
Ġatt itude
Ġhome own
Ġhome made
Ġend angered
ath on
ath an
ather ine
Ġac res
Ġcr own
Ġbeg un
Ġins ight
Ġins ert
Ġgl owing
Ġsub t
Ġsol ved
Ġsol utions
ides pread
Ġproduct ivity
uff s
ĠPl uto
Ġwind s
ĠAr m
Ġstand ards
Ġbegin ners
Ġtem ple
Ġ199 8
Ġpri ze
Ġtrad ing
Ġrain y
Ġbar be
ĠEl mo
ĠInst itute
col ored
Al though
ĠEm peror
Ġcatch ing
Ġpolit ics
Ġappreci ation
ĠSte ven
Ġlaugh ing
Ġcho pped
Ġinstall ed
Ġtow er
ĠUp on
OU R
ĠJeff erson
Ġfol ks
Ġextend s
uls ion
Ġtur key
iven ess
Ġnutrit ion
ĠOb ama
rem ovals
Ġcryst al
Ġremark able
Ġfra gr
Ġlic ense
Ġanal ysis
Ġguid ance
Ġgramm ar
Ġlaund ry
iscons in
aghett i
) .[
, '
I M
J im
M ike
P ass
R L
T ER
c il
g ly
g ment
m art
m ile
in is
Ġc asser
Ġf ond
Ġb or
or rect
Ġd ying
Ġh ind
Ġh ip
Ġh ire
Ġl ap
Ġl akes
ĠI T
Ġst rain
Ġst ones
ur se
ĠS ong
ĠS uddenly
ĠS onic
ĠA AB
ĠC ake
ĠC omb
ĠH and
ĠP ur
Ġr ushed
Ġal ign
ĠD ri
ĠF ound
ĠR ain
Ġj ars
Ġte ens
ĠJ ake
Ġgo bl
Ġcl ay
ear ing
ich ael
Ġsp oon
Ġco pper
ĠU FC
Ġro ses
Ġbl ur
Ġspe eds
ord ers
Ġno ises
Ġper pet
Ġsl am
Ġsl og
Ġcar ing
Ġdec iding
Ġhum ming
Ġexpl oration
Ġsy nt
Ġinst inct
Ġrest ore
Th rough
ok ing
Ġinter pret
Ġ[ "
Ġsun set
Ġev olution
Ġref und
Ġdi pl
Ġresult ed
Ġtreat ments
Ġcor on
Ġorgan ize
Ġconsider ation
Ġste el
Ġste ak
ĠPro fessor
Ġbas ement
Ġpress ed
Ġtast es
Ġdest ruction
Ġredu cing
Ġgen etic
Ġfro gs
Ġoper ator
Ġ} ,
Ġarri ves
ĠPh ilipp
dd ie
Ġcompet itive
Ġstrugg les
Ġsubject s
II I
nes ota
ĠMin nesota
ES T
mon th
Ġcirc us
ĠBill board
ĠPat ri
rupt ed
Ġunf old
Ġmotiv ated
Des cribe
Ġprem ie
Ġfrust ration
Ġyell ed
Ġnavig ate
Ġpregn ant
Ġbuck et
Ġhoriz on
Ġcert ified
Ġstead y
ĠTok yo
Ġfant astic
Ġelder ly
ĠRow ling
ĠGovern or
Ġmart ial
Ġawk ward
7 1
8 5
C ons
F e
I G
S E
S l
T weet
Y et
b ar
b ul
c omm
i pper
m m
m ind
v ol
Ġ â
es ides
Ġm aj
Ġp ul
Ġp unch
Ġd anced
st ory
ĠT an
Ġhe ll
Ġst ere
ro id
ĠA rab
ter y
ce ll
ĠH ur
ĠB B
ĠB C
est ed
Ġex ists
em a
Ġv oted
Ġal ley
ĠF ame
os c
Ġpro hib
Ġso cc
ast y
ĠE th
ge red
Ġle ather
ĠN OT
Ġte nds
ĠJ oy
ĠJ osh
Ġgo ats
ĠTh or
ci p
ĠSt and
Ġsc ored
Ġfl ag
Ġres olution
Ġres olve
Ġag ent
Ġ19 00
ĠV an
." )
Ġfind ings
Ġcomm ission
Ġsl ide
Ġread s
Ġtri als
Ġrep air
Ġ6 00
br id
Ġfact ory
Ġpub l
com p
Ġpot entially
Ġmove ments
ĠBr ut
Ġrese mb
Ġ199 9
Ġrece iving
Ġfur ry
Ġkill ing
Ġinfl ation
Ġda wn
Ġgen res
ĠTe am
ĠCo ffee
Ġroad s
Ġrul ed
Ġdro ve
Ġgar age
Ġmat ches
ĠMich igan
Ġdecor ate
Ġthreat ened
Ġhik es
Ġdom estic
sec ut
mark et
Ġmeas ured
ĠMic ro
Ġvit amins
ĠVis it
Ġeleph ants
Ġfort une
rad ius
Ġgri p
Ġaccur ate
Ġpadd le
Ġoccasion ally
Ġcontem porary
Ġcarr ots
Ġacknow led
semb ly
Ġcreep y
aterpill ar
ĠOsc ar
Ġfoss il
Ġintim id
Ġextraord inary
ĠDrag ons
Ġsocc er
4 7
: :
B ased
D og
O C
R ec
S C
a fe
b ucks
m ap
p ing
p ot
r im
r ise
t urn
u ity
v i
y es
z ero
Ġ vel
Ġt ack
Ġw ars
Ġw idespread
Ġc raw
on to
or ters
ed ed
Ġd orm
Ġh itting
Ġh iring
Ġl ane
ic on
Ġy e
Ġn ations
ĠT ao
im mer
ur ous
Ġwh ist
il ty
ĠM er
ĠC ost
ĠC row
out heast
um ns
ĠH uman
ĠB ow
ĠB all
Ġsh red
Ġch ir
Ġse ctions
Ġr it
Ġr ural
Ġcon vey
qu est
op en
Ġcom pelling
ĠD ig
ĠF ro
rou s
ĠG ot
ĠE ll
ge ous
ĠL ily
ĠL arry
ĠN Y
ĠĊ ĠĠ
pl it
Ġkn ees
ĠK im
Ġsa il
ne cess
âĢĿ âĢĶ
ell ing
Ġlist ened
Ġbr id
ĠCh ild
Ġart ificial
Ġchar m
Ġaw ake
Ġbu g
Ġcons ervation
Ġbel t
Ġrel ative
Ġsur ve
Ġgu ards
Ġtri ps
Ġmin eral
Ġinst antly
Ġbo ots
anc ers
Ġsn ail
Ġpol ic
Ġmust ard
Ġprom ises
ruct ure
ĠAr ch
ĠAr my
Ġmind s
Ġbit ter
Ġtre nds
erc y
Ġelect ronic
app ropriate
Ġ199 7
resh old
Ġpublic ly
angu age
Ġrespons ibilities
Ġpu pp
Ġfig ured
ĠQu ill
Ġspeak ers
Ġaff irm
Ġinflu ential
Ġsav ory
Ġsett lement
Ġentertain ing
yl an
Ġarr anged
Ġjump ing
Ġfac ility
Ġanx ious
Ġaltern ate
ĠSpe cial
Ġemp ire
Ġthrill er
May be
Ġleaders hip
Ġcoc oa
Ġmeteor ite
ĠRob in
ĠSoc iety
ĠHist or
Ġwond ers
ĠDog s
Ke ep
Ġcrisp y
Ġcontribut ions
Ġcommit ment
Sub ject
Ġearthqu ake
Ġprepar ation
Ġenforce ment
ĠApoll o
Ġsem i
' ;
: //
c alled
d rop
f ers
i y
s ky
y nt
Ã ³
Ġs igh
or ie
Ġm our
Ġp ant
Ġto b
ar ation
Ġd ull
Ġd ioxide
Ġin ning
Ġre ar
ot ers
ĠS P
ĠS T
ĠS oon
ĠS oph
ĠM s
ĠC orn
ol is
ĠB i
ĠB ank
ĠB ox
ĠB ailey
Ġsh iny
ĠW isconsin
ĠP ok
ĠP erson
Ġex otic
Ġv ul
ĠF R
Ġbut t
ĠL ion
ĠL ater
ĠN orm
ook y
pl ot
end ment
ĠU k
ĠK ind
ĠK ids
Ġpe ers
Ġun h
Ġun necess
Ġtr im
ĠSt ay
Ġsc ram
Ġsc rew
Ġbl ame
ne ys
we ek
Ġgr in
ress ing
als a
ob ile
ĠCh ildren
ĠV in
vent ional
ĠAs h
Ġrep ly
Ġlo vers
Ġrun ner
ĠRe al
St ring
ĠAd minist
Ġmind ful
Ġmar ry
ball s
ĠZ oo
Ġiss ued
Ġcap s
Ġ` .
Ġbad ly
Ġste ep
Ġste aling
Ġbutter flies
Ġvers ions
aps ed
Ġobs erve
Ġtot ally
ĠCo ast
ĠUnivers al
Ġcand le
Ġimag ined
ĠEm ily
Ġpath s
Ġvill ain
Ġbrand s
Ġstraight forward
Ġcollect ing
Ġaffect ing
ĠMount ains
Ġpred ict
Ġur ban
rab ble
Ġupd ated
point s
Ġconc rete
Ġforg otten
Ġmotiv ation
ĠPort land
ĠPort ug
ĠMus k
Ġgradu ated
ĠPal ace
Ġselect ed
ĠPri ze
Ġrub ber
Ġhyper t
ĠRec ords
Ġdepth s
Ġsquir rels
Ġapolog ize
ĠAtl anta
Ġreven ge
ĠLear ning
Ġobst acles
move ment
Ġgroom ing
ĠLuc y
Ġsen ior
Ġcompar ison
Ġapparent ly
dire ction
Ġreco very
8 00
A ct
D ata
H ar
M ore
P C
T y
T om
T itle
W ork
c al
f its
m akers
n on
p res
r itten
r ison
s cript
t es
t here
ĉ ĉ
Ġt orn
he it
in stein
Ġthe r
Ġo k
Ġc v
Ġc ooper
it led
it ches
Ġb ass
ing ing
Ġm ice
Ġp itc
Ġto ppings
Ġd ive
Ġl ined
Ġl oses
Ġg ases
id ays
Ġst arring
âĢ ĭ
ad el
ĠS C
Ġwith draw
Ġan ch
ct ed
il a
il ian
ĠM ade
if ies
ĠC ub
Ġha z
ol as
ĠH an
ul pt
ĠP ress
us ic
Ġr anks
Ġv amp
ĠF our
ĠF ree
Ġde ce
Ġso ot
ak y
ĠE P
Ġint rig
ĠN avy
Ġmo ld
ĠY et
Ġtr unk
Ġfl ip
Ġcont ents
ren heit
Ġtw in
Ġ3 3
Ġ3 9
Ġem issions
Ġem erge
ĠCh ip
ock ets
ĠV R
Ġshort ly
Ġapp et
ere my
Ġatt orney
Ġlet s
Ġbu nd
Ġind o
In ter
Ġgu ilty
ject ive
Ġcur se
ner gy
Th ree
ik a
Ġeas iest
Ġresp ir
ok ed
Ġpost ed
Ġinter mediate
Ġsn iff
Ġel aborate
Ġdr ift
Ġtrans ition
ret urn
Ġproduct ive
;,; $
Ġprof ound
Ġcour ses
Ġtravel s
igin al
Ġparent heses
Ġtem porary
year s
Ġcap abilities
Ġorgan izations
Ġemploy ment
Ġest imate
ager y
urs or
Ġprint ed
Ġmass age
Ġcontrol s
Cl ick
Ġdiv ision
Ġimprove ment
Ġcomput ers
ĠTe a
ĠEn joy
Ġaff ili
eg ers
Ġcand les
Ġsend s
Ġinj ury
Ġhun ger
Ġarm or
ĠPer haps
Ġscen ario
Ġdessert s
Ġemb ark
Ġhur ricane
Ġign ore
Ġoverwhel med
Ġyog urt
Ġdut ies
oty pe
ĠLear n
Ġannounce ment
ĠTor onto
Ġtoothp aste
Ġtiss ues
Ġshr imp
Ġnod ded
Ġexha usted
Ġretire ment
Ġdivers ity
ĠCapt ain
Ġinvis ible
ĠFah renheit
0 6
G r
J ack
O ther
V ER
f ind
i ar
l og
s ki
u z
Ë Ī
in ance
re ck
Ġw olves
Ġf er
Ġf rag
on ia
Ġm al
Ġp oop
an tern
ar b
Ġth ief
Ġe cho
ow ered
Ġbe ast
Ġhe llo
Ġst ew
ad or
ke l
ĠS af
ĠS everal
ct uary
oo ps
ĠM ot
ĠM ermaid
ĠM ercury
ĠC V
ĠC y
ĠC her
ĠC oca
ĠC ovid
ch y
ri ors
ol iosis
um bs
ĠB rew
est e
ag us
ag ger
Ġch ampion
Ġse ar
Ġv oid
ĠD ylan
ĠF em
ĠF oot
ĠG ulf
Ġj aw
Ġj azz
ĠL arge
ĠL GB
ĠL ibrary
Ġint ric
oc ol
ĠN ich
cl ose
reat ing
ci pl
Ġman ip
Ġsp ices
Ġsp icy
Ġro d
Ġwork place
ult ane
ew is
ĠCh ampionship
ĠV er
Ġaw ful
Ġbu ff
Ġinv itation
Ġlo ans
Ġcle ans
Ġcount less
Ġ[ ]
Ġland mark
ĠSh ort
ĠMay a
Ġmark ets
ruct ive
Ġmother s
ĠLe on
ĠZ e
Ġdesign ated
Ġmeet ings
Ġrhy mes
Ġ199 3
ivers ary
Ġlay ing
bit ious
Ġheav en
umb ling
Ġbott les
ðŁ Ĵ
Ġimprove ments
Ġrout es
Ġsto pping
ios ity
Ġrecogn ition
Ġconsum er
Ġinteract ions
Ġbi ography
Ġcalcul us
Ġexplan ations
Ġdom est
Ġupd ates
ĠLa unch
Ġresour ce
Ġneck lace
Ġattend ing
ĠSec ret
ĠHar vard
fill ed
ĠInt erest
ĠMag ic
Ġcolon ies
itz er
ĠMet a
ĠRon ald
Ġunc ertain
Ġmoist ure
Ġseg ment
Ġdat aset
Ġbes ides
Ġven om
Ġcos mic
ĠStan ley
Ġrapid ly
Ġbelief s
Ġcontrib ute
kl ah
Ġecos ystems
pher d
Ġemo jis
ĠWy oming
Ġmathem at
Ġoun ces
mel on
Ġvine gar
ĠExpl ore
ĠPatri ots
ĠBrut us
ĠLGB T
F i
I R
I ng
\ -
k ed
p ired
s chool
v ity
v able
Ċ ĊĠĠĠĠĠĠĠĠĠĠĠ
Ġt u
Ġo d
Ġo min
Ġw ished
Ġw rap
er get
ou ch
Ġf aint
on ly
en ess
Ġto ll
Ġd ice
Ġl atter
Ġn erves
ĠI ke
Ġbe ard
Ġbe verage
Ġst aple
Ġan k
il it
ĠC ateg
ch oice
ri el
igh ters
ĠH em
ĠB ry
ĠW itch
ĠW inter
ĠP and
ĠG O
ĠG oth
ĠL ow
ĠJ er
ĠJ es
Ġfe e
Ġen zy
Ġen erget
are lla
Ġsp inal
end ar
Ġim per
Ġsc rap
Ġwork er
we ed
Ġres il
Ġgr an
Ġgr asp
Ġno ble
Ġcol ony
ĠV ill
Ġrec on
Ġrec over
Ġrel iable
Ġform ula
ins on
bs olutely
Ġtri be
Ġass ists
ik es
Ġcount s
ract ion
ok er
anc he
ps on
augh ters
oun ters
Ġel ite
Ġmem oir
Ġhard ly
ĠAd ams
ĠJo ey
Ġsuggest ing
Ġele g
Ġplant ed
Ġelect ro
Ġ199 2
zz arella
ĠPr ote
ĠPro v
Ġfresh ly
Ġri val
Ġadvent urous
Ġstri ve
val ue
Ġoper ate
Ġdig ging
Ġhost ing
add y
Ġrandom ly
Ġvari ations
ĠSam antha
ĠComm ission
Ġimm ense
Ġdepend s
Ġadm it
Ġcorrect ly
Ġpal ace
Ġtim er
Ġtax es
Ġhero es
Ġadapt ed
Ġghost s
ĠPo ly
Ġdetect ive
Ġprinci ples
Ġexpand ed
ĠSil ver
Ġathlet es
Ġwond ered
âĢį â
ĠStep hen
Ġfest ival
Ġannoy ed
Ġadminist r
build ing
Ġnegot i
Ġcott on
Ġvert ical
ĠNap oleon
Ġcham ber
Ġmagnet ic
ĠAven gers
Er ror
ĠRab bit
Ġpic nic
" ]
9 6
B en
B ig
D av
F ore
G reen
K now
L uc
S n
S ee
W he
b i
b our
b urn
f irst
f alls
l ifting
r ors
u ction
z es
z ens
Ġt ennis
Ġa er
in clude
Ġw aking
at ient
Ġc ure
Ġc ogn
Ġf ame
Ġb akery
Ġp ants
Ġp ockets
ed er
Ġin du
Ġl ighter
om atic
Ġg n
et on
st airs
ac ious
Ġre fe
Ġre ign
Ġbe ating
ĠT reat
Ġon ion
se par
ro ve
ig ers
ĠS weet
ĠA ge
Ġas pect
um er
ĠH T
Ġne at
ĠW ales
un o
ĠP ine
ĠP rop
ĠD om
ĠF ish
Ġpro ced
Ġso d
ĠG round
Ġher b
Ġj ury
Ġj eal
Ġsu fficient
Ġle nd
Ġint r
ĠJ am
Ġfe es
Ġfe ver
iz able
ear ly
Ġsp are
ĠK ong
ĠSt ill
Ġsc oop
Ġdis pos
Ġsm iling
ob i
Ġrec all
Ġchar ming
oth y
iss a
Ġcar bs
Ġind eed
Ġmon itor
ĠWe ek
Ġtri via
ĠAl bert
Ġmin imal
Ġsim ultane
Ġclass ical
Ġbo il
ho e
ĠThere fore
br ush
eng ers
Ġ8 5
ĠAn cient
uc ose
ĠAd ult
Ġed ition
Ġwa ist
ĠAr ts
We ak
We ek
Ġorigin ated
Ġgra ins
Ġcolle agues
ivers ity
Ġdest inations
Ġfair ies
Ġ< /
ĠEn vironment
Ġarg ue
Ġspeak s
su ch
Ġsold ier
ĠComm ittee
Ġdecor ations
Ġtail s
ĠIsland s
Don ald
ĠCount ry
Re view
ĠPer form
Ġdefin ition
Ġsubst ant
ĠHawai ian
Ġpool s
Ġcru el
Ġpeanut s
isl av
Ġspin ach
ĠIntern et
Ġvoc abulary
Ġment ions
Ġmoist ur
Ġdat ab
Ġcher ry
Ġabsor b
Ġbes ide
ĠNet flix
bird s
Ġdiagn osed
Ġvessel s
ĠKh an
Ġobtain ed
Ġprofession als
ĠHarr ison
Ġgor geous
Ġcheek s
Ġtablesp oons
Ġcoun sel
ĠVictor ia
ĠScot land
Ġridic ulous
ĠGram my
ĠEduc ation
ĠTik Tok
ĠAdminist ration
klah oma
Ġenerget ic
Ġjeal ous
4 3
7 4
B el
H L
M ax
N ever
P R
P ol
Q U
U nder
W oman
[ ]
c ue
c reate
h ab
i ago
r um
z a
it us
Ġf art
Ġm erg
an ke
Ġto pped
Ġto ler
Ġd ies
Ġd well
Ġin ev
Ġh ats
Ġg ut
ĠI D
et erm
st ick
Ġst ability
Ġst urd
ur ora
ĠA lfred
Ġwh ims
ĠC ass
ĠC NN
igh th
ĠH appy
ĠB rian
ul um
ĠW izard
ĠW atson
ag a
ag le
ĠP ick
Ġch ronic
Ġcan al
em ed
op les
ab s
ĠD iv
Ġmy st
Ġde aling
ard o
ĠR un
ĠR od
ĠL isa
Ġgo at
Ġgo dd
av ir
Ġsp ray
au x
Ġcomp osition
Ġim agery
Ġsc ulpt
Ġcont rolled
itt ens
Ġ3 7
Ġam use
Ġam bitious
Ġcol umns
Ġra ising
Ġ4 4
ĠUn i
Ġhigh way
Ġsy rup
Ġhand ed
ĠAl ong
Ġins ult
Ġprov ider
uck ed
Ġmet ap
Ġpres ents
Ġcount ing
Ġbus h
Ġbus hes
Ġsw am
Ġsn akes
Ġdist ingu
Ġ7 9
ĠAd venture
Ġcommun ic
cent ury
Ġprocess ing
Ġtem pt
ĠWith in
Ġpract icing
Ġcontain ers
Ġreason able
Ġvers us
Ġstri king
Ġcir cul
ĠQu est
Ġarri val
ĠJust in
Ġtour nament
Ġ198 6
Ġdress ing
Ġlab els
Ġrul ing
Ġprevent ing
ĠDr ink
def ine
Ġinterview s
Ġthrow s
Ġrepresent ed
Ġrepresent ative
Ġglob ally
ĠAre a
Ġengine ering
rib ution
Ġcoast al
Ġsort ed
Ġearl iest
Ġreact ions
Ġspr ink
Ġpand as
ĠCharl otte
ĠAustral ian
rast ructure
Ġsle pt
ĠMarket ing
Ġexpert ise
Ġnutrit ious
Ġren ov
Ġpy ramid
Ġreven ue
ĠBet ter
Ġprec ise
ĠPict ure
Ġpor ch
ĠKent ucky
Ġdolph in
Ġancest ors
âĹ ı
Ġinhabit ants
ĠDI Y
Ġpolic ies
Ġtob acco
Ġgodd ess
5 7
9 3
B ox
E F
H ead
L ife
M ark
N ext
U L
X X
f ront
j a
l ock
o ise
o oms
p se
Ġt att
Ġt ones
Ġt ube
Ġa we
Ġs alsa
Ġw ard
er ia
Ġc udd
Ġb ats
Ġb uddy
or ient
Ġm im
Ġd rain
Ġd ump
Ġd airy
Ġh orm
al ine
Ġl id
ic ians
Ġg rief
ĠT rain
Ġhe ights
Ġst ake
Ġwh isk
ĠM A
ĠM ajor
ĠC ro
ĠC DC
ĠH oo
ĠB ell
Ġme lt
ĠP ast
Ġex h
Ġwor ms
Ġv oters
Ġk it
ab led
ĠD ue
ĠD uke
ĠF act
Ġli p
ak am
ĠR and
ĠE p
ry lic
Ġte aches
ep ing
ĠĊ ĠĠĠĠ
Ġcl ut
Ġus age
ass ium
act ive
au g
Ġsc enery
Ġbl ast
ne ll
Ġcont ributed
Ġag encies
Ġpre v
Ġwhere ver
Ġcol our
ĠV ers
Ġtra gic
Ġgood ness
Ġ4 2
Ġaw a
Ġfound er
ĠUn like
Ġsy ll
Ġhand ling
Ġins ul
Ġnight mare
Ġev al
less ness
Ġposs ibilities
ĠDe velop
Ġsal ary
port s
Ġbed s
Ġbed time
ann els
ĠEx per
Ġelse where
Ġenc ounters
Ġperform ances
Ġexpect ing
Ġcut s
Ġgovern or
Ġcelebr ity
Ġphot ograph
Ġinsp iring
Ġabs olute
Ġhost ile
Ġattract ive
Ġaccept s
reg ular
Ġexplore s
Ġrad ius
Ã© mon
ĠAust in
Ġter rain
Ġdisplay ed
Ġrelax ed
Ġcred ited
Ġteen agers
fact ion
uk a
ĠCle an
Ġmic row
Ġastron omers
Ġreact ion
!! !
ĠRock y
Ġver te
ĠFrank lin
Ġsequ el
ĠBur ger
Ġmer ch
count ry
ĠBet ween
ĠPlan et
writ ing
Ġfrost ing
ĠElect ric
ĠDev il
ĠDut ch
Ġthorough ly
Ġtac os
Ġpromot ional
Ġsurviv ors
ĠMicro soft
ĠPok Ã©mon
Ġindo ors
Ġomin ous
5 4
A nt
B O
C ong
D ay
E C
G eor
H arry
L ittle
M ichael
N P
S ec
Y ear
b ra
b read
d ig
f rame
g ement
m od
p ig
t an
Ġt ill
Ġa ims
re ction
Ġs aves
Ġc able
Ġb ust
Ġb achelor
on ing
Ġm ature
Ġp ound
an o
ed In
Ġh ilar
Ġl ob
ĠI ron
et ing
id y
id st
Ġst umbled
am ation
se en
im b
ĠS i
ĠS ho
ĠA h
ĠM and
ĠC ooper
ĠThe atre
Ġwe ars
ĠH a
ĠH ard
ĠB ag
Ġsh ades
ul ously
est ial
ĠW rit
ant ed
ĠP C
ĠP ic
ĠP ers
ĠP rom
Ġch in
Ġch ances
ort ed
ĠD or
ĠD ie
ĠD ick
ĠD ennis
nt il
ĠF u
ĠF est
Ġpro secut
ĠG ay
ĠG un
ĠR P
ĠR os
ĠE ddie
ĠE instein
ĠL iving
Ġint egers
ĠN on
ĠN ote
Ġkn ee
ĠTh us
cl ed
Ġman aging
Ġpo se
ĠY anke
ĠU RL
hat tan
ap or
ap ore
Ġcomp ost
ĠSt yle
ĠSt raw
Ġbl ocks
Ġspe lling
ount ered
ĠCh ange
ĠCh annel
ĠV iet
Ġart work
Ġart icles
oth s
Ġ5 6
Ġrel atives
Ġcar n
Ġac ne
cri ption
Ġent reprene
Ġpar as
Ġexpl ored
Ġdifferent ly
co very
Ġreg ulations
Ġhead phones
ho pper
Ġmight y
ov al
Ġpost ing
Ġsw ear
Ġho ver
Ġsign ature
ĠSh ould
att ed
ĠAd v
ĠDe ep
ush i
ertain ly
Ġbul k
Ġtre m
Ġtre as
sh ire
ĠBr idge
zz le
Ġdream ed
Ġball oon
ĠHer itage
Ġbas ically
Ġequ ally
Ġequ ival
Ġsix th
Ġobject ive
Ġant iox
ĠNe ed
ĠRo ber
oura ge
Ġobs c
Ġindust ries
arc iss
Ġdeterm ination
Ġtrack ing
roll er
Ġsou ls
Ġmid night
Ġparticip ating
Ġbelong s
Ġbelong ed
Bl ack
Ġstret ched
Ġdiscover ies
ĠPol ice
Ġstraw berry
Not hing
ĠFe el
ĠJew s
Ġdistract ed
Ġlift ed
Ġinstr uments
Ġjack et
Ġtrig ger
Ġdigest ive
ĠSing apore
ĠBus iness
Ġracco on
Ġmonarch y
Ġperman ent
Ġintellect ual
Ġaccomp an
Ġbatt les
Ġcasser ole
Ġunnecess ary
Ġrespir atory
ĠHT ML
Ġsod ium
Ġantiox id
5 9
6 1
C all
M O
M S
P ython
R o
S ize
S orry
T X
U N
` .
a fter
a ffe
b ling
c ific
d ict
h alf
k m
k ish
l ar
l ower
m ate
o vers
s ocket
Ġ Ã
Ŀ ¤
er k
er ie
at us
Ġc act
Ġc ub
Ġc akes
it ize
Ġf etch
Ġb its
Ġb ump
Ġp d
Ġp enc
Ġto e
Ġd rew
Ġd iced
Ġh ier
Ġl ens
Ġth irsty
om on
le ting
et ah
Ġst are
Ġst ove
Ġst adium
ĠS ide
ĠS alt
ĠM D
ĠM ale
ĠM aple
ol ving
ĠH R
ĠB oo
ĠB esides
Ġsh ines
Ġsh ining
Ġsh allow
Ġne ural
th ird
ĠP ract
op es
Ġpl um
ĠD i
ĠD iana
ĠF al
ĠR ef
ĠE ventually
Ġsu icide
ge nds
Ġle ap
ĠN akam
iv ia
Ġcl own
ĠO klahoma
cl ing
act ic
Ġman e
Ġman s
ich ain
Ġun for
Ġsa usage
ĠSt ream
Ġfl ights
cc oli
Ġbr ace
Ġbr ushing
Ġsm iles
ens ation
Ġwhere as
ĠV it
Ġser v
ave nder
Ġsomet ime
Ġacc ent
Ġind igenous
Ġhapp ier
Ġform ing
Ġgu ilt
ram a
ĠBe an
Th ose
Ġdet er
Ġpop corn
ex port
Ġdr one
Ġref uge
Ġcent re
Ġdist ur
Ġdist ributed
Ġfunction al
Ġ9 5
ĠLe af
ĠBr ing
Ġtem ples
Ġseem ingly
Ġview ed
ĠPro ject
ĠPro gram
Ġhands ome
head ed
Ġcomfort ing
Ġamong st
Ġcelebr ating
ðŁ ı
Ġkid ney
Ġprote ins
ĠEd win
Ġ196 5
ĠX box
Ġgar bage
Ġpresident ial
Ġmis chie
Ġimmedi ate
Ġattack ed
amb ur
Ġconsist ing
ES S
Ġengine ers
ht ml
Ġtarget ed
ĠLa ure
Ġlog o
Ġcraft s
Ġblank ets
ipp ers
Su ggest
Ġloud ly
Ġded ication
Ġuns ure
Ġspin ning
Ġaward ed
Ġscream ing
Ġthri lling
ĠBro ad
Ġexec ut
Ġfol k
Ġeffic iency
Ġskill ed
Ġvirt ually
Ġseg reg
Ġren owned
Ġgreet ed
Ġallerg ies
Ġrank ed
Ġstro ke
Ġadminist ration
Ġparam eter
Ġtiss ue
Ġexhib its
Ġhes it
ĠHarr is
Ġeru pt
ĠTechn ology
Ġassum ed
Ġdent ist
Ġdepos its
ĠFriend s
Ġdisappear ance
ograp her
Ġelimin ate
gi ene
Ġinnoc ent
ĠSwed ish
ĠFur ther
ĠIndepend ence
ĠNat alia
Ġneut ral
Ġsubur ban
Ġsoph istic
Ġvul ner
Ġpitc her
islav ski
Geor ge
( [
) }
B et
D R
F ood
L ast
L ook
L ooking
N arr
P aul
V al
Y eah
c at
c ursor
d ar
d ays
f ive
i pt
l aw
m ath
r as
r ot
w hen
y ers
Ġt ubes
Ġw ound
Ġw ires
at i
Ġf og
Ġb anned
Ġm all
Ġd ict
al a
as er
Ġth umb
le ans
et itive
st eps
Ġre vel
ĠT a
Ġhe ated
Ġst rand
am iliar
im m
ad ian
ĠS ay
ĠA qu
ĠM osc
ĠC am
ĠB ern
ĠB BC
ag les
ĠP an
ĠP age
Ġat omic
Ġse lls
ight ing
Ġcon sec
Ġwor s
ĠF airy
ĠR h
ĠL ess
ĠL ooking
Ġint end
oc ur
ĠN a
ĠN ic
ĠN HL
ĠO ak
ĠO per
ous es
od ed
Ġad equ
ue bl
Ġman if
ĠU lt
ĠK iss
Ġpe aks
Ġun p
Ġun pre
Ġcomp leting
Ġwork sh
ne xt
Ġdis ag
Ġdis cipl
Ġover th
Ġres erv
ph ia
ell er
Ġdes cent
ens ed
Ġchar ging
Ġinc on
Ġfound ation
Ġtri angle
Ġmin es
Ġext ension
me al
Ġpres erve
ho le
ĠSe uss
Ġhealth care
ĊĊ ĠĊ
Ġpur suit
ĠAn ne
Ġdevelop s
Ġdri ven
ask et
Ġcomplet ion
Ġopp osing
Ġdesign er
par agus
Ġcost umes
zz y
Ġenc ountered
ĠOr leans
Ġz ones
Ġhy brid
Ġspend s
Ġcamp s
urs ive
Ġmod ules
mb re
cul es
Ġri pe
ĠCar l
Ġrepl acement
Ġinf rastructure
Ġgrad uation
Ġdiv ine
Ġdifficult ies
Ġobs essed
ĠAm ory
Ġtour s
Ġpull ing
Ġhol idays
Ġstreng then
Ġattract ed
Ġ197 7
ĠEd ison
ĠEm ma
Ġcatch y
Ġdam aged
Ġcorn ers
Ġreve als
Sh are
Ġaffect s
Ġstuff ed
pro fit
Ġtail or
Ġcro cod
Ġviol ent
sec urity
Ġpossess ion
Ġcitiz en
ĠAg ency
Ġfif teen
Ġsuff er
Ġrab bits
Ġbow ling
Ġrat io
Pro vide
Ġhyd rogen
Ġvent ure
Ġlas er
Ġbon us
Ġconven ience
ih u
Ġcontro lling
Ġterr ifying
aret te
Ġoptim istic
Ġfreel ance
ĠMem orial
ĠLoc ated
Ġlux ury
amer on
Ġexpans ion
Ġcorrespond ing
Gener ate
aval ry
ĠMach ine
ĠAAB B
mind ed
ĠBB Q
Ing redients
ĠFest ival
ĠViet nam
ĠMosc ow
! )
0 2
8 1
8 8
A bsolutely
B re
B ack
B aby
E at
E lement
H D
O V
O ften
R et
U M
g rossing
h an
h all
i ang
l ow
m us
m ph
p ical
p owered
r ations
s ur
v ar
v ate
v als
Ġw arr
Ġc ows
it he
Ġb il
ar se
Ġin k
Ġin ex
Ġh id
Ġh ug
om es
Ġg oose
et he
st ring
ĠT ogether
ly ph
Ġhe n
Ġfor b
Ġst ains
ig i
ĠA ND
Ġas h
ĠC ock
ra ine
ĠH omer
ĠB or
Ġsh ocked
ĠW in
ĠW ils
ĠP R
ĠP om
ĠP ass
Ġch annels
Ġr anging
ess im
el ong
em an
em aker
op t
ab ama
Ġpl asma
and ra
ĠG il
ĠG ael
red ict
Ġher d
ĠR ight
ĠE le
Ġout fit
ment ation
Ġshe ep
Ġshe lls
od s
ass es
Ġco verage
ĠK aren
Ġcomp r
Ġcomp assion
Ġbl ade
Ġnew est
Ġnew found
Ġover look
cc a
Ġoff set
Ġtw elve
ru ption
Ġper ception
Ġbr ide
Ġback ward
ob s
ĠV iolet
Ġact ively
Ġmay or
Ġrem inis
Ġ5 4
iss ed
iss ance
Ġcons erv
Ġcar p
Ġcar bo
Ġcar rier
Ġent ers
Ġent itled
In s
erm s
ĠAl i
Ġsure ly
Ġfin ances
Ġgl imp
pr ice
Ġca ut
Ġtext s
ĠAnd rew
Ġmed ication
Ġmem o
Ġpos itions
ret t
Ġfree ze
ĠAd am
ĠWh it
Ġed iting
Ġpot s
Ġtravel er
Ġactiv ist
cent er
Ġeng ines
ĠPr ime
Ġcheck s
Ch arl
Ġprint s
Ġdest ro
Ġcool er
ĠAm ong
ĠChrist opher
Ġaccess ories
Ġcrit ics
Ġbur ger
Ġpull s
Ġcard io
ĠSm art
Ġaccept ance
Ġsens ation
ĠMc G
ĠEd gar
Ġcompan ions
Ġcompet e
ĠNorth west
Ġvari ables
Ġfat al
Ġinput s
Ġglob e
ĠGet ting
amb oo
Ġdecor ative
Ġur gent
Ġremind ed
Ġju icy
Ġreflect s
Ġflow ing
ĠIm port
ĠLouis iana
ĠJul ie
Ġhabit ats
ĠMart ian
Ġdisappoint ment
Ġspaces hip
Ġconv icted
Ġske leton
Ġcryst als
Ġswitch ing
Ġobvious ly
ĠDra gon
Ġparam eters
ĠPict ures
ĠWal mart
Ġrac ial
ĠDemocr atic
itut ional
Ġmuff ins
Ġcaptiv ating
ĠGlob al
ĠPant hers
ĠRepresent atives
Ġsatell ite
ĠLaunch Pass
Ġwhims ical
Ġglimp se
0 33
5 3
A Y
B oth
I P
M om
S ty
W as
W elcome
f elt
h al
h igh
h rig
j ud
l oop
m aker
n oun
p a
t ains
Ġa in
Ġa est
he ll
Ġs orrow
nd a
it ness
it ational
Ġf ires
Ġf ighter
or i
Ġm aid
Ġp aw
Ġp apers
Ġp ipes
Ġp iano
Ġd angers
Ġh ose
Ġh ills
Ġl ava
Ġth igh
Ġg al
st icks
ent ials
ot ect
ly n
id ency
Ġst a
Ġst em
Ġst ations
Ġst ems
am as
se a
ro ps
ur a
ver ages
ĠS ad
ĠA ud
ct ory
Ġwh ipped
ĠM u
ĠM ath
ĠC ath
ĠB ul
ĠB ear
ĠB unny
Ġsh ru
Ġsh ots
ul i
Ġne ur
ĠW il
Ġme re
ĠP in
Ġcan ine
ess age
ain ing
Ġdo zens
em ploy
Ġv ice
Ġpl acing
ĠD V
Ġli ber
gh an
ud s
ak in
Ġj et
ĠE U
ĠE c
ĠL ewis
ĠN ut
Ġmo zzarella
ĠJ eremy
ment ed
iz ards
Ġqu ar
ĠK a
Ġcomp onents
Ġtr act
Ġsc are
Ġdis plays
Ġnew er
hed dar
Ġbet ray
gg ing
Ġtra ve
be y
Ġsl ang
Ġsl ower
Ġrel ate
Ġcar amel
Ġpar alle
Ġsec ured
Ġhand ful
Ġgl ac
Ġgl itter
Ġph osph
Ġvis a
Ġpass engers
Ġclass ification
amp s
Ġlast ing
Ġlast ed
oun ge
ĠSp ice
Ġref lection
Ġleft over
Ġdevelop ers
Ġdi ets
Ġdri ll
com b
com es
ĠMay or
Ġsuggest ion
ĠAt hens
Ġtravel ers
20 19
Ġimportant ly
con f
Ġcal ming
Ġcal cium
Ġsupport s
Ġsupport ive
Ġcolor ing
Ġprocess ed
Ġcountry side
Ch ocolate
Ġann iversary
ĠDon ald
Ġfresh water
Ġgrad es
Ġcir cles
Ġfem in
ĠMan hattan
Ġconnect ing
Ġhost ed
Ġesc aped
Ġ198 9
Ġdiscuss ion
Ġmagic ian
ĠEm ploy
Ġcompet itors
Ġpurch asing
Ġsus pected
ĠSw iss
Ġreve aling
Ġclaim ing
Ġple ased
icy cle
Ġmis er
Ġdecl ined
Ġmel ting
Ġconsist ently
pro of
Ġcrowd s
Ġir re
ĠSec urity
Ġsymbol s
Ġscen ic
Ġstret ching
Ġnetwork s
Ġcere al
Ġden ied
Ġpros per
ĠSpr inger
Ġthrill ed
Ġphotos ynt
ĠSat oshi
Ġjud gment
Ġpill ow
Ġgod s
ĠHam ilton
ĠÂ ·
Ġsatisf ied
Ġprec ision
Ġunl ock
Ġrepeated ly
Ġsubscri bers
ĠPhil adel
Ġrespective ly
ĠOw l
++ )
oust on
ĠIr ish
ĠSqu are
Ġsan ctuary
Ġobserv ations
Ġalgorith m
Ġmole cules
Ġguarant ee
Ġliz ards
hh s
Ġcel estial
Ġdynam ic
Ġconscious ness
ĠWord Press
Ġrefriger ator
onel iness
Ġbrid ges
ĠLGBT Q
separ ated
Ŀ¤ ï¸ı
ihu ah
ĠWils on
ĠPhiladel phia
: ",
A C
B rief
H y
H appy
I d
K ing
K ey
O B
Q ueen
R ef
S L
S y
U T
b et
c akes
d is
d ep
d eg
f ried
j amin
j ection
l n
l ad
m n
m aster
o at
o ard
p it
v ous
v oid
v sky
w ers
w atch
w estern
Ġ icy
Ġa qu
in it
in come
re ne
Ġo me
Ġw anna
Ġc ic
ou ver
it als
Ġf av
Ġf ade
Ġb om
Ġp oo
Ġp essim
Ġd ug
Ġd rought
Ġh ay
al ache
om fort
Ġg um
Ġg inger
Ġg iants
Ġre un
Ġre ass
Ġre form
id el
Ġst iff
Ġu gly
ĠS on
ĠS yl
ĠS ugar
ĠA ctor
ĠM oss
ĠM ai
ĠC old
ch ron
ra pe
ill ed
ĠB ang
ĠB uff
Ġsh ipping
ĠW ong
ĠW right
un ky
ĠP ack
ĠP ink
ĠP itt
ĠP arm
ĠP sych
Ġse als
Ġcan s
Ġr hin
ĠD ungeons
Ġpro port
Ġde ploy
Ġso y
red it
Ġher itage
ĠR ay
ĠR io
ĠL enn
ĠL unar
ĠL una
ĠN ature
ĠN els
iz a
Ġad orable
act ions
ci a
Ġsp ice
ĠU N
Ġpe oples
Ġcomp os
ĠSt ir
Ġsc ales
Ġsc oring
ne ver
Ġover view
Ġpr ince
Ġgr ants
Ġlist ing
ub in
Ġ19 30
Ġpre ferences
Ġimp ression
rit ch
ĠV anc
ĠV iew
Ġrec overed
Ġcomm em
Ġwater ing
Ġac rylic
ĠWe ather
ins pired
Ġins ights
Ġrep ur
Ġap ocaly
Ġcur iosity
Ġpoint ing
Ġext inct
Ġpop ulations
az i
ov ies
Ġmil est
Ġdel iber
ĠAn th
Ġdisc omfort
ĠMar co
ĠMay o
ĠDe an
Ġsal ty
ĠBl ood
con y
Ġdep ict
Ġrock ets
ĠEx press
Ġpick s
Ġreport ing
Ch apter
Ġstrong est
Ġbas ics
Ġbox ing
Ġcomb ines
tain ment
Ġsand y
Ġprotect ive
Ġconvers ational
ĠNe v
ĠCon f
val id
ĠPh oto
Ġcrit eria
Ġfail s
Ġ198 5
ĠCo le
ĠEn s
Ġarg uing
ograph ical
Ġimpact s
Ġtele phone
Ġcoll apsed
Ġstream s
Ġpig e
Ġannoun cing
Ġinvent ory
Ġast on
Ġvi be
200 1
Ġassoci ate
Ġappreci ated
Ġinteract ive
Ġgain ing
amin i
Ġmeaning ful
Ġble w
Ġflo ors
Ġbud s
Ġfrequ ency
Ġlink s
ĠPat rick
Ġshel ves
Ġowners hip
Ġdiscover ing
ĠStud io
ĠSim ply
Ġpir ates
Ġprem ise
Ġprinci ple
ĠAp alache
Ġdelight ful
ĠTra vel
Ġfox es
win ning
Ġinspir ational
Ġodd s
Ġhyp ot
Ġelev ator
Ġow ls
Ġunivers ity
Ġgreet ing
Ġshark s
ĠAD HD
writ er
Ġhoriz ont
Ġsubm it
ĠGirl s
ĠDire ctor
Ġcheer ful
Ġtut or
Ġuncle ar
ĠSol omon
Ġwhis pered
ĠKat ie
Ġanth rop
Col or
Ġfasc inating
Ġconver ted
Ġobl ig
ĠSiber ia
Ġje ans
Ġagricult ural
Ġcowork ers
ĠMichel le
ĠHoll and
Ġdepart ure
Ġexped ition
Ġrept iles
Ġstere oty
ĠSaf ety
Ġsimultane ously
Ġsturd y
ĠUni verse
Ġinsul in
ĠDie go
ĠVanc ouver
( (
G e
G reat
J ames
O p
P ut
S er
S um
S un
S antis
S cientists
V P
e at
f iction
g roup
i el
j son
l on
p hew
s ight
s qu
Ċ ĊĠĠĠĠĠĠĠĠĠĠĠĠĠĠĠ
Ġs ushi
Ġc oop
it utes
Ġm int
Ġm ashed
Ġm ermaid
Ġp ies
ar o
Ġh ack
Ġh ood
al so
Ġl ime
Ġth y
Ġn it
Ġbe ats
ĠT en
ĠT able
ĠT zu
ay a
id get
am ine
se ason
ur l
ver ty
il o
il ant
ĠC ry
ĠH erm
ĠH ouston
ĠB CE
Ġsh ifting
est on
Ġne phew
ag ged
Ġor bits
ĠP ra
Ġr icotta
ess es
Ġcon ce
Ġal right
all as
ĠD C
ĠD ays
ĠF ine
ud ge
ĠG ri
ĠG ord
ĠG iants
ĠR en
ĠR ice
ĠR achel
Ġj avascript
ĠE at
Ġ( )
ĠL abor
oc yan
Ġall ies
fe ld
ĠO N
ĠO d
ĠTh ai
cl amation
Ġpo verty
Ġsp iders
au nd
ĠHe ll
Ġsa fer
Ġsc ents
Ġspe lls
int erest
Ġres idence
ph ant
ang led
Ġbr ow
ĠCh ap
Ġfo ster
Ġunder t
ost er
Ġra ining
Ġche aper
Ġsl im
Ġret rieve
Ġset up
Ġmon k
ĠAl abama
Ġgl ucose
Ġap ology
Ġcur ves
Ġbre wing
Ġass ume
ĠCan adian
Ġsw allow
Ġ18 00
Ġho llow
Ġ202 4
Ġair lines
Ġprom ised
ĠAr gent
ĠAr ctic
gr ad
ĠEng ine
Ġrock y
ĠSc ar
rol og
Ġ199 4
Ġkey board
On ly
Ġlim its
ĠTr acy
Ġste am
Ġpositive ly
Ġseason al
Ġintrodu cing
Ġweight s
Ġant ib
ĠNe g
Ġcool ing
Ġclos et
Ġsil ica
Ġtou ches
umm ies
ĠMan agement
Ġ198 2
Ġlif elong
Ġcard board
Ġaccept ing
Ġsens ory
ĠGu ide
Ġimag in
Ġhon ored
Ġ196 8
Ġdiet ary
Ġhop ed
Ġbi ological
Ġthreat s
ĠOver all
Ġstorm s
Ġfac ilities
Ġroll er
Ġcrowd ed
Ġmill enn
tr ans
Ġpal m
Ġforg ive
ĠIm per
Ġstret ches
Ġbill ions
ĠRepublic ans
Ġ195 9
Ġnarr ator
alax ies
ĠBel ow
Ġsam ples
Ġcampaign s
ĠInc re
ĠKn ock
Ġsusp icious
Ġnom ination
Ġnom inated
quar ters
Ġrestrict ions
Ġhaun ting
Ġsch olar
Ġmush room
Ġflash light
ĠMod ern
Ġlegend ary
Ġutil ize
Ġtoss ed
Ġconvin cing
ĠGerald ine
ĠChat bot
Ġpanc akes
ĠJour nal
Ġimpe achment
rat ulations
ĠEar ly
Ġmurd ered
ĠMarg aret
Ġwhist le
Ġshred ded
Ġpupp ies
Ġther m
Ġvamp ire
ĠPand as
Ġcogn itive
Ġmetap hor
Ġincon ven
Sty le
6 4
9 1
A h
B ill
B ook
K n
M ag
O S
S H
S on
S al
a ire
d it
n ames
p ine
p ush
u ously
v ised
y ere
Ġt in
Ġt ales
in ers
Ġs ings
Ġw ax
Ġc rop
Ġc uc
it uri
Ġf ib
Ġf ram
Ġb ubble
Ġb amboo
or p
Ġto mb
ar on
Ġd aughters
Ġh ambur
Ġl ush
ll y
Ġn a
Ġg alaxies
st al
ent ive
ĠT own
ĠT erry
id o
Ġst alk
ig ious
ir ubin
ur rection
ĠA my
ĠA urora
ct ica
Ġwh it
ĠM ust
ĠC ore
ĠThe od
ĠH ills
Ġsh aking
Ġsh uff
ĠW on
ĠP uebl
Ġse al
Ġcan yon
Ġr anges
Ġex it
Ġex claimed
Ġcon gr
ure au
op ic
Ġk icked
ĠD an
ĠD ion
ĠD ew
ĠD ituri
Ġpro ven
Ġpro ved
ĠG host
ĠR am
ide o
Ġj umps
ĠE nt
ĠE ss
Ġsu p
ĠL es
ĠL ab
ĠL ine
ĠL inda
oc ated
ĠJ em
pl ate
Ġcl ue
ĠO wn
Ġkn ight
Ġkn ocked
reat ed
act ed
Ġsp a
Ġsp aghetti
og lyph
ĠK night
ĠSt ring
Ġsc ope
ĠIn s
Ġfl ames
Ġfl esh
Ġover head
ink s
Ġres on
ell ar
ren cies
get table
Ġatt ach
Ġend e
Ġperson ally
Ġcr ashing
Ġstr ay
ced ented
Ġinst ruction
Ġcur ve
ott o
uck le
fl ower
Ġsw ift
Ġsound track
Ġaut obi
Ġval ley
Ġdist ribution
com ed
Ġed ible
ĠFor ce
Ġleg ally
Ġbed ding
Ġexc use
Ġdef ault
ann ock
Ġdetail ing
Ġconst itution
Ġinvest ing
Ġinvest ments
Ġpri est
ony ms
ĠInd ust
sc ale
Ġsqu ash
Ġsqu ares
Ġdest iny
Ġprotect s
Ġvers atile
Ġrepl acing
Ġstri ps
Ġcast ing
Ġbright ly
ĠJust ice
Ġcrit ically
ĠMan ager
ĠChar acter
Ġ198 3
Ġ198 4
Al ice
ĠGr ace
Ġpurch ases
Ġspread ing
Ġcam el
Ġrequest ing
Ġstrength s
Ġvac c
pos ition
Ġtrou bles
Ġru ined
Ġloss es
Ġimm ers
Ġbi ology
ĠMin ister
Ġstick y
Ġarr ang
Ġcred its
Ġbra ins
Ġcirc ular
Ġdocument ary
Ġfac ial
Ġrespond ing
Ġtrust ed
obb ling
Ġcow boy
Ġtim eline
Ġwel coming
ĠJul iet
Ġremote ly
Ġgradu ating
Or ange
AM E
ĠTH IS
Ġdetect ed
Ġduck s
Ġautom atically
Ġenthusi asm
Ġaim ing
Ġbow ls
Ġmeteor oids
Ġcomplain t
ĠMo vie
Ġtransform ed
Ġaster oids
Ġloyal ty
Ġallerg ic
Ġdistinct ive
ĠDef ine
umin um
ĠKore a
ĠBudd y
Ġpra ise
Ġlegisl ation
Ġannoy ing
Ġcart oon
ĠMont ana
Ġrelie ve
ĠDemocr ats
Ġtablesp oon
Ġreject ed
Ġstab il
Ġnick named
ĠAntar ctica
ĠJenn ifer
Ġlou der
ĠSoph ie
pres so
Ġintric ate
avir us
Ġamuse ment
Ġcact us
Ġconsec utive
ĠGael ic
ĠLenn on
ĠNev ada
Ġcongr at
) );
8 6
9 2
A ng
C ount
F ire
H ist
H ost
M C
M at
P art
S at
U R
a ac
b a
b ly
e z
e enth
f o
g ans
g ress
g raph
h k
h r
h is
l ie
l ib
m at
o ch
r ower
s un
v o
w arming
Ġ ]
Ġt v
in c
Ġthe ories
nd ing
Ġc sv
Ġc aterpillar
Ġc avalry
or gan
Ġm ant
Ġm asc
Ġp est
Ġp ipe
Ġin aug
Ġl oos
Ġth reshold
ic he
ic ient
Ġn ort
Ġg ate
Ġg el
Ġe cc
Ġe co
st y
ent ric
Ġbe ings
ĠT ilian
ot in
ur ation
ĠS leep
ĠS elf
ĠA round
ĠA BC
il ogy
ĠM iles
ĠM uch
ĠM NP
ĠC indy
ch i
ri et
Ġwe ld
Ġwe eds
ĠB L
ĠB Y
ĠB acon
Ġsh ips
ul us
Ġor ch
ĠP A
ĠP en
ĠP ull
Ġch ains
us k
Ġse iz
Ġse ctor
Ġr ou
Ġ1 20
Ġwor ries
Ġv oting
ĠD O
ĠD ifferent
ĠF BI
art en
os itive
ust y
ĠR a
ĠR u
ĠE nergy
ĠL i
ĠL ie
oc al
oc key
Ġwhe at
Ġwhe els
Ġout come
ook ed
ĠTh om
Ġen able
Ġad s
Ġsp o
Ġsp ooky
Ġar ise
ĠK ate
Ġro de
Ġun its
ĠSt op
Ġsc reens
ark s
Ġany body
Ġoff ense
Ġ3 4
Ġag ents
hed ral
Ġbr ut
Ġ19 20
Ġ19 39
Ġafter ward
Ġrem oval
aw a
Ġsk etch
Ġdec ent
Ġac uity
Ġmon it
Ġshow c
Ġgl ance
Ġrest ing
Ġlo aded
Ġsupp lement
Ġbo ats
Ġbo iling
Ġdet ection
Ġhead line
fl owers
Ġspec ified
Ġsun rise
Ġdel ayed
Ġsol itary
Ġpol ish
rain storm
ĠDe Santis
Ġbeh alf
ane ous
Ġprot ocol
Ġcal f
els ius
Ġconf ront
Ġdef ensive
erc ise
Ġi i
ĠSo ft
Ġrele ases
Ġrece ption
Ch ild
Ġemploy er
ĠCar ter
ĠEl on
Ġfoot steps
Ġsea food
Ġcelebr ations
Ġphot ography
ĠPh ot
Ġbal anced
Ġens uring
Ġcompet ing
Ġ196 4
Ġsus pend
Ġtask ed
ĠRes erve
Ġpan els
Ġdry ing
Ġadventure r
ĠDes ign
asp berry
Ġfarm ing
Ġfarm ers
Ġassoci ation
Ġimm une
Ġchem istry
Ġcross ing
Ġaddress ed
Ġvir al
Ġbehav iors
sp is
ĠStar bucks
Ġbelong ings
Âł Ċ
Ġlaunch ing
ipp i
ĠVal ue
Ġtow el
Ġmotiv ational
ugg ed
Ar ray
Ġpsych ology
Ġign ored
Ġqual ified
Ġprior ity
Ġscream s
Ġcrack ed
Ġcrack ers
Ġtal ents
ĠJeff rey
Ġsuperhero es
Ġoccup ation
ĠInc orpor
Tr ans
Ġment ally
ĠYear s
Ġpy game
Ġaccur ately
Ġexcess ive
Ph one
ĠCur rent
Ġinfect ed
ĠTur kish
Ġ> =
ĠDa ily
roduct ive
Ġrenew able
Ġecos ystem
Rem ember
ĠAx iom
Ġclin ical
Ġcollabor ation
ĠGuard ians
Ġconvin ced
Ġdur ation
Ġportray ed
worth y
lam ath
ĠFil m
Ġsug ars
Ġinher it
Ġstun ned
ĠRog er
ĠWonder land
ĠMult ichain
Ġsuspense ful
ĠCoun cil
ĠFlash light
ĠFR B
ĠPortug al
ĠNels on
Ġcommem or
ĠAnth ony
. âĢĻ
6 9
7 2
; ">
C ur
C ertainly
D eb
H en
H ot
K E
L ear
M al
P T
P er
R el
S P
S et
W ow
c p
d ist
d ge
f our
r ant
t w
t ree
t otal
Ġt eddy
at able
it u
it ia
Ġf ount
Ġb ou
ing e
Ġp ist
Ġp ans
ar ot
ar oni
Ġd are
Ġd ungeon
Ġh ated
Ġl antern
Ġg asp
ow el
st alk
ĠT oo
ĠT ab
ĠĠ ĠĊ
Ġhe ir
se mble
im ation
ro ot
ig ue
ur istic
ĠM a
ĠM ine
ĠM ix
ĠM ush
ĠC ape
ra v
ill ery
ol ine
um bers
ĠH ong
ĠB ush
ĠB obby
est ly
pe ction
pe lled
ist a
ĠP ain
Ġch ap
Ġr aced
Ġv ague
Ġk g
ĠD am
ĠD im
ĠD ur
ĠF ruit
Ġpro l
ĠL ay
ĠL iber
oc ation
oc ity
ĠN orse
Ġout s
Ġfe ast
pl an
pl ant
Ġkn itting
od d
ĠU ber
ĠK ane
ĠâĢ ¦
ip olar
Ġsc am
Ġsc rub
Ġbl ooms
Ġdis rupt
ĠIn formation
Ġbr aces
Ġdes ires
Ġ19 45
ĠCh iang
be an
Ġhome less
iss ippi
Ġsl ip
Ġacc um
Ġcar pet
Ġsk ies
Ġhum id
Ġinc orrect
Ġcr ick
Ġcr umb
ram s
Ġhand y
Ġins pection
Ġear ning
Ġmin ister
Ġrep airs
Ġexper iments
Ġsent iment
Ġvis ually
ĠBe gin
Ġmus cular
Ġpass ive
Ġbo ot
Ġfil ters
Ġmain land
Ġsw ords
Ġwrit es
Ġel ves
Ġcent ered
Ġsol ace
Ġland er
Ġhard est
the y
Ġheart felt
Ġcontin ent
ĠDe pending
Ġpat ent
ĠPl at
con nect
Ġmar athon
Ġwin ners
Ġsuper ior
ĠZ eal
Ġdef ines
Ġtechn ologies
ĠCl ark
Ġgra ve
Ġwar ned
Ch rist
Ġdin er
Ġsweet ness
ĠSu ch
Ġavail ability
Ġfoot age
Ġrepl ies
ĠRo om
Ġredu ces
book s
ðŁ Į
Ġobs er
Ġrecommend ation
kn ife
Ġ197 1
Ġ197 2
ĠMc Donald
Ġlower case
Ġbrown ies
Ġru ins
ino is
At t
owd ered
Ġcross ed
Ġcalcul ated
Ġut ter
Ġlaugh s
obb ie
ĠHar bor
cend ing
Ġtransport ed
Ġpossess ions
Ġwit ches
Ġ| |
ĠCont in
Ġign oring
Ġautom ated
Im age
Ġexpand ing
Ġscr atching
met ic
Ġaccompl ished
Ġextend ing
Ġgun s
Ġcomplain ing
Ġsac red
ĠMiss ou
Ġathlet e
Ġgall o
Ġstro kes
Ġsubscri ption
ĠStan islavski
Ġdecre ase
ĠTur key
Ġguid elines
Ġpump kin
Ġbuzz ing
Ġjoint s
Ġdrag ons
Ġdesper ately
ĠAut hor
Ġsug ary
Ġisol ation
ĠEnter tainment
ĠBuddh ist
ĠBeaut y
Ġchant ing
ĠPy ramid
Ġaffirm ations
Ġdomest icated
ĠProv ince
Whe ther
Ġsubstant ial
Ġdatab ase
Pol ice
Ġtrem end
Narr ator
Ġadequ ate
Ġunpre cedented
Ġreserv oir
deg ree
Ġaqu atic
Ġcic adas
Ġecc entric
. ]
? !
B G
B S
C ateg
E X
F F
J uly
L a
M ary
O ff
P A
P re
P at
S ur
T I
T V
T otal
c het
d ale
h op
l ay
m it
m ass
p ublic
s plit
t k
t itle
w oman
Ġt a
Ġa unt
Ġs ip
Ġw rest
Ġw aved
Ġc rib
Ġc rab
Ġc heddar
ou b
Ġf ist
Ġf usion
Ġf aded
or ous
Ġm ph
Ġto fu
Ġl ug
le g
ic iency
Ġn urse
ve t
ĠI M
ĠI ran
ĠI SD
st on
st ore
Ġre q
Ġre nd
Ġre ct
ĠT al
ĠT est
ĠT itan
Ġst ance
Ġst ub
am ount
im ir
Ġu mbre
ig hed
ĠS ci
ĠS ource
ĠA le
ĠA ld
ĠM oo
ĠM aur
ĠM ovies
ĠC H
ĠC SV
ĠC elsius
ĠThe ory
ra it
ra ham
ri ent
ill as
ĠH ans
ĠH iro
Ġsh aman
pe y
Ġab use
Ġab rupt
Ġab oard
th ree
ĠP arent
ĠP hys
ĠP enny
Ġch im
Ġse vent
Ġse mes
Ġdo lls
qu et
Ġv om
op ia
ĠD u
ĠF un
ĠF air
ĠF arm
ust le
ĠG rill
ĠG iven
ak a
ĠR oss
ĠR yan
Ġnot ably
ĠN ash
Ġcl o
og a
ĠK az
ĠK lamath
Ġwere w
Ġun ac
Ġsc av
Ġbl urb
Ġfl ame
ph y
Ġgr im
ob ias
Ġdon ut
Ġplay w
Ġplay list
Ġimp ressed
Ġpers ons
ian ces
Ġdown load
ĠShe pherd
Ġche ating
Ġche etah
Ġcomm as
.. ."
Ġcar ries
Ġsur ge
pect ives
ific ent
Ġinst ances
ash a
Ġprov ince
Ġcur tain
Ġcur rency
Ġca red
amp oo
Ġpres idents
az el
Ġtop s
br own
Ġcare ers
fl ow
Ġmed ications
Ġsn ipp
Ġrequ iring
Ġteam mates
oun cing
Ġ8 00
Ġ7 2
ĠMar ie
Ġenjoy able
Ġfore head
Ġsal ads
Ġpast e
Ġprof itable
ĠBl ues
Ġsuper market
sh ima
Ġconf ig
Ġhope ful
Ġtechn ological
Ġgra bs
Ġspecial ist
Ġtest ed
Ch ange
Ġann ually
ĠUS B
Ġgreen house
Ġz ebra
Ġgard ens
Ġhy giene
Ġslow ing
Ġveget ation
Ġfro ze
Ġson net
Ġobs ervation
Ġbag el
Ġep id
Ġbal d
Ġexist ed
Ġ197 6
Ġ196 3
Ġprevent ion
Ġencoura ged
Ġdro pping
Ġchalleng ed
Ġfarm s
ĠSam my
Ġsight ings
Ġround ed
Ġdecor ating
Ġbank ing
Ġconsist ed
Ġarr ange
ht t
ey e
Ġir regular
ĠGener ate
Ġreflect ing
ĠMon th
Ġtherap ist
Ġdemand ed
Ġunf amiliar
Ġwel comed
Ġprop ulsion
ĠSim ilar
Ġprem ium
ĠBel g
pur pose
Ġmeasure ment
Ġresist ant
Ġdelight ed
ĠSl ow
riz otin
ĠMiss issippi
Ġ189 3
Ġimplement ing
aver ick
Ġhous ing
Ġrobot s
ĠCap ital
Ġsatisf ying
Will iam
Sc ene
bell ion
Ġdescend ing
ĠDra ke
Ġsne ak
Ġfier y
Ġalt itude
Ġconstruct ed
-------- --------
wind ow
ĠCommun ity
ï¿½ï¿½ï¿½ï¿½ ï¿½ï¿½ï¿½ï¿½
ĠLink edIn
Ġdesper ate
Ġsurprising ly
Ġexplos ion
ĠData Frame
ĠAntar ctic
Ġlung s
Ġcomed ic
cons cious
Ġnurs ery
Ġfu els
ĠBreak fast
Ġartif acts
Mic hel
ĠBase ball
Ġbor rower
Ġslog an
ĠPhilipp ines
Ġrit ual
Ġunh appy
Ġanch or
ĠCateg ory
Dav id
Ġmerg ed
Ġhilar ious
ĠYanke es
ĠNakam oto
Ins ert
Ġdestro ying
jud ice
Ġparalle l
ĠHiro shima
rizotin ib
0 1
7 7
A lex
C omm
C raft
E ng
E CT
F ull
H am
J ess
L ong
M on
M el
N ature
T ry
a que
b est
b ury
b ula
d am
d ream
e er
f il
g ue
g iving
h um
m onds
n ies
p ace
s um
u itive
u ya
â ĸ
â ľ
Ġt um
Ġt ies
Ġt ensions
he rap
in ator
Ġs her
Ġc er
Ġb icycle
is ure
es ame
Ġm ate
Ġm orn
Ġm arsh
Ġp ave
Ġto x
ed ia
Ġin hib
Ġl ing
Ġl avender
Ġl ounge
Ġy ummy
Ġn aming
Ġg am
Ġg ems
Ġg ains
Ġe ternal
st op
st age
st ruct
ac er
ac ent
ĠT L
Ġst ack
ro se
ir ation
ĠA C
ĠM AA
ĠC ad
ĠC ool
Ġwas ted
ill ance
ĠH old
ĠH ung
ĠB and
ĠB enn
ĠB ureau
Ġsh attered
Ġor cas
ĠP erry
Ġcan ce
Ġr ises
Ġdo se
Ġdo ck
qu iat
Ġk rill
ĠD ru
ĠD arc
ĠD ictionary
ĠD allas
ĠF el
ĠF rost
Ġpro se
ud es
ĠG ib
ĠR d
ĠR ail
ĠR ush
ast es
ĠE st
ĠE qu
Ġ" ^
Ġsu its
ĠL ower
ĠL enny
pt ical
ĠN BC
Ġout break
Ġout fits
ĠJ ill
Ġcl ues
Ġcl uster
ĠO bs
Ġad ul
Ġad oles
are house
are tt
Ġsp okes
ĠK ill
Ġro ast
Ġcomp ounds
Ġtr ace
Ġtr ump
Ġsc oliosis
Ġneed ing
ĠIn n
Ġres pected
Ġbr ushed
ĠCh am
Ġfo il
Ġplay ground
Ġimp rison
Ġpers pectives
Ġke en
Ġact ed
let al
Ġtra ps
Ġapp ropri
ple x
Ġ5 2
Ġcons pir
Ġent ries
In vest
Ġgu ided
lect ed
bs p
Ġhand c
Ġfin ance
ek ing
ron es
Ġcur ly
Ġcur ls
pr ing
pr ise
Ġreg ist
Ġca f
Ġbo iled
Ġgame play
Ġey el
Ġpop s
ĠSe ason
Ġsw ir
Ġsn ap
ĠSp encer
Ġsecond ary
Ġdel ays
Ġaut o
St an
Ġhard ware
Ġemail s
Ġkind erg
Ġpain ts
com pass
Ġappe nd
ĠDe b
Ġprom otes
Ġexam ine
ĠAt hen
arth y
Ġbul bs
Ġmar vel
Ġcal endar
Ġsuper st
gr own
aj it
ĠBr other
Ġgra pes
work ing
Ġrece ives
ĠPr int
Ġbas il
Ġtast ing
ĠInd igenous
Ġri p
ĠCar ls
Ġphys ician
Ġcult iv
Ġfoot print
Ġcold er
Ġ< =
Ġident ical
Ġcomput ing
Ġfail ures
Ġep ic
Ġesc apes
ĠTe ch
ĠTe xt
Ġdiscuss ions
Ġdress es
Ġexplore rs
Ġexpress ing
lo at
ĠX XX
Ġinvent ions
Ġru in
Ġru gged
Ġoccur ring
Sh ould
Ġdeb ts
Ġconsum ing
Ġweekend s
Ġharm on
Ġentertain ed
ĠMed icine
AT ION
Ġtarget s
Ġdom ain
Ġadm ire
Ġadm itted
Ġachieve ment
ĠTom atoes
Ġunf air
Ġfirm ly
Ġemp ower
Ġtow els
Ġmeas uring
Ġpossess ed
Ġsmooth ie
ĠCont rol
Ġhur ts
Ġenthusi ast
Ġpassion ate
Ġspark ling
Ġsmok ed
Ġgrav itational
Ġmut ual
ĠðŁ ĺ
Ġwitness ed
Ġrestrict ed
TH E
Ġvary ing
âĢį ðŁĳ
ĠGe hrig
Ġlas ag
ĠBook s
Ġcorpor ation
Ġemphas izes
Ġdecre ased
Ġscar ce
Ġconcent ration
Ġexhib it
Ġadopt ion
ww w
ĠDream s
Ġcoord ination
Ġcig arette
Ġcrypt ocur
Ġsacr ific
Ġnic he
onym ous
Ġevac uated
Ġzomb ies
Ġzomb ie
ĠIll inois
Ġweakness es
Ġbeet les
Ġgobl ins
ĠNich olas
anche ster
Ġelectro ly
ĠFact ory
ĠRober ts
Ġaccompan ied
Ġantioxid ants
Ġbil irubin
Ġphotosynt hesis
ĠImper ial
ĠMissou ri
ĠNash ville
ĠDarc y
arett es
) ]
6 7
6 00
B oy
C ause
F O
F our
G A
H R
H ope
J e
M usic
P et
T Y
T aylor
k ach
s ub
t d
w all
z o
z ie
in ian
re q
Ġthe aters
Ġw arehouse
at ivity
Ġc ust
Ġc ubes
Ġf ares
Ġb ore
is ode
ing a
es an
Ġm un
Ġm and
Ġp ad
Ġp ear
Ġh atch
Ġl es
Ġl ocks
le nd
le ine
Ġn ause
Ġn ests
ac o
ĠT i
ĠT ommy
ay ak
ld a
im ore
im ated
im ental
ro lling
âĢ ĺ
ke e
ĠS ke
ĠS ix
ĠA ff
il k
ĠM aking
ĠM ission
ĠM ommy
ĠM anchester
if ice
if ully
ĠC and
ĠThe spis
ch arge
ch ildren
ri ers
ol ot
Ġsh ipped
ag ging
Ġor anges
Ġme ats
pe ll
ite m
th ood
ĠP rodu
Ġch ore
Ġch op
Ġse wing
Ġr ats
Ġr ug
âĢĻ ,
pp s
Ġcon ve
em ann
Ġv ib
Ġk ings
Ġk ale
ab ling
ĠD est
ĠF ear
ĠF rog
ust ers
ud ed
ĠG all
ĠG ret
ard ed
ĠR ings
ĠR ocket
ĠR alph
ĠR TX
ĠE ur
Ġint ensity
ĠN atural
one ly
Ġout standing
ĠĊ ĠĠĠĠĠĠĠ
Ġcl oth
Ġcl aw
Ġpo le
ĠK ar
Ġun ion
Ġtr ay
Ġsc al
Ġneed le
Ġdis orders
Ġover se
Ġoff ices
ru ck
Ġem peror
Ġstory t
Ġbr oth
Ġback story
ĠCh all
omet own
Ġdif fer
Ġtra ins
Ġnum py
be cause
be cca
Ġra ge
Ġaw ait
Ġbefore hand
Ġ5 5
Ġcall back
hy dr
orn s
Ġhum ble
Ġcr ashed
Ġcr umbs
ĠWe b
ins ert
ins ula
Ġsy mp
Ġtri um
Ġtri bes
Ġreg ister
Ġreg ulate
Ġca fe
Ġlight hearted
Ġsupp l
Ġmet als
), [
Ġvar ies
Ġve nd
ĠSe ven
fl ation
Ġless er
Ġel im
Ġel ig
Ġel bow
ĠRe view
Ġref ined
St ack
Ġfree zer
Ġpain ful
ĠAd m
Ġappe aling
ĠDe cl
Ġfore cast
ĠPl ants
rodu cing
ĠBl ock
Ġfavor ites
gr ades
Ġconf irm
sel s
Ġdep ressing
idd ing
Ġhot els
Ġinvest ed
Ġmess y
ĠDo ing
Ġblue berries
Ġball oons
Ġprint ing
Ġsoft ly
Ġreci p
cul iar
Ġpersonal ities
ze ch
ĠCon ference
ĠAm endment
Ġbreat ht
Ġeye b
Ġabs urd
Ġconnect s
ĠGr ant
AS E
AS H
Ġrad iation
back ground
rest rial
Ġsus pects
Ġstress ful
Ġlength s
Ġpan el
Ġpolit icians
Ġswe ets
ĠAust ria
Ġconcer ning
Ġflavor ful
ĠComm on
nes ium
alt imore
Ġdish was
anch oly
Ġur ge
Ġstick ers
pro v
Ġthank ed
Ġcirc uit
Ġapproach ing
Ġinstall ation
Ġhar ness
Some one
Ġspl ash
Ġsubst itute
ĠMag gie
Pl ay
ĠPre p
Ġresc ued
Ġspr ings
IC K
Ar t
Ġclub s
Ġgrocer ies
Ġfrust rating
Ġtal ented
Ġshift ed
Ġsatis faction
Ġdust y
ĠScott ish
Ġlaun ches
Ġcompl iment
ĠVis itors
Ġhighlight ing
Ġappoint ed
Over all
Ġlean ed
Ġabsor ption
Ġmosquit o
Ġdeliver ing
Ġflex ibility
Ġmechan ism
ĠMil ky
Ġfest iv
ĠGal a
Ġsimpl er
Ġcandid ates
Ġeager ly
Ġexception al
ĠBas quiat
ĠCook ies
ĠJava Script
Ġcliff s
Ġestablish ment
Ġquant ities
Ġillust ration
Ġaccommod ate
Ġaccommod ations
Ġcott age
Ġpier cing
Ġindic ates
Gu ard
Ġalgorith ms
Ġtransm ission
Ġrainforest s
ĠInvest ig
Ġencl osed
ĠAL K
fol io
Ġpersu asive
Ġsubsequ ent
Ġreluct antly
Ġmanufacture r
Char les
Ġhomeown er
ĠFound ation
ĠUk raine
Ġscram bled
Ty pe
Ġsoot hing
Ġsear ched
ĠFem ale
Ġresil ience
Ġeleg ant
Ġmyst ical
Ġmicrow ave
Ġvulner able
Ġwarr ant
ĠPuebl a
Ġchap ters
ĠZeal and
Ġsnipp et
kach uk
hydr ates
Ġbreatht aking
% ;
' ]
8 4
8 7
A pril
B ar
C oll
F ox
H and
H ER
N or
R ight
S A
T oy
V iew
b n
b at
b ug
d at
g ood
h og
i age
l im
l ishing
n uts
p c
p age
r in
s l
s q
s ch
u an
w ho
w ritten
} ;
Ã ±
Ġ iv
Ġt ucked
Ġa le
Ġa ired
Ġa uction
he ld
in ite
Ġs ulf
Ġo at
Ġw ives
Ġc m
Ġc aves
it ics
Ġf ats
Ġf ills
Ġf ighters
en ne
en ix
Ġp ater
Ġp ico
Ġp owdered
Ġd umb
Ġd imin
Ġh ometown
Ġl ur
Ġy arn
Ġn ons
Ġg otta
ac re
ac ine
Ġst ing
Ġst roll
am ples
âĢ ¯
ĠS ony
ĠA cc
ter ior
Ġas pir
Ġas paragus
ĠM eth
ĠM eg
ĠM otion
ĠM averick
if ier
ĠC re
Ġwas hed
um ing
um ed
um sy
ĠB reat
ĠB oss
ĠB ased
ĠB eth
Ġne u
Ġch art
us sell
Ġse aled
Ġr am
Ġr ushing
op ithe
ĠD raw
ĠF ly
ĠF ield
ĠF resh
ĠF iction
ĠF isher
art ney
Ġpro pose
Ġhis s
ud i
ĠG erry
ĠE lement
ĠN ether
od ge
cl ock
Ġman ual
Ġpo ppy
Ġsp ouse
Ġqu oted
ĠK ings
Ġun su
Ġun cover
ip ing
Ġsc attered
Ġneed les
Ġbl ink
Ġwork force
ild a
Ġdis ability
Ġspe cially
int age
ire ct
Ġ3 8
Ġ3 000
Ġem pt
Ġper ceived
Ġbr ack
Ġdes erves
Ġimp atient
old s
Ġwater falls
Ġacc us
ual inga
Ġshow case
Ġbook ing
Ġhand made
ĠAl most
co al
Ġgl oves
Ġrep etitive
Ġreal izing
Ġcur ric
land o
Th omas
Ġlight ly
Ġsupp lements
Ġass et
Ġclass rooms
ho pe
Ġ18 90
Ġ[ [
Ġel if
Ġref use
Ġsign als
Ġcent ers
St ud
Ġair line
Ġfree ly
ĠMar c
ĠMar vin
atur ity
Ġappe aring
ster y
Ġunderstand s
Ġcontin uing
Ġcontin uously
Ġsal on
Ġcour ts
20 21
Ġprot otype
Ġsleep y
sh irt
ĠIs aac
Ġmusic ian
Ġvisit or
Ġpark ed
udd ing
app ro
ĠEx change
Ġcor rid
ĠAll en
Ġrele asing
ĠTo xic
ĠPr im
Ġappro val
Ġpract ically
Ġstrong ly
Ġcamp fire
Ġequ ation
ĠSu ggest
Wh ite
ĠPe ach
Ġpersonal ized
Ġpack ing
Ġpack ages
Ġess entially
ĠRo lling
Ġsil k
Ġoper ated
With out
Ġabs ence
Ġaccording ly
Ġrul er
ĠGu y
Ġimag inary
Ġspread s
ĠMe anwhile
Ġboss es
Ã© e
Ġtouch down
Be aut
ĠSam uel
Ġrepresent ing
Ġinteract ing
Ġur ine
Ġthreat ening
pro cess
Ġreported ly
ĠMary land
Ġtooth brush
Ġstat istics
hold ers
Ġworry ing
isp here
Ġvolcan o
ĠCom puter
Ġpoet ic
Ġspr int
ĠMic key
ĠFood s
Ġfif ty
ĠBro s
ĠBro ok
oof y
Ġadvant ages
Ġfol iage
ĠEr nie
ĠWhe never
Ġsle e
hand ed
ĠFind ing
Ġpill ows
Ġalcohol ic
orce rer
Ġimplement ation
Ġnutri ent
Ġgall ery
Ġtransl ation
Ġow l
Ġow ning
ran os
Ġbun nies
Ġinvolve ment
ĠVen us
uten ant
Ġven ue
Ġsatisf y
Ġdebut ed
Ġdiagn osis
Ġsig ning
Ġrelie ved
ser ver
ĠMcC arthy
Ġefficient ly
bel ief
Ġquant um
ĠGuard ian
ĠNi ag
Ġder ived
Ġcomprehens ive
Ġclar ity
Ġcontrovers ial
ĠTem ple
ĠNob el
ĠStars hip
Ġoccas ional
IG HT
Ġtack le
ĠDig ital
Ġmindful ness
Ġhypert ension
Ġdece ased
Inter view
ðŁĴ ĭ
orient ed
ĠPast a
Ġmane u
Ġmans ion
ĠLeaf s
ĠPom pey
Ġcarbo hydrates
Ġfav ou
ĠEns ure
ĠGord on
ocyan ins
ĠWon ka
ĠPhot os
Ġumbre lla
Ġmorn ings
Ġconspir acy
opithe cus
' );
( {
) /
. *
7 00
A V
A c
B ird
C ut
D a
D el
F G
G erald
H ome
I E
L ou
M ade
N ote
P ot
S W
T S
W H
W orld
a a
b ound
d ra
d aughter
l ost
l uck
l ai
s im
s ome
w er
© âĢįâ
Ġ Âł
Ġt an
he res
Ġw ider
Ġc age
it ory
Ġb ans
Ġb ury
ing le
Ġm ul
Ġp ars
ar ah
ar gs
Ġd ys
Ġd aring
Ġd ement
Ġin appropriate
ic us
Ġn aked
Ġg au
Ġg ene
Ġe ld
Ġe ch
ĠI SS
Ġst atic
ig e
ig ant
ur ious
ver ted
ĠS ud
ĠS ound
ĠS outheast
ĠA N
ter ing
il ation
ĠM aine
ĠC as
ĠC ross
ĠC atherine
ĠThe ranos
ri ever
Ġwe ighed
um a
ĠH at
ĠH end
ĠH oney
ĠB orn
ĠB owser
ĠB altimore
ĠW ow
ĠW ard
ĠW alking
ag ain
Ġor al
ĠP ath
ĠP ik
ĠP ho
Ġch alk
Ġch ased
us ive
Ġr ay
âĢĻ .
Ġex clusive
el iac
Ġv otes
op l
op ing
ĠD un
ĠD iet
ĠD uck
ĠF urniture
Ġpro st
ĠG or
ĠG ate
ĠR obbie
ĠL ead
ĠL ucky
ĠL uther
Ġ2 80
ong s
Ġup right
Ġup lifting
Ġall ig
ĠJ en
ĠJ ump
our se
ĠO x
Ġshe er
are b
Ġsp ons
au ce
ick ly
og enic
ĠY out
ĠK am
ap olis
Ġun ve
Ġun con
Ġcomp aring
Ġtr ilogy
ĠSt orm
ĠSt ories
Ġhow l
Ġoff ensive
Ġgr umpy
Ġthan king
ress es
Ġam en
Ġper fection
Ġ19 40
Ġdon ate
Ġdon uts
ens ils
Ġlong ing
ĠV i
ĠV II
Ġshort age
ull s
Ġfun eral
iss ors
Ġent ities
Ġpar ody
Ġcr acks
Ġcr ushed
Ġstr angers
Ġtri b
ject ives
Ġrep orters
ats u
Ġvis its
Th ink
Ġbre ast
Ġext ent
Ġpres idency
fl avored
ov ich
Ġmed ic
Ġanim ation
Ġgener ic
ĠSp am
ĠSp ark
Ġpur su
St op
St ock
ĠSh op
Ġfree zing
the less
Ġheart warming
ĠDe pp
Ġprom ising
Ġprom oted
Ġpot ting
Ġprof its
Ġes presso
ĠAr c
ĠBl ind
ĠQ ue
Ġopp onents
enn ial
elt a
Ġhope fully
Ġdark er
Ġdirect ory
ĠCl oud
Ġi P
Ġspecial ty
Ġspecial izes
Ġclean er
Ġcor al
Ġnews letter
ĠNo ah
Ġimpro ves
Ġappro aches
Ġfut uristic
Ġcheese cake
Ġorgan izing
Ġadv ise
Ġlay out
Ġdoor way
Ġemploy ers
Ġcomb ustion
izz o
ĠCal ico
Ġpet als
Ġhalf way
Ġredu ction
Ġcapt uring
Ġesc al
Ġlif es
Ġsepar ation
Ġsens or
Ġport folio
ĠGu ild
Ġavoid ing
Ġmyster ies
add le
ĠGo ing
ĠSer b
Ġprin ter
Ġmouth s
ĠSte el
ĠWho le
ĠMed ia
print ln
Ġdecor ated
Ġconsist ency
Ġbask ets
Ġflo ats
Ġut ility
ĠTy ler
Ġcraft ing
ãģ Ĩ
Ġexcept ions
ĠIm agine
ĠInt roduction
Ġemp athy
Ġsubs id
ĠPol o
ĠPre m
Ġsty list
roph ic
Ġtwist ed
Un like
Ġpun s
Ġpun ct
Ġearn ings
ĠMor gan
Ġtight ly
Tr usted
Ġhonest ly
Ġmyth ology
Ġestim ates
Ġreward s
Ġhasht ag
Ġathlet ic
Ġcurs ed
Ġseg ments
pass word
ĠHy d
âĢį ðŁĴĭ
Ġintegr ation
Ġairpl anes
Get ting
ĠDisc uss
Ġemotion ally
ĠBull s
Ġterr ified
Ġsin ister
ĠKy d
Ġcliff h
Ġtrig gered
Ġanticip ation
Ġpartners hip
Ġwid ow
ĠConst itution
Ġcig arettes
Ġcul inary
Ġfulfill ing
Reg ards
rec ursive
Ġfright ened
Ġsacr ifice
ĠSant iago
ĠSiber ian
Ġliz ard
Ġisol ated
ĠDou ble
Ġcomprehens ion
Ġgrill ed
fol k
ĠStat istics
ĠAP I
ĠJS ON
Ġchees y
Ġabund ance
ĠTele vision
ĠJess ica
Ġfragr ance
Ġsurve illance
Ġmathemat ics
ĠVers a
Cong ratulations
ĠRP G
Ġequival ent
Ġunfor gettable
Ġsegreg ation
asket ball
ĠGil bert
ĠCath olic
Ġtrave lling
Ŀ¤ï¸ı âĢįðŁĴĭ
ihuah ua
Ġpessim istic
Ġrhin os
Ġhorizont al
ĠGri pps
ĠChap man
Ġinconven ience
Ġnort heast
Hen ry
ĠAuthor ity
Ġtremend ous
âĸ ª
âĢįðŁĳ ¨
ĠDecl aration
Ġdishwas her
ĠNether lands
Interview er
dra wn
©âĢįâ Ŀ¤ï¸ıâĢįðŁĴĭ
igant opithecus
©âĢįâĿ¤ï¸ıâĢįðŁĴĭ âĢįðŁĳ¨
" ).
1 20
D ri
E gg
F ind
F ollow
L ight
L ine
M en
O ct
P M
P res
P age
P erson
R Y
R ock
S ource
b rit
b uster
c overed
c eton
c ooked
d ia
e ven
f y
i pl
l ord
m essage
s en
s ales
t ra
t xt
w an
Ġa is
in ach
in ction
in ness
Ġs ang
Ġw ipe
Ġw izards
er ness
Ġf res
Ġf itting
Ġb ent
Ġb ipolar
is en
Ġd ated
Ġd ub
Ġin ject
Ġin clusive
Ġh ue
Ġh ockey
al ysis
Ġl oneliness
ic ent
ic ting
Ġn oun
Ġg rain
Ġg lee
et o
Ġre cl
Ġre ck
Ġre vers
Ġbe friend
ĠT ed
ut y
ut ure
Ġhe m
se ction
im eter
ro it
ig s
ĠS cientists
ĠS ARS
ĠS SL
Ġan ts
Ġan agram
ĠA llow
ĠA unt
Ġwh ites
Ġas hes
ĠM O
ĠM es
ĠM ah
ĠC ult
ĠC raft
ĠC zech
Ġha w
ĠH o
ĠH ang
ĠH unt
Ġsh one
ĠW alt
Ġme rely
ist ine
un ting
th ink
Ġr ounds
op hy
Ġpl ague
ĠF ast
ĠF DA
ust ing
Ġso ak
ak ami
ĠE arl
Ġsu ited
ĠL ost
Ġle ct
Ġout comes
Ġte ar
Ġte as
ĠJ ur
ĠJ un
our ces
ĠĊ ĠĠĠĠĠĠĠĠ
Ġthem ed
od ium
Ġpo ly
Ġsp at
Ġsp onge
ĠHe avy
Ġco ats
ĠK ub
ber y
ap i
Ġun re
Ġcomp ound
ĠSt ore
Ġbl unt
Ġdis belief
ĠIn f
Ġfl uct
Ġany time
ish op
Ġpre st
omet ry
Ġser um
Ġart is
Ġnum s
Ġ4 1
Ġcomm ittee
Ġsl ides
Ġsl ipped
ert o
Ġcr ush
Ġcreat ors
Ġform atted
ĠAs sembly
Ġgl ue
Ġinst itution
olog ically
Ġloc ate
Ġrest ored
Ġreg ul
Ġreg ional
Ġreg ulation
ĠBe ck
Ġlight weight
Ġsupp ose
Ġass ert
ik o
Ġpass enger
Ġext r
Ġbo asts
Ġchat ting
Ġhead set
Ġinform ing
az a
br ates
fl ight
Ġspec ify
Ġmed al
Ġinter vention
Ġsun screen
Ġcat ches
Ġsol ving
ys on
Ġpol es
Ġpol itely
Ġdri ves
ĠWh ale
ĠWh atever
Ġcontin uous
Ġed it
Ġpot ion
Ġpot assium
() )
uff le
ump kin
Ġbreak through
sh ow
enn a
ĠCl ose
Ġinvest or
Ġwar nings
Ġcolle ges
Ġadv is
Ġadv oc
Ġadv ocate
Ġequ ality
Ġdem ocr
sc ape
Ġant agon
Ġess ence
iam ent
Ġmoder ate
Ġsau cer
ĠPark er
Ġbal let
ĠEn c
Ġens ures
Ġimpact ed
ox ide
Ġcoll ision
Ġvill ains
Ġvill agers
Ġencoura gement
ĠMe et
Ġachie ving
Ġmat rix
ĠBar ack
ĠApp ly
ĠGree ks
Ġgift ed
Ġmaintain ed
amb ling
Ġdrive way
Ġthank ful
Ġaddress ing
ĠTy pes
Ġstat ue
Ġlibr aries
Ġcra ving
Ġtim ing
Ġstrateg ic
ugg ing
Ġden y
ĠOther s
Ġ195 8
ĠPrin ceton
Ġflu ids
Ġmeasure ments
Ġvoc als
ĠDep ression
OL L
Ġmaster piece
Ġshout ing
ĠBre aux
Ġgre edy
Ġjournal ist
Ġmer ge
ena issance
Me anwhile
Ġreward ing
ĠLu igi
ĠYellow knife
Ġroof ing
utter ing
Ġcoin c
Ġfra ud
Ġemphas is
ĠGar field
Ġcritic ism
Ġcert ific
Ġterrit ories
Ġdu pl
ĠOl ivia
ĠDet erm
Ġwand ering
Ġcontem pl
ĠBarb ie
Ġhes itate
Bu ild
Che ck
Ġwhis per
Ġassass ination
ĠUt ah
cur rent
Ġembarrass ed
Ġcrunch y
Ġvolunte ers
ĠBuddh ism
ĠGrass hopper
Ġsubsequ ently
ĠNob ody
ĠFa ust
ĠLim it
Ġbarbe cue
ĠDri ve
Ġslam med
Ġpremie red
comm un
ĠEth an
ĠFro do
ĠPerson al
ĠKind le
ĠFoot ball
Fore st
ĠPract ice
ĠLaure n
ĠFurther more
Ġsophistic ated
Val ue
ĠParm esan
ĠHerm ione
ĠArgent ina
ĠTheod ore
Ġsemes ter
Ġkinderg arten
Ġcurric ulum
ĠNiag ara
Ġfavou rite
ĠÂł Ġ
" ),
8 3
C at
C ap
C reating
F R
G ot
G od
G ru
G old
G iven
G erman
I AL
J une
O ld
P o
P op
P ull
S w
S oc
T w
T iger
V is
V ol
g b
g un
g ain
g rowing
i ott
k o
n ormal
o i
o ided
p ensive
r inth
} ,
Ã ¨
É Ļ
ĉ Ċ
Ġt ide
Ġt ires
he astern
re rs
Ġo ats
Ġw ool
er re
at is
Ġc ables
Ġc reek
Ġc rizotinib
ou red
Ġf et
Ġf ont
Ġf rench
Ġf eline
Ġb id
Ġb annock
Ġm aker
Ġp ony
ar ling
Ġd ashed
Ġd ancer
al ina
ic ut
Ġg ay
Ġg aps
st d
ac ular
ĠT ot
Ġhe els
Ġst ats
im age
ver b
ĠS U
ĠS kin
Ġwh im
ce eds
ĠC C
ĠC reat
ĠC ru
ĠC ai
ri um
out e
ol er
ĠB a
ĠB ab
Ġsh immer
ĠW W
ant om
Ġor ph
pe at
ĠP our
ĠP ositive
Ġat op
Ġr amp
Ġcon j
op er
ort al
Ġpl ank
ĠD ance
ĠD ah
ĠF eed
Ġso cially
ĠG ray
ard less
ak istan
ĠE s
ĠE ither
Ġ" );
ĠL og
ĠL ob
ĠN ova
ĠJ ude
pl us
ear chers
Ġen for
Ġen amel
Ġad j
Ġman ages
Ġsp raw
Ġpe culiar
Ġro ar
Ġro pe
Ġun le
Ġcomp ose
Ġcomp lement
Ġbl ond
Ġbl oss
Ġbl ues
ne um
ne red
Ġdis g
ĠIn v
Ġover time
Ġover turn
Ġhel met
oy d
Ġam azed
ang ular
vel ength
Ġno on
Ġper ce
Ġbr ighter
Ġpre ced
ens is
ĠCh ang
Ġplay off
Ġcol ours
ĠV lad
Ġser vers
Ġser vant
Ġstart up
Ġrec ruit
Ġdown ward
Ġra ft
Ġeven ly
ĠShe l
Ġ4 9
Ġend urance
Ġ5 1
Ġsl id
Ġwater melon
Ġcar ved
Ġdec omp
Ġac ute
orn ed
Ġexpl o
In put
Ġcharacter ized
Ġstr ife
ĠAl tern
co at
Ġfin est
Ġfin ishing
Ġmin imize
Ġgl ute
Ġsent ient
Ġcur tains
ott est
Ġmet ab
Ġlast s
Ġpres chool
Ġcount ed
It em
Ġpost ure
Ġsub red
ĠRe becca
Ġdr ank
Ġref erring
ĠAn nie
Ġval ued
Ġav oided
Ġdisc rim
ĠSh are
Ġ7 00
ĠJo h
Ġthought ful
aur a
Ġfavor able
Ġopp osed
bl ood
Ġconf using
Ġclim ber
aby rinth
Ġlaw yers
Ġwar n
Ġwar rior
Ġbro ccoli
Ġlow est
Ch oose
ĠOr lando
Ġlim bs
Ġtrad em
Ġmention ing
ĠSome one
Ġsummer time
Ġequ ipped
Ġdem ands
ĠInd iana
Ġri b
ĠEl aine
ĠEl ij
Ġgovern ments
Ġgrand ma
Ġheav ier
Ġbot an
Ġgen ius
Ġoper ators
Ġdig estion
set t
Ġcrit ique
Ġbur nt
Ġarg s
Ġarg ued
Ġattract ing
Ġ197 8
Al ways
Ġearth y
Ġformat ting
Ġhistor ically
conom ic
Ġfund ra
Ġgar n
Ġsmell ed
Ġdraw s
Ġinterview ed
Ġdram atically
Ġfat igue
Ġmeat balls
ĠMed ical
AN D
Ġut ensils
Ġdom in
ĠAnt on
Ġult ra
Ġlat te
Ġhar ass
fill Style
ĠAss istant
Ġbackground s
Con nect
ĠPol and
Fl orida
OU ND
ĠAny thing
Ġgradu ates
Ġver b
Ġneighborhood s
ĠCont ent
ĠPo ppy
Pe anut
Ġconflict s
ĠKn own
Ġ194 6
Ġ189 6
Ġgir affe
ĠMur akami
Ġbun ny
Ġalle g
Ġaccur acy
Ġcher ish
Ġven ues
Ġfert ility
Ġspect rum
Em ma
fess ional
Ġtransfer red
ĠBull dog
ĠImp rove
Ġtoothp astes
ĠBarb ara
Bu y
Ġconqu er
Any way
Rem ove
ĠThrough out
ĠBrand on
ĠConst ant
ĠAngel a
Ġcul p
Ġinqu ir
ĠEgg s
Ġintention al
Ġfool ish
ĠGro ver
ðŁĳ ©âĢįâĿ¤ï¸ıâĢįðŁĴĭâĢįðŁĳ¨
Ġsque e
ĠNi emann
Ġnick name
ĠFort une
Ġtrend y
Ġracco ons
ĠRom ans
Ġdash board
Ġdil ig
jo in
Ġarom a
onge vity
Ġarc ade
ĠBeaut iful
worm s
Ġtact ics
Ġoccas ions
Ġelectron ics
Ġinsert ed
comp any
Ġbutt ons
Ġcleans er
itzer land
Ġuncertain ty
Know ledge
ĠDiv ision
ĠStraw berry
Ġpenc il
Ġdistur bing
ĠBroad way
Ġhesit ant
Ġmanif est
ĠBor is
Ġsuspend ed
Ġta vern
Ġhandc uffs
ĠSud an
ĠPho enix
Ġcliffh anger
Ġdiscrim ination
B an
B orn
C ustomer
D an
D ef
E arth
F loat
G H
G I
G l
G en
H ol
H aving
M s
M ad
M AR
O K
P L
P oint
S il
T C
U s
W ind
b acks
c aster
d one
i otic
l ig
l ove
l asting
m ans
n est
o ft
p at
p ri
p iring
r ice
s olving
t ale
t wo
u et
u ador
Ġ ?
Ġt ab
Ġt icks
Ġt ummy
Ġa pe
Ġo x
Ġo ink
Ġw ed
Ġw ishing
it ched
Ġf al
Ġf idget
Ġb in
Ġb art
Ġb atch
Ġb orough
Ġm m
Ġm aps
Ġm aple
Ġp ays
Ġp ap
Ġp ix
Ġp enn
an se
an qu
Ġto dd
ar g
ar ios
Ġd f
Ġd ens
Ġd amp
Ġin fer
Ġh arp
Ġl obby
le en
le ys
Ġn an
Ġg ap
Ġe book
ĠI d
ĠI vy
ac c
ent a
Ġbe am
ĠT urt
ĠT yson
Ġst ating
Ġst arch
im als
ro be
ig o
ig hest
ĠS r
ĠS in
ĠS aw
ĠS erv
ĠS oul
Ġan ec
ĠA z
ĠA SD
il itate
ĠM aj
ĠM ole
ĠM VP
ĠC ave
ĠC ode
ĠC arr
ĠC ustomer
ol s
ĠH it
ĠH ospital
ĠB art
Ġne arest
ĠW i
ĠW ant
ĠW ere
ĠW oman
ate red
Ġab bre
ore t
ĠP ie
ĠP ix
ĠP ercy
Ġch arts
us able
Ġcan ned
Ġr ang
Ġex pend
ain ted
el a
el ed
el ia
Ġcon ventional
qu is
qu estion
Ġv apor
op ath
Ġal monds
ab lo
ĠD ate
ĠD iam
ĠF L
ĠF at
ĠF itz
ĠG a
ĠG ab
ak ota
ĠR y
ĠR iley
ĠR SV
ĠR acine
Ġj ail
ast rop
ĠE ric
Ġsu ite
Ġsu itc
ĠL ot
ĠL am
ĠL ane
ĠL emon
Ġle gends
res istant
Ġ2 90
pt on
ĠJ avascript
ĠJ oker
our ing
ine a
pl ed
iv a
iv or
iv ious
ass o
Ġman agers
av ail
Ġar med
og rams
ĠY oda
ĠHe llo
ĠHe aven
Ġqu ot
Ġqu ery
ĠU C
ĠK ir
ĠK arl
Ġother world
ap art
Ġun fortun
ip ides
Ġcomp ensation
ĠSt u
Ġsc issors
Ġbl ocked
ne x
Ġdis gu
ĠIn gl
Ġfl ed
we b
ail ed
ire n
Ġgr ind
ical s
Ġam idst
ru ff
ond uct
Ġpart ially
Ġbr ows
Ġpre ference
Ġimp ress
Ġcol oss
form er
ĠV iking
ĠV ideo
Ġart ic
Ġatt rib
Ġrem ake
Ġsl ate
ert il
Ġret ain
Ġret iring
Ġown s
erm ont
Ġtri ll
ĠAl ban
Ġins pect
Ġplan es
ĠBe ast
Ġvar ied
ric anes
br ace
Ġsw ay
Ġ18 70
Ġsub way
ĠSp ot
Ġtrans actions
Ġ{ }
Ġaut on
ĠAn imal
uc lear
uc ua
15 0
St ill
ĠSh ir
ĠSh aw
att a
Ġdist urb
ĠJo el
Ġsince re
Ġpot luck
Ġbeh old
Ġbeaut ifully
ene z
port ation
ĠAr k
20 15
Ġprot ests
ape l
Ġcond es
Ġtre k
atter ing
Ġleg it
bl er
bl ock
sh irts
Ġreview ed
ĠZ en
ĠZ areb
Ġelect ions
Ġmusic ians
Ġpa used
err ick
Ġconst itu
Ġgra pe
Ġcor ruption
Ġappro ve
Ġjo ins
Ġpublic ation
Ġblog ging
Ġemploy ed
Ġconsider able
Ġmen acing
Ġ12 5
Ġself ish
Ġskin care
Ġpress ing
Ġpresent ing
Ġcomb inations
Ġintrodu ctory
Ġmod ified
Ġbar n
Ġbar rier
Ġwild erness
Ġsqu at
Ġmix er
Ġdiff user
Ġnon profit
ĠPe anut
vious ly
Ġexerc ising
Ġant ique
Ġinf ants
Ġdiv or
Ġ< <
Ġarri ving
ĠAdd itional
Ġlif ting
Ġaff air
Ġ197 5
Ġcand ies
Ġexpress es
ĠMc K
arc ity
ĠEm phas
ĠCent re
ĠRes ort
ĠSw itzerland
Ġill um
Ġill umin
Ġpolit ician
Ġswe lling
Ġpriv ately
ĠDes ert
Ġinvestig ating
Ġfine ly
Sh ort
Be ing
Ġmis under
Ġharm less
Ġharm ony
Ġsnow m
Ġknowledge able
Ġmel od
Ġsaf ari
Ġbra ke
uk i
Ġhun ter
Ġdiam eter
Ġaltern atives
Ġir res
ĠGener ation
Ġattend ees
Ġarch ae
Ġblock chain
Ġreflect ed
Ġcash ier
ĠVal ent
Ġscen arios
Ġindepend ently
Pl ace
Ġsty lish
see ing
ĠTim ucua
()` .
IC E
ĠSpr ings
Ġpow ered
ĠBel le
Ġpun ishment
gu ard
Ġbreed ing
Ġtun a
vis or
Ġincorpor ated
Ġgre ens
Ġham mer
Ġhonest y
Ġweigh s
Ġblind ness
Ġcoach ing
Ġnuc le
Ġappoint ments
Ġcitizens hip
ĠSur v
Ġstim ulate
Ġstir ring
ĠMat rix
ĠWild life
Ġanaly st
Ġinfect ions
Ġlit eral
Ġappl iances
ĠPhil ip
Ġroyal ty
Ġwand ered
Ġcha otic
ĠMcC artney
ĠCab ot
Ġbean stalk
ĠHot el
bel ie
ĠHum ph
inn itus
Dis play
ĠNor way
Ġlux urious
Ġveter an
Ġconver ts
ĠPu erto
Ġindic ating
ĠRad io
ĠMongol ian
Ġinher ited
ĠDen mark
Ġtang led
Ġagricult ure
ĠBan ner
ĠOrgan ization
={ ()
oren ce
Ġlad ies
Ġabund ant
Ġrecycl ed
ĠCalcul ate
Ste ve
Ġhumming birds
Ġdipl om
Ġpremie re
Ġintimid ating
ĠTao ism
ĠHistor ical
Ġaffili ate
ĠZe lda
Ġvenom ous
Ġank le
ĠProte ction
Luc y
Ġproced ures
Ġsyll ables
Ġmerch ants
ĠHa iku
ĠVit amin
ĠAqu a
Bre ak
Ġinex pensive
ethe less
ĠEc uador
ĠApalache e
Ġtutor ials
squ are
Ġimagin ative
Ġwhit ening
Ġautobi ography
ĠThom pson
ĠParent s
ĠBelg ium
Ġmarsh m
Ġspokes person
Ġrecip ient
Ġdement ia
brit ies
ĠVlad imir
Ġsubred dit
Ġbart ender
Ġanec d
Ġunfortun ate
ĠIngl is
* .
, âĢĻ
8 2
A x
A st
B N
D own
F ather
J oseph
L uke
M ill
M other
O A
R un
S us
S uddenly
W ord
c ents
d est
d el
f are
f erring
g ra
g ains
i per
j s
l iament
m ill
m outh
p g
p ath
p aced
r t
r ator
s hip
t own
v ation
w au
Ġt il
in ic
in ning
Ġs om
Ġs ake
Ġc iting
it ures
it ably
Ġf isher
Ġb out
Ġb iting
ing ton
or ic
Ġm erc
Ġp iv
Ġp izz
Ġp ione
ar ound
ar ious
Ġd ot
Ġin security
Ġh ips
Ġh ipp
Ġh alls
Ġh ottest
Ġl in
Ġl ull
as aki
Ġth irst
ic ia
Ġn ud
Ġn our
Ġn urt
Ġg oo
Ġg own
Ġg oofy
ac ao
Ġre he
Ġre claim
Ġbe verages
ĠT N
ĠT kachuk
id ated
Ġst ern
ld on
im ming
Ġit chy
ĠS ave
ĠS earch
ĠA ges
ct ar
il m
il ib
ĠC ase
ĠC rew
ĠThe m
Ġha ugh
her ic
ol itan
ĠH ug
ĠB read
ĠB erg
ĠB irth
ĠB aker
ĠB ooth
Ġne ctar
ĠW at
ĠW IN
Ġor gans
ĠP ed
ĠP ork
ĠP oke
ĠP retend
Ġch rom
Ġex ternal
Ġk ills
Ġal oud
ab ot
all ows
ĠD er
ĠD ress
ĠD inner
ĠF ig
ĠF ull
ĠF ighting
ĠF ido
os a
Ġde emed
ud o
Ġher bal
ĠR ap
ĠR ound
ĠR ights
ĠR ussell
Ġj og
ast ically
ĠE cho
ĠL at
ĠL akes
ĠL ED
ĠL iter
Ġle isure
pt une
ĠN early
Ġup grade
Ġcl ip
Ġkn ot
Ġkn ocking
Ġen compass
ass y
ass ic
Ġman kind
au er
og el
ĠY OUR
ĠU r
ap ocaly
Ġro omm
Ġun fortunately
Ġcomp act
ĠSt ark
ĠSt ew
Ġsc ores
ĠIn g
Ġam using
ang s
ang el
Ġag rees
Ġno stal
Ġpart icle
Ġback s
Ġplay offs
hes ive
Ġshort s
Ġrec ession
Ġra pper
Ġra ises
Ġatt ire
Ġperson nel
Ġrel ating
ef fect
Ġsur pass
Ġdec ay
Ġhum p
Ġinc omp
Ġmon ument
Ġcreat or
lect able
Ġsy mph
Ġstud ios
ix ed
ĠAl an
Ġins uff
Ġmin us
Ġgl orious
Ġsent enced
Ġreal ism
Ġph arm
ĠBe h
ik iped
Ġcle aring
Ġsw ings
Ġexp ense
Ġev ident
ah a
Ġsub du
Ġho pped
omm a
Ġtrans fers
Ġpos es
He alth
ĠAn anda
St ay
Ġbelie ving
Ġtyp ing
Ġsing ular
Ġmark ing
Ġele ven
aur ant
ĠAr ri
20 20
20 12
Ġmind set
ĠFl amini
Ġtre mb
ĠZ oom
Ġorder ing
Ġclim bs
Ġtreat y
Ġtem por
Ġsumm ers
Ġgra pp
Ġspecial ized
Ġbullet s
Ġcolle ague
ĠAll iance
ĠPr ide
Ġhor r
light s
ĠOr igin
Ġsoon er
Ġtrad ed
Ġrecord ings
Ġcup cakes
Ġmarket place
ĠEl i
iter ation
iod iversity
Ġstri pes
bor ne
Ġinf ra
Ġinf amous
Ġdiv ing
Ġvol umes
Ġident ification
ĠChrist ine
Ġbur rit
Ġbur den
Ġtable ts
Ġtour ism
Ġ198 7
Ġbal ances
Ġbal cony
Ġexce ed
Al so
ĠGu inness
Ġcoll ide
Ġimag ing
su pport
Ġ196 7
Ġang les
Ġlength y
ĠRes p
Ġord inance
Ġstruct ural
Ġvari ation
ĠMars hall
Ġrepresent ation
oph obia
Ġburn s
Ġliter acy
Ġemerg ing
sp ace
ey ed
Ġcoast line
Ġhun ts
Ġadm ission
Ġgrab bing
Ġund ers
Ġdrop lets
Ġvan ished
rupt cy
Ġfle e
Su pport
Ġemp athetic
isp ers
ĠStart ing
Con vert
water ing
Ġcere mon
roph one
ĠSal ad
ĠPac ino
Ġqual ify
Ġsequ ences
Ġautom ation
Br idge
Br ady
Ġscream ed
Ġpepper oni
Ġhyd ration
ĠLin ux
Ġlady bug
Ġoppos ition
Ġinnov ation
aver ing
iner ary
Ġwilling ness
Ġtransl ate
Ġelev ation
ĠHam let
Ġunw ind
Ġunw anted
Ġthread s
ĠSn ake
Ġdim ensions
ĠMid as
Ġcos metic
Ke vin
Ġmamm al
ĠLast ly
Ġcous ins
Ġflood ed
Ġdu o
Ġacceler ators
Ġmagn ificent
py game
Ġpurs ued
Ġfreel ancers
Ġalt ar
Ġeru ption
ĠEgypt ian
ĠLaw rence
Ġdemonstr ated
Ġanticip ate
Ġpoison ed
Ġacknow ledge
Ġriders hip
Ġassess ment
Ġfaith ful
Ġcock tail
Ġpron ounced
omed ay
Ġproceed ings
Ġwal let
Ġelimin ating
health y
EL L
ĠSwed en
dri ven
}: {
Ġalleged ly
ĠCir cle
Ġindul ge
ĠConnect icut
Ġartif act
Ġreluct ant
Ġbub bles
ĠArm strong
Ġcoron avirus
Ġwithdraw al
ĠMade leine
ĠSecret ary
ĠGO P
ĠGoth ic
ĠCass idy
Ġhorm ones
dig it
pig mentation
cific ally
Ġhier oglyph
Ġworksh ops
Ġaest hetic
ghan istan
Ġfemin ine
Ġnit rogen
ĠCore um
Ġbrut al
Categ orize
ĠMaur ice
Ġclo ak
Ġsher iff
Ġgam ers
Ġcance led
ĠMeth od
Pres ident
Ġexpend itures
ĠRSV P
Ġotherworld ly
wau kee
Ġsymph ony
ikiped ia
' -
' ]:
A E
F orm
L C
L og
M o
M ars
O FF
P ac
P ost
R ob
R ect
R ocket
S weet
S arah
T op
T ogether
W arm
W IN
a very
c ard
c ap
c ode
c ards
e h
f old
f amily
g ins
h ill
h ist
i ology
l it
l ast
m ot
p he
p and
p lease
p ically
r ights
t im
t ails
u ok
w ild
y cle
Ã ¶
Ã Ń
Ġt ub
he im
he art
in st
in itely
Ġs ixt
Ġw icked
Ġw obbling
at ched
Ġc iv
ou p
ou x
ou fl
Ġb ri
Ġb ully
Ġb ait
Ġm aturity
Ġp el
Ġp ens
Ġp ian
Ġp ills
Ġp acks
Ġp iles
Ġp ads
Ġp estic
Ġp earl
an in
Ġin cl
Ġh udd
Ġh tt
Ġl ore
as ant
as per
Ġth irty
ll er
Ġn u
Ġg ad
Ġe ighth
ve rely
ac ci
Ġre ef
Ġre arr
Ġre usable
Ġbe gged
ĠT ort
ĠT aking
ĠT weet
ut ed
Ġhe ats
Ġfor ty
Ġfor cing
im us
im ens
ro d
ir al
ir teen
ur ring
ĠA S
ĠA way
ĠA thlet
ĠA aron
Ġwh ip
ĠM S
ĠM un
ĠM ental
ĠC ars
ĠC roat
ĠC SS
ĠC ameron
ra k
Ġwe ep
ill ow
out ed
ol ulu
ĠH i
ĠH al
ĠH edge
Ġsh ifts
ĠW ol
ĠW ait
ant e
Ġme adow
ĠP el
us al
us iness
Ġse rene
Ġr asp
Ġr gb
Ġex ch
Ġex clus
Ġk ittens
Ġpl ug
ĠD al
ĠD ough
ĠD ise
and ers
ĠF A
ĠF if
ĠF uture
Ġli ability
os er
os ity
Ġpro c
Ġde lectable
ĠG ill
ĠG rab
ĠG rey
ĠG ualinga
Ġher s
ĠR hy
ast ered
ĠE iff
Ġ" $
ĠL uck
oc he
ĠN ancy
Ġup ward
ĠJ os
ĠJ av
Ġwho ever
iz on
Ġcl usters
ĠO ptions
ĠO tt
Ġman ic
Ġsp ont
Ġqu ad
ĠK atherine
Ġpe er
Ġpe aked
Ġro am
Ġun aware
Ġun seen
Ġun sett
ip her
Ġsc ars
ne g
Ġfl ick
Ġfl ush
Ġfl ashing
Ġfl ags
Ġover t
Ġover he
Ġpr ank
ail ing
nder ing
Ġres et
Ġres ervation
ren cing
ren aline
Ġam end
Ġday care
Ġsm arter
ob a
ĠCh ick
Ġlong time
Ġunder g
gg ie
ĠV III
Ġstart led
let ed
Ġmu g
Ġatt ributed
oss ip
Ġwell ness
Ġfam ed
Ġadd iction
Ġsl ave
Ġsl avery
Ġwater fall
Ġacc idents
Ġcre ations
Ġsk ip
Ġsk ating
Ġpar an
Ġpar ad
Ġexpl ode
Ġcr imin
erm is
arm s
arm ed
Ġgl aze
Ġrep roduce
Ġrep roductive
Ġprov in
ts y
pr ote
ĠBe yond
Ġass ault
Ġnight time
Ġhead ings
Ġhead lines
row th
Ġpop ulated
ho ot
Ġmain stream
ok i
ĠAnd roid
ĠSe b
Ġpost er
Ġpost ers
Ġspec ulation
Ġinter rupted
Ġexp anse
Ġev olve
Ġgener ous
Ġdr own
Ġsound ing
ĠNew ton
Ġref uses
Ġ8 6
Ġfact ual
Ġleft overs
rop ic
Ġdri pping
Ġdist illery
Ġpub lish
Ġline ar
Ġpat rol
Ġpast or
Ġpast ries
Ġprot est
Ġmar gin
ĠLe gend
bo ards
Ġactiv ation
ĠFl orence
Ġsit com
sh ot
ĠZ ach
Ġtreat ing
Ġlaw makers
ĠCl own
Ġi Phone
Ġevent ual
Ġhair s
Ġclean ed
Ġcost ly
ele brities
Ġwo ven
Ġblog s
Ġz ip
ĠTr ust
ĠHer b
Ġseason ed
Ġseason ings
Ġmarket ed
Ġsho ots
Ġdem ean
ĠSu pp
Ġrain fall
Ġmass es
Ġdest ructive
osp ace
ĠWar ren
ĠWar riors
Ġchick s
Ġsea weed
hel p
Ġess ays
Ġess entials
ER S
uro s
Ġnice ly
oura ged
ĠDis covery
Ġdig it
Ġresearch ing
son ian
Ġsimilar ly
ĠAdd ress
Ġuser name
Ġ198 8
Ġdiscuss es
ĠSm ooth
Ġ197 3
Ġrequire ment
ĠEd itor
ĠEm my
Ġtall er
Ġexcited ly
Ġtrou bled
Ġdeal t
Ġswe ating
Ġpriv ile
Ġrecogn izable
num s
Ex per
ĠSte in
ĠAf ghanistan
Ġmel ancholy
Ġjoy s
ĠSuper man
Ġremind ing
Ġrepe ating
ĠPa per
Ġcomplex ity
Ġflo ated
ĠAb raham
Ġcalcul ation
Ġfac ilitate
ĠLa o
Ġfinan cially
ĠBu y
ander th
Ġcy ber
ĠBill ie
Ġflat ten
ĠSpe ars
Ġfle as
Ġfle et
Ġdemand ing
Ġprompt ed
Jo e
ĠInt roduce
Ġmax imize
Ġtow ering
ĠHigh land
Ġtruck s
ĠOff er
ĠAtt icus
Ġsustain ed
Ġprior itize
rian ne
ĠMet eor
De velop
Ġweigh ing
Ġrespect ful
Ġaband on
ĠLu is
Ġapolog ized
Pr im
ĠSur vey
ĠPet e
Ġunw avering
Ġstim ulation
Ġstim uli
etch up
Ġphilos oph
Ġrestrict ive
Ġunivers al
resp onse
Ġid i
Ġspect acular
ĠSy ndrome
Ġanaly t
ĠMod el
Ġlegisl ature
ĠGal ile
ĠDet roit
Ġcabin et
ĠKy ra
Ġexception ally
Ġswing ing
Ġhorn s
Ġalt ogether
ĠLight ning
ĠTre k
ĠLy dia
Jan uary
ĠJu an
ĠJu ice
ĠBoy s
oust ic
ĠToy ota
Spe ed
Ġcrypt o
Ġdur able
Ġimpl ications
ĠRE IT
Ġobl ivious
Sam antha
Ġtap est
Ġthunder storm
dri ver
Ġradi ator
Mod el
ĠUs ually
ĠFollow ing
Ġdevast ating
Ġcontrovers y
ĠRub y
Ġcomprom ised
ĠCalcul us
Ġhomeown ers
Ġpubl isher
Ġresemb les
Ġacknowled ged
Ġye ast
there um
ĠJes us
Ġenzy mes
Ġadministr ative
ĠEnvironment al
Ġtatt oo
Ġphotograph s
Ġbust ling
Ġparas ite
Ġtreas ures
ĠFal con
ðŁı ¼
)} >
Ġcompr ised
Ġome let
Ġrepur pose
Ġapocaly pse
ĠScar let
Ġstub born
Ġabrupt ly
Ġwerew olf
Ġtox ins
Ġlasag na
Ġoverse as
Ġtrium ph
Guard ians
Ġpater nal
Ġneu rolog
ĠDeterm ine
Ġorph an
Ġadj acent
Ġcondes cending
Ġsom ber
Ġinsuff icient
ĠEiff el
Ġdemean or
? ?
B ring
C O
C r
D ate
E v
F rench
F inal
G R
G rab
H igh
L unch
M in
N on
O b
O l
Q L
R ATE
S oy
S oon
S yl
S ystem
S omething
T ra
T ina
W olf
Y oda
c s
c Ã©
g ency
h ard
h ire
k ids
m em
m ake
m ary
n i
p ent
p us
p ressed
r ays
r ary
r ann
u ent
v ae
w ich
} );
Ġt l
Ġt art
Ġt ester
he nd
re ve
re quest
Ġs q
Ġo z
Ġw ounds
Ġw ander
Ġw oof
at on
it ol
it ated
Ġf itted
Ġb inary
Ġb orders
is ive
or ia
or ized
Ġm i
Ġm ound
Ġm ates
Ġp ause
Ġp ains
Ġp ushes
Ġp uffed
an ji
ed ar
ar ity
Ġh i
Ġh ates
Ġh ots
al ani
Ġl un
Ġl acks
Ġl amb
Ġl ongevity
Ġg em
Ġg ambling
et ary
et ics
Ġre jection
ĠT A
Ġhe ars
Ġst ain
se at
im ag
ad os
Ġit inerary
ĠS N
ĠS erve
ĠS orcerer
Ġan nex
ĠA R
il is
il io
ĠM E
ĠM ae
ĠC ow
ĠC ott
ĠC ycl
ĠC PU
Ġwas t
ra gon
ĠH art
ĠH ank
ĠH atter
ĠH ester
ĠH orus
ĠH inton
ĠH BO
ĠB ed
ĠB ud
ĠB ron
ĠB asketball
Ġsh it
ul ed
ĠW a
ĠW elcome
th a
ĠP roduct
ess a
el and
Ġv ows
op ian
Ġk itty
ab ella
Ġpl aque
ĠF lying
ĠF azi
Ġpro x
Ġde hyd
ud a
Ġso b
ĠG M
ĠG as
ĠG igantopithecus
ie ve
ĠR I
ĠR ide
ĠR oth
ĠR oses
ĠR izzo
ĠR enaissance
Ġj unk
ĠE tsy
Ġ( $
ĠL ar
ĠL anguage
oc ious
res ource
ry a
pl ing
Ġcl oves
ĠO k
ĠO z
ĠO re
ace y
od ox
Ġen abled
Ġad renaline
ci pher
Ġpo ets
Ġsp heres
Ġco eliac
Ġqu ir
ĠU ntil
ĠK ah
ĠK yle
ĠK ris
ĠK itty
ĠK eller
Ġun b
Ġun in
Ġun st
Ġun ravel
ĠSt age
ater al
Ġsc old
Ġsc roll
Ġbl iss
Ġbl owing
ne a
ne apolis
Ġdis l
ĠIn it
ĠIn side
Ġfl own
Ġfl aw
clud es
Ġcont rad
urn ing
Ġjust ify
Ġlist ener
Ġem erald
Ġstory line
Ġbr ick
Ġsm ugg
ens us
ĠCh ad
Ġunder w
Ġsee ks
form at
ĠV ern
Ġtra iling
Ġrec ru
Ġrec ital
Ġrec ycle
Ġdown stairs
be e
Ġapp rent
ĠShe ep
ere r
Ġche wing
Ġsl iding
ank ed
Ġrel ent
Ġret ali
Ġsur rend
Ġent icing
Ġhum mus
ual ity
Ġcr imes
Ġgu iding
ram er
Ġlar va
Ġfin als
Ġgl oom
Ġap nea
Ġph ases
ats by
Ġrest art
Ġlo af
Ġass ure
Ġass ured
Ġbo omer
me red
Ġcle ared
Ġ6 9
Ġsw itches
Ġinter rupt
ross ed
Ġgener ating
Ġgener ator
ĠRe ally
Ġref using
Ġtrans action
Ġtrans parent
Ġstate hood
Ġdel ivers
Ġpos itivity
Ġcat al
Ġpur se
Ġdist ances
to xic
ĠMar rianne
Ġmom s
Ġmag nesium
Ġpat ches
Ġpat ented
Ġpat rons
Ġsal mon
Ġpot ty
ruct ions
ĠPl ank
ĠAt omic
Ġbreak up
con tain
Ġfilm ing
Ġmar ble
Ġcal orie
Ġpay check
Ġsuper v
ĠBr id
ĠZ ane
Ġclim ates
Ġdef ining
Ġtechn ically
Ġpa ired
ccess ful
ĠCl inton
An akin
Ġspecial ists
Ġbro ker
Ġpick le
ĠAll an
Ġcap su
ĠDo ll
Ġpri zes
ĠOr d
Ġpract ition
Ġadv ised
ivers al
Ġste pping
Ġjour n
Ġdem ise
ĠInd eed
Ġwild ly
head ings
ĊĠĠĠĠĠĠĠĠĠĠĠĠ ĠĠĠĠ
ĠCar ib
ĠEl ves
Ġpack et
Ġgrand parent
Ġstri p
Ġmot ions
Ġfig ur
Ġcapt ivity
Ġsau ces
Ġbur gers
Ġremain der
13 0
medi ately
Ġaccept able
Ġsens itivity
Ġeduc ated
ĠFin n
Ġhistor ian
Ġhistor ians
aff es
ĠSw an
Ġinvent or
Ġdraw er
Ġinvestig ator
vas cular
Ġfarm house
Ġneighbor ing
ĠApp ro
ĠGl ad
Ġjoy ful
ĠMin neapolis
Ġthreat ens
Ġgrass es
Ġfac ilit
Ġparticip ated
ĠCle ar
cy cle
Ġachieve ments
onna ise
ãģ «
Ġpal ate
Ġsoci et
Ġdoub led
Ġpen al
ĠMag n
ĠMore over
ĠCom edy
asc ar
ĠOther wise
ĠAny one
ĠCa fe
IS T
Ġgentle man
Turn er
bur gh
Ġpun ish
Ġec ological
ĠMor ning
ĠMor ris
ĠBen ef
Ġsouth west
ĠPri est
ĠVis a
ĠWhe el
199 8
Ġpitch ing
Ġcomplain ts
Good night
uls a
car az
Ġmer chant
Se lect
Ġdraft ed
List en
Ġelev ated
Ġperm it
ĠMur ray
Ġ190 4
Ġdistract ions
ĠÂ £
Ġlabor atory
Ġfriendship s
arant ino
Ġlemon ade
Ġmechan ical
Ġinfect ious
Ġcritic ized
Ġchoo ses
Ġlegisl ative
Ġacceler ation
Ġmagn itude
IL L
ĠStr ong
Ġbrew ery
Ġprofession ally
ĠRome o
ĠMir ror
Ġgor illa
ĠOw en
sk am
ĠButter fly
Ġjelly fish
Add itionally
ĠGovern ment
ĠSa udi
Ġdepos it
Ġanth ocyanins
ĠClass ic
Ġveter in
Ġveter ans
Ġpray er
Ġexplos ive
Ġguarant eed
Ġdolph ins
igor ous
................ ................
Ġpour ing
Ġspan ning
sell er
ĠHon olulu
Ġfertil izer
Ġimmig rants
ĠRog ers
Ġtraum a
bro ken
Ġlad der
li hood
Ġski ing
Ġpul se
ĠJosh ua
Ġcommission ed
âĢĭ âĢĭ
ĠCub a
Ġbund le
Ġlandmark s
Ġenzy me
Ġrecon nect
ĠPine apple
Bel ow
Ġdistingu ished
Ġmim ic
Ġprev ents
Ġprosecut ors
ĠGay e
Ġentreprene urs
Ġdisag ree
Ġforb idden
Ġreminis cent
Ġconserv ative
Charl ie
Ġbetray ed
Ġglac iers
Ġprosper ity
chron ous
Ġfram ed
Ġhumid ity
Ġvom iting
Ġplayw right
htt ps
Ġcer amic
Ġimprison ed
Ġpear ls
olot l
Ġeyeb rows
Ġaspir ations
Ġuncon ventional
Ġamen ities
ĠQue ens
ĠKub lai
Ġprest igious
neum onia
Ġculp rit
Ġchrom os
ĠCroat ia
Ġcapsu le
! '
) ?
0 8
6 8
7 3
A I
A W
A my
A ugust
B ailey
C C
C K
C hat
C ool
D ire
E G
F ro
J ER
L ily
M ir
N intendo
P ig
P ath
P rep
R P
S ummer
T O
U D
W est
Y ellow
Z A
b ach
b rew
d ie
e o
f a
g ling
l ined
m atic
p ol
p owers
p ole
r r
s an
t rain
u ating
v ag
y enne
z an
Ã ¼
Ġ ____
ħ ker
Ġt k
Ġt ents
Ġt igers
Ġt innitus
Ġa rose
in ates
in ators
re f
Ġthe ft
Ġo rient
Ġw itty
at ical
Ġc ush
it ig
Ġf ing
Ġf eral
Ġf oul
Ġf avored
is ons
is hers
es pecially
Ġm as
an ache
Ġto asted
Ġh ub
Ġh oof
al ted
Ġl ord
Ġl ingu
Ġl abyrinth
as ley
Ġn iece
Ġn erd
Ġg ummy
Ġe erie
et ery
Ġre b
ent in
ĠT arget
ĠT rees
ĠT eddy
ot le
ot roph
id able
Ġhe y
Ġst akes
Ġst alking
Ġon Click
ig ma
ur ry
ĠS um
ĠS ize
ĠS ex
ĠS eth
ĠS ara
ĠA B
il ot
ĠC ou
ĠC oc
ĠC redit
ra q
out heastern
ol t
ol in
ĠH ad
ĠH ier
ĠH app
ĠB ake
ĠB org
Ġsh ampoo
ĠW ine
ĠW ii
Ġme llow
un s
un ct
ĠP oll
ĠP ounds
ĠP engu
Ġch ives
Ġch lor
Ġse verely
Ġr h
Ġcon cluded
em o
em ons
em etery
Ġv ase
Ġv oy
Ġk etchup
Ġal uminum
ort on
ĠD J
ĠD aw
ĠD ale
ĠD anny
and el
ĠF res
ĠF ry
ĠF ried
art ime
rou ps
ĠG inger
ĠG amb
ĠG ET
ĠR ou
ĠR ic
ĠR ico
ĠR aspberry
Ġj ur
ast ics
ĠL ang
ĠL ili
Ġle aped
ĠN C
ĠN ov
Ġout ward
Ġall iteration
Ġte aring
Ġtheir s
ĠĊ ĊĠĠĠ
pl aced
iv an
Ġcl utter
ĠO K
ĠO t
ĠO ffic
ĠTh ought
od o
cl ick
av ian
Ġpo pped
are a
Ġco b
ĠU d
ĠU AE
ĠK l
Ġun ple
ip le
Ġcomp at
ĠSt arring
Ġbl izz
Ġres ign
Ġam ple
Ġag ing
ond a
Ġno ir
Ġno isy
Ġper se
ub a
Ġbr unch
Ġbr isk
Ġbr icks
Ġback drop
Ġdon ations
Ġpre fers
ĠCh and
Ġfo am
ĠV I
ĠV ik
ĠV ermont
ĠV enez
Ġshort est
let ters
Ġchar coal
Ġ4 3
Ġatt ain
Ġrem ovals
Ġend ured
Ġ5 3
Ġcomm ander
Ġsl ed
Ġsl ump
Ġrel ies
Ġent ity
Ġpar rot
Ġhum ps
Ġinv ites
Ġexpl icit
Ġexpl oded
ib u
ib les
Ġsec uring
Ġform idable
ĠAs uka
Ġhand les
ĠAl t
Ġins ane
tern ity
Ġgl ist
Ġgl anced
Ġprov iders
Ġcur l
pr ising
Ġrest s
Ġrest ful
ĠBe et
ĠBe ans
Ġca res
Ġclass ics
Ġclass Name
amp a
te c
br aska
Ġve ins
Ġlot tery
Ġteam work
Ġgener ates
ĠRe peat
Ġdr um
Ġdr ums
Ġ8 1
Ġcat tle
Ġpur ring
ys sey
15 6
Ġdisc ouraged
Ġkind a
Ġ7 3
19 90
ffect s
Ġunderstand able
Ġpot ent
ĠPl astic
Ġbusiness man
ĠBl og
Ġside walk
ĠLe o
Ġactiv ated
Ġbit es
enn el
ĠBr ush
Ġbegin nings
Ġred d
Ġcou ples
Ġtem plate
ĠIs abella
Ġelect rons
Ġi ii
An imation
Ġsumm oned
Ġwar riors
Ġlow ered
ĠAll ied
ĠTo oth
ĠKeep ing
Ġquestion ed
Ġpract iced
Ġball er
Ġblood stream
Ġpret z
na pped
ĠCol lect
ĠPe ppers
Ġneg lig
ili ans
Ġtom bs
Cl ient
ĠNe bula
ĠNe braska
Ġheav ens
Ġinf ilt
oura ble
val ent
ĠDis play
Ġ} ;
Ġobs erving
ĠChe f
ĠChe yenne
Ġident ifying
IN A
Ġsad d
Ġextra vag
ĠPres idents
Ġexplore r
Ġsens ations
ĠGr iner
ico le
Ġfeed ers
Ġfear ful
Ġtrack ed
Ġinflu encer
Ġnegative ly
ĠCent ury
ams ung
ĠSer ge
200 9
Sh ow
str ich
Ġinterview ing
Ġformer ly
Ġcollect ions
Ġfat ty
Ġrepresent atives
nes ia
Ġpred icted
Ġspot light
Ġsnow y
Ġmel odies
OR E
OR S
Ġvir uses
Ġestab lishing
ores cent
sp ir
Ġdom inated
ĠBu zz
Ġassign ments
Ġmic rophone
Ġlog ic
Ġthick er
Ġbreath s
": [
Ġastron omer
Ġnetwork ing
Ġtow ers
Ġded icate
ĠHigh light
ĠPre fer
Ġpictures que
Ġpoll inators
Ġpros pect
Ġnation wide
ĠPo e
Ġcolon ial
Ġsmart phone
Ġthri ving
Ġtun ed
Ġdesert ed
Ġincorpor ating
Ġprotagon ists
Ġkingdom s
ĠPri or
Ġhyper pigmentation
Ġbab ys
RE EN
ĠAir bn
Ġunc omm
Ġ194 8
Mar io
Ġadjust ment
Ġnom inations
Ġcopy right
ĠWork ing
Ġnutrit ional
Ġgall eries
Pr in
pack ed
Ġbark ing
Ġnavig ating
Ġcher ished
John ny
Ġbuck s
Ġvent ured
Ġanaly ze
Ġtag line
Ġobst ruct
Ġpra ised
ĠHog an
ĠOl iver
Ġlandsc apes
Ġsimpl est
ĠDa isy
Ġeru ptions
ĠEv ans
Ġdemonstr ate
Ġassum ing
ĠMill er
Ġnegot iate
ĠGra ham
Ġassass inated
Ġemo ji
Ġsucceed ed
Ġrum ors
Ġmuff in
Ġinnoc ence
check out
Ġcaptiv ated
Ġbol ts
Ġtang y
Ġgraph ic
________________ ________________
Ġsuck ed
Ġresident ial
Ġiniti ative
IV E
Up on
Ġfu zzy
ĠHun ger
Ġtraum atic
Ġcowork er
Ġenchant ing
ĠStri pe
Ġbless ing
Ġaffection ate
gener ation
ĠColl ins
Ġcoup on
Ġgenuine ly
Ġpou red
ĠSav annah
ĠFle er
Ġcomprom ise
Ġintent ions
Jim my
Ġgobl in
ĠHur ricanes
Ġresemb ling
Ġchir p
ĠEll iott
Ġmour n
Ġcooper ation
\- |
ĠGoth am
eder ation
ĠPerform ance
Ġinev itable
eterm ined
Ġ79 00
ĠExper ience
Ġlob ster
ĠDor othy
lar gest
Ġbrace let
Bet ter
Ġcrocod ile
Ġcardio vascular
Ġthigh s
Ġquar ters
Ġmilest ones
feld t
ĠNeg ative
Ġshuff led
ĠDion ys
Ġbou quet
Ġpist ol
ĠMush room
ĠLiber ty
Ġobser vers
ĠMoo re
herap y
ĠDru g
Ġtrump et
Je ff
Ġnause a
ĠEur ipides
Ġelim inated
ĠBrook lyn
ĠYout ube
ĠiP ad
Soc ial
ĠElij a
Hol mes
Ġsuitc ase
ĠBerg en
ĠBirth day
ĠPoke mon
apocaly ptic
uok alani
Ġexclus ively
Ġtapest ry
request Animation
ĠCarib bean
ħker feldt
ĠLili uokalani
requestAnimation Frame
( /
> (
B R
B T
B at
B ot
B ake
B rit
B ER
B rainstorm
C ase
C oral
D S
E ver
E vent
I H
J on
J ane
K aren
L o
L ED
L arge
L uther
M ain
M aking
N et
R om
R est
S ally
T able
U t
U ntil
Z ebra
b ron
c ans
c ade
c atching
d y
e gr
f aced
f ires
g ressive
h i
h ad
k ok
k eras
l ings
l ago
l oyd
m os
o ah
p id
p ie
p ost
s ource
s ample
s pring
u its
v or
v ine
w ig
Ġ )
Ġt ens
Ġt elescope
he lls
Ġs ank
Ġs omeday
Ġo re
Ġw reck
it ations
Ġf erry
Ġf iring
Ġb red
Ġb ru
Ġb ounce
ing way
or ning
es is
es ity
Ġm ock
Ġm arch
Ġp otted
Ġp umps
Ġd ared
Ġh oo
Ġl ol
Ġl ace
Ġl itt
Ġl bs
Ġn p
Ġn inet
Ġg ates
Ġe lf
ĠI S
ĠI raq
st ant
st em
Ġre cept
ent imes
Ġbe nd
ĠT ro
ĠT iger
ĠT ouch
ĠT ICK
ĠT ulsa
ĠT arantino
ot on
ot one
Ġhe dge
Ġst ark
Ġst ung
Ġst unt
Ġst acked
am is
am ents
im en
im ity
ad vert
ad jective
ir ie
ver ning
ĠS ep
ĠS ummarize
ĠS aint
ĠS esame
ĠA k
ĠA er
ĠA ction
ĠA chie
Ġas semb
Ġas sembly
il ight
il ia
ĠM oney
ĠM SR
if ter
ĠC rit
ĠC elt
ĠC amb
ĠC amel
ĠThe ater
ch air
ri ages
ol ism
ĠH amp
ĠH ike
ĠH alf
ĠB uster
Ġsh ocks
ul ip
ul ates
est one
est amp
ĠW arm
Ġab road
ould er
ist ocr
ĠP le
ĠP akistan
Ġch unks
Ġat oms
Ġr ig
Ġr ation
Ġr ider
Ġr iches
Ġex agger
Ġ1 30
el se
em ption
em atic
qu er
Ġv icious
Ġv ault
Ġv intage
op ed
op ard
Ġk icking
Ġal tered
Ġal igned
Ġpl ung
Ġcom a
ĠD ry
ĠF err
ĠG ust
ĠG ather
ĠG olf
ĠG PS
ie ves
ĠR oy
ĠR AM
ast ro
ast ical
ĠE ight
ĠE mb
Ġnot ices
Ġnot ified
ack ing
ge e
ĠL ights
ĠL oki
Ġle ase
Ġint imate
res pect
ry pt
ĠN um
ĠN urse
Ġup side
ĠJ enny
ĠO R
ĠO skam
ace ut
Ġkn e
per form
Ġen acted
act ivity
Ġar che
Ġar istocr
ĠY u
ĠY outh
ĠHe arts
Ġco y
ĠK id
ĠK un
ĠK ash
ĠK ramer
Ġpe a
Ġro gue
Ġun real
ĠSt re
Ġsc ans
ne eded
Ġdis abilities
Ġfl av
Ġfl oral
Ġfl avored
we re
we alth
we lling
Ġpr imes
int o
Ġres ur
Ġres igned
ia z
Ġyear ly
ord ered
Ġday light
Ġper ks
Ġbr on
Ġbr ushes
Ġbr owser
Ġback l
ob e
Ġimp air
ost ic
ĠV a
ĠV ine
omet er
Ġser ial
ool s
be h
be gin
Ġchar ism
Ġra ind
Ġra ven
ple ment
Ġend ure
Ġend uring
Ġcomm ute
Ġcomm ands
iss ing
Ġadd itions
Ġsl ope
Ġcre pt
Ġrel ates
Ġac ids
Ġac claimed
Ġac oustic
Ġind ication
Ġpar mes
Ġinv al
In c
ĠUn cle
lect ric
ram ids
arm a
Ġtri pped
ĠAl caraz
ject s
ash i
Ġph obias
pr iced
Ġlo aves
ik ed
Ġmet ic
Ġpass port
Ġpass ages
Ġpass words
Ġfil med
me asure
ok a
Ġ6 6
Ġ6 7
br idge
ĠSe ction
ps y
Ġpost season
Ġmed ian
Ġinter ven
Ġinter val
Ġinter vals
Ġinter section
Can vas
Ġsn oring
Ġsub urb
Ġ8 9
cer n
Ġcent im
Ġfour teen
ys c
uc ch
ĠSh an
gan o
ĠMar cus
ster dam
Ġheart y
Ġprom otion
Ġpast ry
ĠKe ys
Ġdra ined
ĠMy stery
Ġbreak down
Ġquick er
20 17
20 18
ĠLe ban
Ġtre acher
ĠBr uno
ĠZ ero
Ġdep icted
Ġtem p
Ġtem po
ĠCl ick
ĠCl aus
Ġground breaking
Ġcustom ized
Ġgra ham
Ġtype Number
Ġmess ed
work s
ĠSc rabble
Ġcor rel
Ġpick les
Ġtest ament
Ġtree house
Ch ildren
Ġlay ered
ĠTr ad
ĠTr inity
Ġste amed
Ġste ering
ĠPro f
ĠPro per
ĠPro of
Ġ17 00
Ġmult itude
Ġprint f
12 3
Ġri bs
ĠCar n
na e
ĠCol by
ĠPe pper
ĠWar hol
Ġfig uring
Ġmoon light
Ġvol unt
Ġcapt ures
ĠQu arter
Ġbuy ers
ĠMan or
Ġlif ts
Ġsens ors
Ġexpress ive
lt ry
lo ving
Ġ25 5
Ġcam oufl
Ġinflu ences
ĠDr ac
Ġdead l
Ġrout ines
Ġsto le
ĠGreat est
ĠAust rian
ĠRed uce
Ġwat ches
Ġsett ling
AR K
Ġeconom ics
Ġspring time
ĠSuper ior
Ġscreen play
yst opian
Ġsalt water
OR GE
ĠAb ortion
bre aker
Ġmist aken
Ġdocument ation
Ġstock p
ĠCle aning
ĠAnt o
cy cled
hold er
iqu ette
ĠHar vey
ĠSpe aker
ĠSpe cies
Ġhar bor
Ġpen et
Ġsubst ances
ĠLouis ville
ĠRich man
Ġalphabet ically
Ġpoor ly
ĠTim my
Ġ195 7
IC IAL
Ġnarr ation
ĠAny way
IT Y
Ġdisappe aring
ĠSal em
Ġmir acle
Ġmir rors
Ġshut tle
ĠPlay ers
Ġhur ry
ĠAlex andra
Sp ace
ET S
Ġthin ner
ĠBen jamin
Ġcompl ications
Ġdisappoint ing
Ġgre enery
199 6
ĠRob inson
Ġcomplain ed
Ġunc ons
Ġapart ments
Ad ult
Ġreward ed
Ġhall uc
ĠSar ayak
Ġske ptical
Ġrobot ic
Ġenh anced
Ġpy ramids
Ġpin ch
Ġunivers ities
ipe lago
Ġabsor bed
Ġallerg y
Ġpeas ants
ĠKenn eth
Ġremark s
Ġ188 1
ĠMil waukee
Am ong
found er
Ġfest ive
Ġretail er
Ġstead ily
Ġchill ing
ĠDet ect
Ġpromin ence
ĠType Script
Ġmig ration
Ġmask s
Ġleaf y
ĠBas il
ĠMir iam
ĠMir acle
ĠBrad ley
Ġpretend ing
Ġmac aroni
ĠShakespeare an
Ġfant astical
ĠCin co
Ġcontrib ution
Ġrot ation
Ġcontrast ing
ĠKen ya
ĠBuild ing
Ġhook s
ĠSher iff
Ġintention ally
Ġchampionship s
Ġcham bers
ĠInter ior
Ġbol t
ĠAst ron
Ġencl osure
walk er
ĠHope fully
ĠOrgan ic
ĠCir c
ugh t
gener ated
Ġsole ly
Ġunfold ed
ĠStand ard
Ġhypert rophy
Ġintrig uing
Ġappet ite
Ġecho ed
ĠCher ry
ĠHem ingway
Ġnegoti ating
Ġfart her
Ġinev itably
Ġcircul ation
Ġtatt oos
Ġward robe
ĠHoo ver
ĠRand om
Sec ond
ĠWrit ing
Ġentreprene ur
Ġhover ing
Ġcub ic
Ġplum bing
Ġdeter ior
Ġmischie f
Ġmischie vous
Ġstrand ed
Ġcaut ious
Ġsta ples
ĠAud rey
Brief ly
idel ity
ĠSyl vie
Ġpige on
ĠLie utenant
Ġmonit oring
ĠIncorpor ate
Ġfount ain
ĠMine craft
ĠSlow ly
Eng lish
âľ ĵ
acer b
ĠTL S
Ġswir ling
Ġscal p
Ġstoryt elling
ĠPrep are
ĠMO ON
Gru yere
Ġblond e
Ġtradem ark
Ġdomin ant
Ġpenn ies
opath ic
Ġillum inated
Ġirres ist
Ġhaugh ty
ĠStew art
Ġpian ist
ĠHedge hog
ĠDise ase
Ġcrimin als
Ġprox imity
ĠRI AA
Ġsurrend ered
Ġgrandparent s
Ġorient ation
Ġfing ert
ĠMSR P
Ġparmes an
ĠSarayak u
" "
0 5
> </
A F
A le
A ut
B on
C OM
D M
D T
D ec
F ive
F red
F ace
G ather
H or
K at
L P
L ive
M H
M ult
M IN
M rs
N eed
P a
P ay
R on
S ign
S can
S ky
S now
T alk
V I
V e
V it
W ait
W oof
] );
b oo
b ows
c ore
c ame
c itation
d ec
e ches
f antasy
f amous
h ift
l onely
m al
m und
m bl
n c
n n
n is
n ov
p ad
s afe
t om
u cc
v re
v il
v oc
w ill
w atching
x c
â Ī
Ġ __
Ġt f
Ġt apped
Ġt rophy
he y
in and
Ġw ig
Ġw ield
Ġw ounded
Ġw iped
Ġw artime
Ġc ough
Ġc unning
Ġc elebrities
it iz
it arian
Ġf avors
Ġb um
Ġb ind
Ġb iodiversity
on n
on omic
is co
or ice
Ġm es
Ġm ish
Ġm aze
Ġm ocking
en ers
Ġp se
Ġp udding
Ġp neumonia
an ic
Ġto aster
ed om
ar re
ar ine
Ġd art
Ġd ign
Ġd yn
Ġd unes
Ġd ancers
Ġh ast
Ġh uff
Ġh osp
Ġh uffed
Ġh ustle
Ġl uc
Ġl ining
Ġth ou
om in
le vant
le ading
ic ates
ic ular
Ġn ib
Ġn inth
Ġn arciss
Ġg erms
Ġe rect
Ġe agles
ĠI da
st an
Ġre use
Ġre bellion
Ġbe gging
ĠT ropical
ay e
id r
am us
am orph
im ony
ad ic
ad ent
ad vant
ĠS H
ĠS ue
ĠS end
ĠS umm
ĠS auce
ĠA F
ĠA y
ĠA ccess
oo h
Ġas cend
Ġas yn
ĠM all
ĠM ons
ĠM ama
if le
ĠC R
ĠC urt
ĠC orpor
ĠC ube
ĠC ooking
ĠC GI
ch us
ra h
ra ps
ol ina
um i
um ulus
ĠH im
ĠH ig
ĠH ats
ĠH oly
ĠB ash
ĠB rain
ĠB ug
ĠB erry
Ġsh roud
ul ent
Ġne on
ĠW r
ĠW ash
ĠW edding
ag u
ag ascar
ate es
ĠP ase
ĠP ole
ĠP umpkin
ĠP ablo
Ġse am
Ġse ag
Ġr att
el ope
el itis
Ġdo p
Ġcon gest
em ort
op ter
Ġk in
ab e
ab orn
ĠD elta
ĠF erd
ĠF ederation
Ġso ar
ĠG le
ĠG ers
ĠR ex
Ġj son
ĠE thereum
Ġnot icing
Ġnot orious
Ġ" ))
ge bra
ĠL ed
ĠL ic
ĠL aura
ĠL loyd
ĠN ine
ĠN ep
ĠN ub
ĠN uclear
Ġup stairs
Ġout let
Ġout rage
ook ie
ĠJ ay
ĠJ ade
ĠJ ob
Ġcl icked
ĠO pt
ĠO ften
ous se
ĠTh ird
ĠTh under
od os
Ġhas h
reat ening
Ġad here
Ġad jective
Ġad jectives
ĠY oga
Ġqu itting
ĠU FO
ĠK al
ĠK uro
Ġro bes
ĠSt arr
Ġsc ree
Ġnew born
int s
Ġtw ists
Ġam endment
Ġno vice
Ġday dream
Ġper ched
Ġour s
Ġ19 18
Ġ19 35
Ġback ing
wn s
ft ime
Ġunder cover
ĠV ice
ĠV old
ict ions
Ġmay onnaise
Ġnum b
Ġdown s
Ġchar ities
Ġ4 50
vent ions
Ġatt entive
Ġrem ed
Ġcons erve
Ġsl ot
Ġrel ation
Ġfollow er
Ġsk il
Ġsk ysc
Ġac ademy
sw orth
Ġinv asive
Ġmon uments
Ġshow ers
In side
Ġcr aters
ĠWe ight
Ġread ily
Ġcharacter istic
Ġlar vae
Ġtri o
Ġhand led
Ġins ulation
Ġgl ory
Ġrep orter
Ġph on
Ġph obia
Ġcur b
Ġloc ally
Th ings
io chus
Ġca ution
ĠHow l
Ġwr ists
here al
Ġhead aches
Ġhead quarters
ex cept
Ġcount y
ric ia
ĠSe vent
fl oat
ov itz
Ġsn ugg
Ġsn apped
Ġho ard
Ġimport s
ĊĊ ĊĊ
ĠSp ider
uc ing
Ġdevelop ments
Ġair ing
Ġdisc ont
ĠSh adow
ĠMar iners
ĠMar tha
ĠWh is
19 60
Ġsing les
Ġpat ron
Ġmark ers
ĠOn line
ĠKe ef
Ġfunction ing
Ġ9 9
Ġprot ested
uss ia
Ġsuper powers
As k
Ġdef icit
put ers
An n
Ġcap ability
ĠPr att
Ġeffect iveness
Ġblue berry
Ġage nda
Ġsuccess ion
Ġkey word
Ġperform s
Ġlay man
ĠPro b
Ġbutter y
Ġtast ed
Ġsho emaker
urs ively
Ġmod ify
Ġri ot
Wh ose
Ġfire works
Ġda unting
So ft
irt ual
ĠNe igh
ĠCon n
Ġinf inite
Ġmoder ation
Ġsat ir
Ġident ifies
Ġmater nal
Ġtable t
ĠTe en
Ġtemper ate
ĠPark s
ĠCo ach
kn ow
Ġattract s
Ġdeg ener
apt ist
Ġport ions
Ġfamous ly
Ġcoll ar
Ġintern ment
Ġworth y
add ress
Ġdeterm ines
Ġprevent ed
Ġstress ed
Your s
ĠMe gan
Ġet hereal
Ã© s
Ġrecogn izes
Ġvi able
ĠAust en
Ġoption al
Ex c
ĠComm and
Ġfix ing
Ġsecret ly
Ġsecret ary
alt ies
Ġimm un
Ġinn ings
ara oke
ĠMed itation
Ġmel ts
Ġmel anin
ĠGl ass
Ġur ging
Ġinstruct or
Ġremind s
Ġstick ing
rib ly
Ġtarget ing
Ġemerg encies
Ġmeant ime
ĠPar liament
che ting
Ġupd ating
Ġarm ies
Ġparticip ation
Ġadm ired
person al
Ġlog ged
Ġund o
Ġopt imal
Ġexcell ence
Every thing
Ġship w
Ġatmosp heric
fill Rect
Ġdoub ts
AL L
Ġcivil izations
Ġge ographical
Ġreact ors
ĠPort al
ĠPol icy
ĠPre judice
Ġcomment ary
ĠCons ervation
Ġden ying
claim er
Ġnumer ical
Ġnotice able
ĠStud ies
ĠFrank ie
Ġmir ac
Ġcontract s
Ġqual ifying
Ġautom atic
ĠGrand ma
Ġlimit ations
Ġ: =
ĠSmith sonian
Ġpatient ly
ĠOut put
Ġincorpor ates
Ġspark ed
ĠRec ord
bu ilt
org i
Ġproud ly
Ġfort un
Ġment or
Ġoutput s
Ġpill ars
Ġce il
osaur us
Ġmyth ical
Ġgir affes
Ġpup s
List ener
Ġtransl ates
Americ a
ĠYellow stone
Ġ190 3
Ġbark ed
Ġstim ulating
Ġyell ing
Ġstir red
ĠCor nell
ĠVol can
ĠKenn el
Ġintegr ity
Ġkiss es
Em ploy
iat rist
writ ers
Ġemphas ize
ĠMil k
Ġdecre ases
ĠSee ing
Ġunicorn s
Ġaccomplish ments
asm ine
Ġbull dog
Ġcabin ets
ĠIce land
Ġutil izing
Ġphilosop her
Ġconqu ered
Ġamb iance
Ġcarr ot
ĠAngel ou
IF A
196 7
Ġtort oise
Ġgig antic
rep resent
Inst ead
ĠHel en
ĠKnow ing
Ġconsult ant
ĠIsrael i
Ġcomed ian
Ġinfant ry
Ġrein for
ĠDou g
ĠFar mer
char acter
ĠPig gy
Ġperman ently
Ġsatell ites
ĠStat ue
Ġirrit ated
Ġdevast ated
Ġsucc inct
Ġfry er
Ġbub bly
Ġpou ltry
ĠCoun sel
Ġfierce ly
Ġsubt ract
Ġbarbe que
TER SH
Ġslog ans
Sl ide
ĠJoy ce
Ġcraw l
Ġdorm ant
ĠNY C
ĠNorm an
ĠVin ci
Ġmathemat ical
ĠBry an
Ġscrap ing
Ġgran ulated
Ġindu cted
ĠJam ie
Ġdispos able
Ġcounsel or
Ġcommunic ating
Ġcarn ival
Ro bert
ĠOak land
Ġcrocod iles
Ġcaut iously
Ġshru gged
comb ustion
Ġmiser able
Ġbom bing
rape ut
ĠBuff ett
Ġproport ion
Ġhood ie
Ġsup reme
Ġende avor
Ġarrang ement
Ġmasc ot
Ġseiz ures
Ġprol ific
Ġcrick et
ðŁĮ Ī
Jess ica
Ġpave ment
Ġregist ered
ĠBrother s
ĠCarls en
Ġelectroly tes
Ġmand atory
ĠChall enger
Ġelig ible
Ġbrack ets
Ġmaneu ver
ĠPik min
ĠJur assic
Ġspat ula
ĠEnc ourage
Ġpony tail
blood ed
Ġharass ment
apart e
Ġtrill ion
ĠArk ansas
ĠEmphas ize
Break fast
Ġpizz as
Ġgad get
prote in
ĠVern on
prising ly
Ġuncomm on
ĠDrac ula
Ġfingert ips
ĠPase k
ĠNub is
ĠVold emort
' '
0 3
0 4
0 7
2 000
2 70
A ir
A gent
B illy
B ASE
D s
D raft
D IS
F A
F un
H el
I r
J erry
K y
M c
O G
O k
P H
P y
R ay
R ub
S leep
S alt
S elf
T L
T unes
T ravel
V s
W S
] ),
b ble
b oth
c all
c ence
c ott
c ounter
c ule
c inn
c opy
d s
d oc
d oll
d epend
e very
h ighest
l oses
l ibrary
m id
m ist
r ina
r unning
s ite
t ick
v id
v ings
w heat
Â ®
ï ĥ
ĉ ĊĉĊ
Ġ q
Ĥ ¬
Ġt sun
Ġt bsp
in ent
in se
in ished
re ement
Ġs avor
Ġs outheastern
Ġo bey
at ar
at omy
Ġc ant
Ġc ater
Ġc ited
Ġc ube
Ġc oding
Ġc idr
ou ched
it i
it ans
it ious
it ative
it uary
it utions
Ġf ract
Ġb ash
Ġb room
Ġb ases
Ġb erry
Ġb umble
Ġb inge
Ġb ouncing
on er
on ight
is ins
Ġm g
Ġm ating
Ġm asters
en iable
Ġp ac
Ġp uff
an cial
ar in
ar ate
Ġin ward
Ġh ops
al one
al ign
Ġof t
Ġl od
Ġl ays
Ġth irteen
om i
le gged
ll ie
Ġn asty
Ġg le
Ġe go
Ġe ternity
ĠI V
ĠI ter
ow els
st en
ac a
Ġre build
Ġbe asts
Ġbe wild
ĠT all
ĠT ung
Ġst ellar
se ed
im oto
ro vsky
ig ilant
ir ut
ir able
ir ates
ur able
ĠS it
ĠS ac
ĠS em
ĠS ah
ĠS olar
ĠS odium
ĠS amsung
Ġwith stand
ĠA quarium
oo ze
il er
il st
ĠM ull
ĠM erry
ĠM amm
ĠM idge
ĠC elebr
ĠC asc
ĠC hess
ra form
Ġha re
ĠH ut
ĠH ob
ĠH ash
ĠH over
ĠH azel
ĠB os
ĠB ass
ĠB old
ĠB ott
ĠB order
ĠW ikipedia
ant ically
ist ent
ist ically
un ci
un ior
th an
ĠP ow
ĠP owers
us ually
Ġse ating
Ġcan opy
Ġr uth
pp erc
pp ortun
Ġex quis
Ġex acerb
Ġdo ggy
Ġcon vention
em pl
Ġv on
Ġv ines
Ġv igor
all ic
ĠD ust
ĠD uc
ĠD iary
ĠD akota
ĠF ront
ĠF DR
Ġli vest
Ġso aking
Ġso fa
ĠG on
ĠG room
ĠG ummy
Ġher mit
ĠR ather
ĠR ewrite
ĠR iders
Ġj ets
Ġj aws
Ġnot ing
Ġ" -
ĠL or
ĠL ind
ĠL IN
ĠL ux
ĠL OLL
Ġle ver
Ġle ash
Ġint act
oc cup
Ġ2 30
ĠN ations
Ġout age
Ġout look
Ġmo an
ind ere
ĠJ ar
ĠJ obs
our cing
Ġcl ad
Ġcl erk
ĠO il
cl ip
Ġad vers
Ġad min
Ġsp here
Ġar rog
ĠY OU
ĠK il
ĠK ra
ĠK idd
ĠK ai
ans wer
Ġpe ep
Ġro pes
Ġun not
Ġun pack
Ġun cont
Ġtr action
Ġsa iling
Ġsc rolling
Ġsc arcity
Ġbl ows
ne gan
Ġdis close
Ġfl ap
Ġover s
orm an
Ġpr ic
Ġpr aying
Ġpr istine
Ġres id
Ġres ide
ount ing
Ġtw inkle
Ġam mon
ang les
Ġem bed
ish a
Ġper f
ub arb
Ġbr ist
ign ant
Ġ19 26
Ġ19 28
Ġ19 38
Ġ19 32
ob iles
Ġdon ated
Ġpre valent
ens ing
Ġimp uls
ft s
ars al
ĠV irtual
get Con
Ġtra ject
vers ion
." ,
Ġ4 7
Ġatt ic
Ġatt achment
oth ic
Ġaw s
Ġcons oles
ank a
ank ind
aw i
hy l
Ġacc ol
Ġrel atable
ef ined
Ġcar b
Ġret ro
Ġdec adent
sw ald
Ġind ie
Ġind icated
Ġinc ub
In GB
Ġcr ate
Ġcr ushing
Ġbook ed
Ġform ats
ins ic
ix on
ĠAl one
Ġfin es
Ġfin ale
Ġmin im
Ġrep ublic
ĠBut ler
Ġcur ved
Ġrest oration
Ġlo ading
Ġsupp orters
Ġmet amorph
Ġtext ures
Ġbo ards
amp ing
ex ter
ger ald
ĠAnd erson
br other
ĠSe an
ps ons
arch y
fl oor
aut hor
Ġsw ore
Ġsw oop
Ġmed als
Ġinter rog
ues e
weet ened
Ġsub headings
Ġ8 8
ĠAn imals
rop olis
Ġval ign
Ġdisc on
ask s
Ġkind ly
ĠMar iana
Ġob esity
Ġob ituary
ĠJo an
ĠJo anna
19 70
Ġfore x
Ġsal ted
Ġpast ure
ĠPl ate
Ġwa iter
chn ology
20 14
Ġmar bles
ĠLe ft
ĠLe bron
Ġwin ters
But ton
Ġsuper f
Ġsuper vision
aj a
sh aman
Ġface book
ĠBr ight
ĠZ ika
Ġconf ron
idd itch
Ġeng ulf
ĠCl a
Ġsumm aries
Ġhot ter
ĠSc an
ĠSc ream
ĠEx ped
ĠEx ercise
ĠPr ice
Ġcheck list
Ġenc oding
bed room
Ġdream ing
Ġhold er
Ġz oom
Ġlay person
Ġ12 1
ĠPro ble
itch ing
Ġcream s
Ġequ ity
Ġslow ed
Ġcomb ining
Ġsoft ball
12 5
Ġbar red
Ġdest ined
ĠWill ie
ĠPe ggy
Ġfire place
hel an
Cl oud
ĠNe il
ĠNe anderth
ĠCon way
Ġgen ome
Ġsil ently
Ġoper a
Ġoper ational
ðŁ §
ĠAm anda
Ġbag els
ĠPh ill
ĠPh one
IN BASE
Ġesc aping
Ġbal ancing
Ġnovel ist
ĠTV s
Ġappear ances
Ġban ning
Ġport able
bert ies
Ġsurv iving
lo aded
ĠFin ish
ĠFin ley
ĠFin negan
Ġspeed ing
Ġet iquette
ĠRes ources
irm isher
Ġdial og
Ġdial ect
Ġswe pt
Ġswe ater
Ġple a
Ġdraw ings
ĠSer ial
200 2
200 5
Ġpercent ages
Ġstruct ured
Ġdecl ining
Ġsubject ive
Ġattack ing
Ġimm ortal
Ġbi as
Ġmel ody
net ic
ES ENT
ext end
Ġrepe ats
Ġcross es
Ġrelax ation
Ġgrass y
AN SW
Ġble nds
Ġble eding
ĠLou ise
uk o
Ġhom age
Ġrev ised
ĠPar amount
Ġhun ters
Ġmatch ing
Ġcondition ing
ĠAnt iochus
ĠPer u
ĠPer fect
Ġguess ed
ĠCr ater
Ġneck s
Ġund oub
Ġopt ic
ĠPat rol
Ġblock ing
ĠSpe cifically
ĠMon a
ĠBlue berry
Ġdev oted
Ġprompt ly
Ġpen ny
AL OO
Ġtim eless
Ġge ys
Ġge ographic
urch ase
Ġmax imus
Con f
Pl an
ĠCom mer
ĠPre vention
Ġprop riet
Ġtend r
Ġspr inkle
ĠMus cle
Ġ195 4
ĠJul ius
ellig ence
ĠStud y
ĠSim psons
Ġpand a
ĠAct ress
ĠPart icip
Ġspell ed
ĠList en
Ġhur ried
Ġcolon ists
Im port
Ġcrack er
Ġec st
Ġnav y
Ġdesert s
Ġeth ical
Ġmanufact ured
gl asses
Pro s
mo il
Ġgre ed
ĠRob ot
Tr ue
Ġkil ograms
Ġ194 2
Ġsusp ension
Ġtur moil
Ġpure ly
Ġinnov ations
ĠCO INBASE
Ġimplement ed
aver ly
Ġapolog etic
ĠMad agascar
ĠPet erson
ĠPet ito
Ġgri pped
ĠMur phy
Ġpropos ing
Ġyouth ful
Ġteasp oons
ĠCap itol
Ġreven ues
Ġblend ed
Ġwire less
Ġdim ension
ĠMid west
Ph il
Ġtent acles
ĠDef ense
Ġ188 6
Ġ188 8
AP P
AP ALOO
ĠGar lic
forest ation
Ġchill ed
Ġconcent rations
Ġmig rants
ĠImp ro
Ġanal og
Cont in
Ġcontest ant
Ġcontest ants
Ġremem bers
Ġillness es
Ġconstruct or
Ġlamp s
ĠCin cinn
Ġanticip ated
ĠSky walker
ĠRow an
ĠĠĠĠĠĠĠĠĠĠĠĠĠĠĠĠ ĠĠĠĠĠĠĠĠĠĠĠĠĠĠĠĠ
Ass ign
Ass ault
ĠGro ot
Ġsque ak
ĠRE QU
ĠIndepend ent
DO ORS
Ġgraph ics
Start ing
Ġcel ery
ĠVe gan
Ġpersist ent
ĠBrazil ian
Ġorb iting
Ġoutl ined
Ġstrict ly
Ġscratch y
Ġscan ning
Ġrecycl ing
Rep ublic
don ald
ĠHor izon
ĠRest aurant
Ġinsight ful
ĠSong s
Ġsynt ax
Ġdipl omatic
EST ION
ĠHur ricane
Ġrit uals
ĠChild hope
ĠHistor ic
ĠCorn er
Har per
script s
ĠLeon ardo
ĠJer usal
ĠVill agers
âĢįâ Ļ
Ġproced ure
imb us
ĠPic asso
ĠPers ian
Ġcarn iv
arciss us
Size InGB
ĠÃ ħkerfeldt
Ġserv ants
Ġunp redict
sur face
ĠPR ESENT
Ġmillenn ium
Ġcuc umber
Ġhambur gers
ĠTHIS RATE
Hist ory
Lear n
ĠPlat form
Ġutter ly
Ġsevent h
ĠBenn et
Ġadul thood
Ġappropri ately
sub net
Ġvend ors
Ġgau ge
Ġlifes pan
Ġdub bed
Ġextr ater
Ġmetab olism
ĠAnton io
Ġtodd ler
Ġquot ation
ĠAlban ian
Sus an
Ġlull aby
Ġtempor arily
OFF ICIAL
Ġphilosoph ical
Soy uz
Ġboomer ang
Ġveterin arian
Chat bot
JER RY
ĠVenez uel
Ġballer ina
Ġunreal istic
Ġimpair ment
Ġtreacher ous
Ġuncons cious
ĠAF TERSH
ĠCorpor ation
ĠFerd inand
ïĥ ¼
ĠLOLL APALOO
indere lla
Ġunnot iced
getCon text
Ġtraject ory
Ġundoub ted
ĠCincinn ati
ĠJerusal em
ĠPRESENT ED
ĠAFTERSH OW
ĠLOLLAPALOO ZA
$ (
. ?
3 50
? '
? âĢĻ
A p
B ur
B ear
B arb
C a
C in
C ute
C ON
D ad
D ep
E ric
F le
F ast
F ine
F acebook
F eed
I ENT
J ul
J acob
J ean
L ady
M ath
M ex
M oon
N a
P ar
P ur
P ort
P rior
R ain
R ich
R icotta
S I
S everal
T esla
a ic
b elt
c ream
d em
e ating
e br
g ical
g roups
h ar
h ave
j e
l ater
l iness
m ag
m ia
m ilk
n ail
n ia
p osed
p resent
s ounding
u er
u ition
y u
y ro
} >
Ã ¤
Ã §
Ġ \
Ġ _
Ġt orts
Ġt anks
Ġt ags
Ġa ver
Ġa hk
Ġs atur
Ġs outheast
Ġthe rapeut
Ġo v
Ġo we
Ġo strich
Ġw oken
er ic
at ility
Ġc av
ou m
it ives
Ġf ury
Ġf raction
Ġb iz
Ġb iking
is se
ing ling
es y
es ters
Ġm a
Ġm oth
Ġm oose
Ġp ity
Ġp iled
Ġp ounding
an ity
Ġto ken
Ġto ads
ar ians
Ġd oth
Ġd izz
Ġd azz
Ġd ungeons
Ġh ath
Ġh uh
al ong
Ġl ent
Ġl av
Ġl icking
om o
om orph
ic ist
ic ity
Ġg anache
Ġg othic
Ġe agle
ĠI ago
ĠI RA
ow a
st ill
st ruction
ac ies
Ġre per
Ġbe ck
Ġbe ams
ĠT rophy
ot he
Ġhe ct
Ġhe el
Ġst utter
am ilies
se x
im ited
ĠS we
ĠA U
ĠM C
ĠM t
ĠM as
ĠM ak
ĠM ack
ĠM ead
ĠM illy
ĠC au
ĠC ob
ĠC ert
ĠC arm
ĠC ustom
ĠC ris
ĠC opy
ĠThe me
Ġwas ting
ch a
ch ment
ra ged
Ġha il
Ġha unt
Ġha irsty
ri pe
Ġwe ed
ol k
ol and
ĠH aim
ĠH iking
ĠB ir
ĠB ond
ĠB ody
ĠB ah
ĠB uc
ĠB ald
ĠB ella
Ġsh am
Ġsh ores
est ead
Ġne arer
ĠW ear
ĠW oof
ĠW averly
ome gr
ag ious
Ġor ca
pe z
Ġab du
ist ence
th usi
th reatening
ĠP ul
ĠP iet
ĠP assion
Ġch ampions
us cript
Ġcan oe
Ġr het
Ġr igorous
Ġex cluded
Ġex terior
el le
Ġdo om
Ġcon gress
qu es
Ġv iny
op art
Ġk icks
all ing
Ġpl ush
Ġcom et
Ġcom ics
ĠD M
ĠD oy
ĠD rop
ĠD anish
ĠD addy
and al
and om
ĠF ool
ĠF ashion
ĠF IFA
os ion
Ġpro clamation
ĠĠĠĠ ĠĠ
Ġso aked
rou ch
ĠG er
ĠG and
ĠG og
ĠG ift
ĠG oose
ĠG reens
ĠR ust
ĠR anger
Ġj er
ĠE C
ĠE ating
ĠE asy
ĠE scape
ĠL anc
ĠL MC
Ġle aping
Ġint oler
oc y
res cent
ĠN E
ĠN ar
ĠN ation
ĠN est
ĠN ina
ĠN PR
Ġout going
ĠJ ac
pl t
iv ation
Ġcl umsy
ach ie
ace ous
od us
per ors
Ġen rolled
act ly
ci als
Ġman uscript
av in
Ġsp un
ĠY ui
Ġco ating
ĠK ut
ĠK end
ĠK err
ĠK rist
ap en
Ġun rest
Ġun healthy
Ġcomp ress
Ġim pending
Ġtr anqu
Ġsa iled
ĠSt reng
Ġsc ented
Ġbl u
Ġbl aze
Ġbl essed
Ġdis advant
ark y
Ġnew com
Ġhel ium
Ġpr ow
Ġpr icing
Ġcont amin
Ġres in
ph r
ph ib
Ġtw ent
Ġam ber
ru ly
ru ptions
ors hip
Ġper il
Ġper imeter
Ġbr ink
Ġdes erved
ob ody
ĠCh in
ĠCh oice
ĠCh ili
Ġuse State
Ġafter life
ĠV ac
ĠV ery
ĠV anders
get Element
Ġrec re
Ġfun gi
Ġchar ity
Ġmu nd
Ġra pping
Ġeven ings
Ġche ered
Ġ4 6
Ġrem oves
Ġaw ak
Ġ5 8
Ġcomm ut
iss ue
Ġadd icted
Ġsl aves
aw ks
Ġperson a
Ġcar c
Ġcar go
Ġsur real
Ġdec imal
Ġac ron
Ġac orns
Ġpar chment
Ġinv aded
Ġinc ons
Ġmon aster
Ġmon oxide
erm it
Ġcreat ine
Ġfound ers
ĠAl cohol
Ġgl oss
Ġrep s
ody nam
Ġsim mer
Ġreal ization
Ġcur rencies
Ġrest room
Ġreg ener
ĠBe e
ĠBe irut
Th inking
uck er
uck oo
ik h
ik ola
Ġpass ions
Ġwr ink
Ġrun ners
Ġnight ly
Ġfil ing
Ġey ed
Ġpres erved
Ġpres erving
te ch
ier re
Ġunt ouched
ric hes
ĠAnd re
br inging
rand int
Ġhouse w
Ġhouse keeper
ĊĠĠĠĠĠĠĠĠ ĊĠĠĠĠĠĠĠ
ĠCan al
Ġsw at
Ġsw orn
Ġ10 1
Ġexp ose
Ġsub div
Ġel astic
ĊĊ ĠĠ
ĠRe e
ĠSp aghetti
Ġfact ions
Ġsign up
Ġsong writer
Ġsol itude
ĠAn aly
St ation
St and
Ġpol enta
Ġdi arr
Ġdri p
ides cent
att on
att ention
Ġdist ress
arent ly
Ġlive ly
irl s
uff er
Ġfunction ality
Ġwind ing
Ġ9 2
Ġ9 3
ĠMy th
20 11
20 13
20 22
Ġmar rying
Ġmar riages
Ġactiv ists
ĠFl at
ĠFl uffy
Ġmean ings
gr aded
Ġreview ing
aby te
ĠCl ar
Ġground ed
Ġseem ing
Ġcustom s
Ġfr owned
Ġwar mer
Ġaud ition
ĠEx amples
Ġcor rupt
Ġpick led
Ġoffer ings
ĠUS SR
ĠDon uts
Ġperform ers
Ġorgan izers
Ġadv ances
Ġlim b
Ġste alth
Ġste aming
Ġjour neys
Ġspecific ations
Ġequ ator
Ġsho ppers
Ġdem ons
Ġri pp
ĊĠĠĠĠĠĠĠĠĠĠĠĠ Ġ
ĊĠĠĠĠĠĠĠĠĠĠĠĠ ĠĠĠĠĠĠĠĠ
ĠCar bon
Ġmount ed
ĠWill is
Ġpet ition
ĠCol on
Ġfru ity
Ġplanet ary
Ġgrand son
Ġgrand daughter
Ġstri ving
ĠNe ptune
Ġcool ed
Ġ16 0
Ġmoment um
Ġbot hered
Ġcelebr ates
Ġvol atile
Ġobs ession
ĠAm azing
ĠAm sterdam
ĠChe ster
Ġphot ograp
Ġrecommend s
Ġinsp ires
Ġabs ent
ĠMan ning
Ġsad ly
go ers
ĠTe acher
ĠCo ke
ĠCo ver
Ġens l
She et
Ġ197 4
Ġ197 9
ĠGr anger
ĠGu ys
Ġlower ing
ĠEm ail
ĠEm brace
Ġpath ways
Ġcompet itions
add Event
Ġsche mes
Ġeduc ators
Ġdeterm ining
Ġbrand ing
ĠMe at
ĠMe ans
list en
Ġdevelopment al
Ġpig ment
Ġdead line
Ġple aded
200 4
cast ing
Ġcollect ive
EN G
ĠApp les
ĠJan ice
yl um
Ġthreat en
pro file
Ġrepe l
Ġburn out
Ġcas ino
Ġsaf est
Ġaddress es
Ġbra very
Ġbehav i
Ġstreet car
Ġcro iss
Ġtrain er
Ġviol ently
ĠTy pically
ĠTurn ing
Ġguess es
Ġtrust worthy
Ġcy cl
Ġpal ms
Ġsymbol ism
Ġlack ing
ĠIm mediately
ĠAss ume
Des ign
()` ,
IT H
Ġer osion
Ġsmooth ly
Ġoffe nd
By Id
Ġshut ting
bur ger
ĠPal m
Ġcolon ization
Br ad
Br own
Ġenthusi asts
Ġcrack ing
Ġhat red
ĠMor rison
ĠBrown ie
Ġeth ics
Ġshout s
mo ving
ĠEr nest
199 4
199 7
RE E
Ġfab rics
ĠEmp ress
yn ch
Ġunc overed
Ġ189 4
Ġmut ation
Ġmut tered
ĠThanks giving
ĠFore ign
Ġframe work
Pr otect
Ġgri pping
Ġhousehold s
ĠÂ °
Ġmort ality
Ġic on
Ġic ons
Ġworkout s
Ġcin ema
Ġembr aced
Ġresearc her
Ġlas ers
Ġmicro sc
OW N
Ġdear ly
found ed
Ġretail ers
Ġpra ising
Ġphenomen a
Ġsin us
Ġscar f
New s
Ġbull man
Ġconcent rated
Ġdescend ed
Ġsubm itted
Ġoptim ism
Ġmig rate
ĠKy oto
Cont ain
ĠHead less
Ġzoo keeper
Ġacid ic
.' "
ĠMem bers
ĠLoc al
ĠBird s
Ġconqu est
Ġacqu ired
ĠTrans it
Ġburst s
ĠCommun ications
Ġinhab ited
GE ORGE
ĠHum pty
Ġquant ity
Ġcontribut ing
Ġloose ly
Dis ney
ĠJon athan
Ġille g
Ġfasc inated
Ġdiscount s
Ġpron unci
Co ffee
aun er
ĠBon us
Ġrum ored
lam as
ĠBal ance
aterpill ars
Ġretreat ed
Ġearthqu akes
ĠIN T
ĠAven ue
Ġoun ce
ĠFur ious
Ġtor ment
ĠJour ney
ĠGlob e
ĠTer rit
Ġiniti ated
Mod ule
ĠWind ows
Ġchef s
Ġvolunte er
ĠLeg acy
ĠRepresent ative
Ġscholars hip
Ġscholars hips
Ġenchant ed
Ġped al
ĠChurch ill
Ġmanufacture rs
Ġuniform s
Ġinsist ed
Ġblur red
Ġhumming bird
Ġchir ping
Ġpant ry
plot lib
ĠUk rain
Ġhaz ards
Ġfrag ile
Ġtu ition
Ġod or
ĠVill age
Ġrecover ing
bi ased
ĠTreat s
Ġintr ud
Ġtoler ate
ighth ouse
Ġprecise ly
Ġverte bra
Ġverte brates
ĠWrit ers
Ġexecut ed
Ġerupt ed
Ġrevel ation
ĠKiss inger
Back ground
low e
ĠEle phant
ĠDV D
Ġproport ions
Ġdeliber ately
Ġpige ons
Ġaston ishing
Ġstereoty pes
Ġstereoty pical
ĠOd yssey
Ġswallow ed
ĠIncre ase
Ġcuc umbers
Ġhambur ger
Ġna ive
ĠIndust rial
hk ovich
Ġmant le
Ġgate way
Ġinherit ance
Ġcommemor ate
lay ers
ĠSci ences
Ġadoles cents
Ġcryptocur rency
Ġmun icip
Ġvib es
Ġnons ense
Beaut y
Ġslee ve
Ġech oes
Ġunve iled
ĠHyd rogen
Egg s
Ġanagram s
ophy ll
pri vate
ĠServ ices
ĠFitz gerald
Ġdisgu ise
Ġcoloss al
Ġattrib utes
Ast ron
ĠLiter ature
ogel bach
angel o
effect ive
Ġincomp lete
Ġsubdu ction
Ġinfra red
Ġciv ilians
Ġpestic ides
Ġreef s
ĠOtt oman
ĠSmooth ie
Syl vie
otroph s
Ġunple asant
Ġblizz ard
ĠAirbn b
Ġkne el
Ġcentim eters
ucch ini
ĠGers hkovich
Ġremed ies
Ġsatir ical
Ġshipw reck
Ġundoubted ly
Ġtherapeut ic
Ġbiz arre
Ġlav ish
Ġhairsty les
omegr an
opart icles
getElement ById
addEvent Listener
% )
) "
A gain
B o
C le
C ow
C ent
C am
D P
D ou
D ig
D ue
D ark
E A
E nd
E ye
E ventually
F act
F ound
G rand
G ET
I de
J our
L iving
M ed
M ac
M antis
O H
P I
P O
P arent
S end
T oo
T ON
T IS
W al
Y BN
b ad
b ag
b able
b aked
b uds
c ab
c row
d id
f us
f ry
f ont
f ashion
g ian
g und
g azing
g rey
h ou
h ot
i ol
j u
j ad
j our
k h
l ift
l anguage
m ay
m ers
m atch
n ity
n els
p rom
p acks
q tt
r atory
s il
s ort
s av
t ic
t all
u pe
u bert
u pel
v pc
w ick
x cor
y cor
z one
z ale
Ġt ides
Ġt apping
Ġt aun
Ġt arot
Ġa ug
Ġa ka
he ps
in f
in us
in ters
in ement
in oid
in ery
Ġs ack
Ġs inking
Ġw ack
Ġw ages
Ġw edd
Ġc ad
Ġc ries
Ġc ement
Ġc yl
Ġc odes
Ġc emetery
Ġf ir
Ġf able
Ġf ists
Ġf ades
Ġf ateful
on o
on gh
is ation
or ange
Ġm age
Ġm itig
en zie
Ġto re
ar ia
ar led
Ġd uel
Ġd wind
Ġd ensity
Ġd arling
Ġin advert
Ġh ord
Ġh ij
al ach
Ġl ure
om ous
ic ion
ic one
Ġg ag
Ġg ust
Ġg rie
Ġe ater
ĠI R
ĠI owa
st ock
st atus
ac inth
ent ify
Ġbe aring
Ġbe lls
Ġbe ads
ĠT x
ĠT us
ĠT ob
ĠT roy
ĠT MA
ĠT eton
ĠT ampa
ut f
ut ral
ot ics
Ġhe ter
Ġst am
Ġst oring
Ġst agger
Ġon c
Ġon board
am ie
im i
im ble
ur ities
ĠS O
ĠS ed
ĠS ite
ĠS aur
ĠS ister
ĠA H
ĠA uto
ct r
Ġwh oles
ĠM ans
ĠM alt
ĠM ocking
ĠM asters
if i
if lower
ĠC el
ĠC os
ĠC ash
ĠC rist
ĠThe o
ch ild
ri ents
Ġwe athered
ol an
ol ition
ĠH as
ĠH us
ĠH ep
ĠH air
ĠB ot
ĠB oom
Ġsh ocking
ul iflower
ĠW el
ĠW ords
Ġab dom
rom at
ĠP app
ĠP ope
ĠP OV
Ġch ai
Ġch rist
Ġch unky
Ġcan cers
Ġr ally
Ġr ational
el ena
Ġdo d
Ġcon e
Ġcon cess
Ġcon cluding
Ġwor m
qu art
qu arter
qu oise
Ġv ain
Ġk arma
Ġal pine
Ġpl ed
ĠD um
ĠD ies
ĠD ear
ĠD ancing
ĠD rama
ĠD iaz
ĠF ew
ĠF und
os pel
Ġpro ps
Ġde w
Ġde eds
ud ent
Ġbut ler
ĠG ov
ĠG lo
ĠG YBN
ĠR um
ĠR ise
ĠR ange
ĠR ica
ĠR ita
ĠR BI
ide a
ĠE X
ĠE mer
ĠE vent
ĠE state
ĠE agan
Ġint est
Ġint uitive
res a
ĠN O
ĠN AME
ĠN ixon
Ġup bringing
ĠJ et
ĠJ ose
our bon
ine z
Ġfe ared
pl ess
Ġcl ack
ĠO LED
ous ing
Ġkn ots
ear th
ĠTh r
ĠTh ief
Ġen abling
Ġad orned
Ġman ners
Ġpo acher
Ġar ises
Ġget away
Ġtime ly
ĠY e
ĠY esterday
ĠHe at
ĠK ip
ĠK any
ĠK elly
ĠK iy
ĠK otone
so ld
so ka
ile m
Ġpe ach
Ġro aming
Ġun ite
Ġtr ays
ĠSt ick
ĠSt ress
ĠSt adium
Ġsc or
Ġsc rape
Ġbl own
Ġover weight
Ġpr one
Ġcont ra
int he
int ed
Ġres erve
Ġres erved
Ġres olved
ire z
ph al
Ġthere by
du roy
du ardo
ell es
ren n
Ġam id
Ġ19 25
Ġpre cip
ens en
hen g
hen on
rit is
Ġuse less
Ġafter math
ĠV ic
ĠV oy
ĠV ict
ĠV ogelbach
Ġshort ened
Ġrec urring
ull ivan
be es
Ġapp ar
Ġapp la
Ġra pt
Ġra ins
Ġche ers
Ġche ering
vent ures
ath om
Ġcons ol
Ġrel ay
Ġret rie
Ġsk ull
Ġbest owed
Ġent ice
ib al
ĠWe bs
ĠWe asley
Ġread ings
Ġfound ing
Ġform ally
Ġform ations
ĠAs us
ram atic
Ġfin ed
Ġmin ers
Ġgl am
ron ut
pr ime
ĠHow ard
Ġbre asts
Ġsupp er
Ġmet res
me g
Ġturn over
Ġhead ache
Ġcle arer
Ġgrow l
hip ok
Ġcare g
Ġ18 50
Ġ18 40
eng ine
Ġev apor
ĠRe qu
ĠSp a
Ġfact orial
cer y
ret ched
And y
rop olitan
Ġdi ver
Ġproduct ions
Ġpower house
ĠMar riage
ĠAd vis
Ġmiss es
Ġsince rely
Ġbuild s
the m
Ġpat io
Ġcook book
Ġexam ined
Ġmark ings
Ġprof it
Ġprof iles
Ġes p
Ġwa ff
ĠAr ray
cient ific
ĠQ e
Ġmar in
But ter
Ġmakes hift
Ġsuper visor
Ġsit ter
Ġconf ined
Ġdesign ers
Ġdep ressed
Ġdirect ors
Ġconst ell
ĠCl ay
Ġi Tunes
Ġorigin ates
Ġgra vel
Ġfr ank
Ġaud itor
Ġhair y
ĠSc ene
ĠEx clude
ĠAll ies
Ġrece iver
ĠDo or
ĠPr ot
ĠPr isc
Ch icago
ĠUS S
ĠUS DA
ĠOr ch
ĠOr iginal
Ġfut ures
ee ly
Ġperform er
Ġadv ising
Ġfur ious
Ġlim iting
ĠTr ade
Ġterm inal
ĠHer o
Ġhy pe
ĠPro ctor
Ġbutter milk
Ġcell ular
Ġseason ing
Ġblood y
play ing
Ġequ ilib
Ġdem ographic
12 8
sc rabble
Ġbar riers
Ġri vals
Ġsqu ad
ĠWill y
ĠCol lection
ĠPe as
ĠPe ace
Ġprotect or
Ġfire f
Ġgovern ed
Ġgrand children
Ġstri pped
Ġstar ter
ĠCon clusion
empt y
Ġgrad ers
Ġdig its
ĠChe m
Ġabs inthe
Ġmembers hip
Ġbuy er
ĠAdd ison
Ġaccount ing
Ġbur ial
Ġtour ing
Ġ198 1
Ġexce eds
Ġposition ed
Al right
ĠGr an
Ġport al
AS T
ĠGu ess
Ġexpress ions
Ġkid napped
ma id
ĠMc M
ĠEvery where
su per
Ġten ant
Ġvill ages
aff in
Ġsauce pan
het ically
Ġord eal
nam ents
Ġpan icked
Ġmat plotlib
Ġswe ep
Ġinvestig ations
Ġprin ters
Ġcollect ively
Ex pl
gen re
ĠSte ak
ĠApp alach
Ġsubject ed
anz a
Ġpred ator
Ġbi ologist
Ġdecor ation
ĠGl en
Ġbank ruptcy
ĠOct op
Ġble nder
mpt omatic
bre aks
sp oken
Ġrev olves
Ġcoast s
Ġcro s
Ġtrain ers
ĠRem ind
Re quest
ani els
ĠCr own
Ġdefin itions
Ġund eniable
Ġflower ing
ĠTom orrow
Ġreflect ions
tr ue
Ġcra vings
Ġstation ary
ĠHen ri
Ġvan ity
Ġhar rowing
ham mer
Ġdev il
Ġadop ting
Ġsales man
Ġapplic ants
Bl ood
Ġge ese
Ġadvert ised
ĠMag azine
Ġsupposed ly
ĠPol ar
Ġuns weetened
Pl aying
Ġprop ag
ĠLake view
Ġbond ing
Ġ195 2
Fr an
ĠOlymp us
Ġtrail er
ĠSim on
Ġpros pective
Ġring ing
ĠPlay er
ĠPlay Station
ĠPrin ci
Ġmood y
ĠMart inez
Un iversal
Ġduck ling
Ġly ric
ĠBo ots
Ġnest ing
gu ards
ĠGrand e
ĠBen ny
Ġtight en
ĠArt ist
Ġfuel ed
ĠPri v
Ġrub bed
Ġcompl iments
Ġcrew s
Ġmeteor ites
gl ades
199 3
Ġinh ale
Ġfort unes
ĠMo ving
ĠMo ana
ĠCup s
Ġ194 7
clus ions
Ġ189 8
Ġadjust ed
Ġadjust able
ĠRet riever
Ġfinger print
Ġpup a
Ġpup il
Ġsport ing
Ġrent al
Ġlean ing
ĠHealth y
ĠReg ards
Ġmad ness
celer ation
Ġ190 8
Ġdistract ion
Int roducing
Ġunivers ally
Ġcher ries
ĠTri p
Ġsweat y
Ġpodcast s
Ġdough nut
Ġguitar ist
iat ric
Ġtent h
Ġflood s
AD VER
Ġpadd les
ĠSch war
Ġris en
Ġmagn ets
Ġaccomplish ment
ĠTor ah
ĠCast ro
Ġfold ed
Ġwand ers
Ġoctop uses
Ġshr ink
Ġtrig gers
ĠDire ct
ĠBeat rice
Ġshore line
Ġcontrib utes
Ġfranch ises
Che ese
EM ENT
Ġrenew ed
ĠSk ills
ĠHum ans
Ġpoison ing
Ġclin ic
ĠRel ax
Spe cial
ĠClass ify
Ġ186 2
Ġcourage ous
Ġcock ro
Ġmail box
Ġpron oun
Ġproceed ed
Ġrevolution ary
Ġdisp ens
Time out
Ġtransm itted
Sim ple
Ġevac uation
Ġrein force
ĠAst ro
DO CT
Ġax e
Ġax is
Ġax olotl
Ġinstrument al
Cal ifornia
ĠVe get
Ġembarrass ing
Ġnurs ing
ĠSupport ing
Ġimmig ration
ĠHun ting
ĠExt ract
ĠExt reme
Ġdism iss
Com puter
ĠEver glades
Ġaccomp any
Ġsubur bs
test ing
ĠMain tain
Ã¡ n
ĠFa ith
ĠSure ly
Char acter
Ġhal ves
ĠRain bow
Ġsynt hetic
Cons ider
Ġmaj estic
ĠTan imoto
Ġpubl ishing
Dog s
OC s
Ġvel ocity
ĠBow ie
ĠBi ology
Ġscrew driver
ĠHan lon
Ġappet izers
Ġsear ches
Ġrod ents
ĠBry ant
ĠJer ome
Ġresil ient
Ġeleg ance
create Element
Ġtempt ing
Ġclut ch
Ġawa its
mod el
ĠDick inson
Ġprosecut or
ĠAdv ance
ĠÃ Ĺ
Bet ween
Ġintend s
Ġworksh op
Ġdiscipl ine
Ġcamps ite
han ie
Ġhen ce
Ġash amed
Ġoverlook ed
Ġcarp enter
Ġliber al
Ġphosph orus
Ġirre levant
Ġreun ited
ĠBang kok
ĠPitt s
Ġmilest one
Ġdepict s
ĠConf eder
ĠPra jad
Ġantib iotic
Kn ack
ĠMust ard
Ġreson ance
Ġende avors
Ġarrang ements
Ġinaug uration
Ġweld ing
ĠPA IR
ĠPen insula
cp u
dist ance
Ġaccum ulate
Ġwrest ling
ĠAld rin
Ġchim ney
ĠGrill ed
Ġconfig uration
Michel le
ajit as
prov oking
Hand ler
sq rt
Ġallig ators
ĠOx ford
Ġpunct uation
icent ennial
Ġcertific ate
ĠDah mer
ĠAltern atively
Ġglute us
Ġgarn ish
Ban anas
ĠTurt le
ĠHit ler
Ġabbre vi
ĠGa uss
ĠGab riel
Ġdivor ced
Ġsnowm obile
belie vable
Word Press
Ġtil ted
Ġnurt uring
ĠLuck ily
Ġspont aneous
Ġdehyd ration
Ġpenal ty
Ġrh ino
Ġcompat ible
Ġexplicit ly
Ġredd ish
Prin cess
Brit ish
ĠTICK ETS
ĠNum Py
Ġbackl ash
Ġvolunt arily
Ġmes mer
ĠIda ho
ĠHig her
Ġshroud ed
Ġoutrage ous
Ġruth less
Ġexquis ite
occup ied
Ġtendr ils
Ġunpredict able
Ġextrater restrial
Ġviny l
phib ians
Ġmund ane
ĠRee ves
ĠUkrain ian
gund y
Ġwedd ings
Ġcyl ind
ĠMocking bird
ĠKany e
ĠPrisc illa
Ġequilib rium
ADVER TIS
ĠPrajad hipok
" [
( ).
A H
A v
B ad
B usiness
C ir
D ist
D em
D ance
D ave
D inner
E V
F at
F ig
F ree
F resh
F iles
H on
H um
H op
H uman
I ts
J oy
L D
L U
M em
M ount
M arch
M uch
N early
P ublic
R ex
R unning
R AM
S U
S ON
U E
U I
V ery
W ar
W ant
[ :
a ired
b ie
b ian
b ought
c uss
c ourse
d ew
d imens
e cess
e ering
f at
f le
f itting
f uel
g om
g reg
i w
i ated
k il
l ink
l arge
n ative
p in
p ub
r ates
r ative
s a
s omething
t oo
t asting
u ates
v ana
w he
w ould
x ter
y g
Ã º
Ċ ĊĠĠĠĠ
Ġ âĢĻ
Ġt read
Ġt sp
Ġt eles
Ġt ipping
in ley
in ette
re place
Ġs ized
Ġo m
Ġo mn
Ġw ow
Ġw ag
er os
er ary
at uring
at ches
Ġc ath
Ġc ords
it ating
Ġf ins
Ġf ixt
Ġf ading
Ġb c
Ġb ic
Ġb inding
on key
on acci
is el
ing house
Ġm ason
Ġm unch
Ġm erry
Ġm ommy
Ġp ins
Ġd Ã©
Ġin ception
Ġin equ
Ġh t
Ġh ive
Ġh ues
Ġh alt
al ation
Ġl icked
Ġl lamas
as a
as is
om ical
le ader
Ġn in
Ġn aps
Ġn oodle
Ġg tk
ion ed
ion age
st ones
st ration
Ġre hab
ĠT D
ĠT S
ĠT as
ĠT ips
ĠT ee
ĠT aken
ĠT oni
ĠT odd
ĠT aco
ĠT itans
ut il
ot ine
ly s
id ian
Ġfor um
Ġst air
Ġst alls
ld s
am my
se nd
ro b
ir i
ir k
ir vana
ur g
ur ally
ĠS A
ĠS pend
ĠS lo
ĠS orry
ĠS isters
Ġan ten
Ġan onym
Ġan onymous
ĠA w
ĠA bs
ĠA by
ĠA irl
ĠM ove
ĠM IN
ĠM RI
ĠC op
ĠC ond
ĠC AN
ĠC orgi
ĠC inderella
ri en
Ġwe ary
Ġwe ave
her om
out ing
um bo
um acher
ĠH op
ĠH ide
ĠH annah
ĠB ishop
Ġsh irts
ĠW ick
ome z
Ġab ound
ist as
th reshold
th odox
ĠP ub
ĠP ere
ĠP aw
ĠP ush
ĠP urchase
Ġch ow
Ġch uck
us ks
Ġse w
pp erm
Ġex ert
Ġcon ferences
Ġv ag
Ġv enge
Ġv owed
Ġv owel
Ġpl ains
Ġpl aus
Ġcom fy
ĠD ok
ĠD ungeon
ĠF it
ĠF ace
ĠF ib
ĠF ury
ĠF OR
Ġli ed
Ġde af
Ġde forestation
Ġde xter
ud ing
Ġso ber
ĠG am
ĠG ary
ĠG atsby
ard ing
ĠR acco
ĠR usty
Ġj ug
Ġj agged
ĠE N
ĠE u
ĠE ye
ĠE yes
ĠE agles
ĠL um
oc used
ĠN ile
ĠN az
ĠN IH
ĠN eely
ind le
pl ants
iv ate
ĠO S
ĠO llie
ĠO swald
Ġshe pherd
Ġkn ights
od on
od ka
Ġen ables
Ġen list
ue ck
are l
Ġsp ite
end y
Ġar th
og en
ĠY elp
Ġco ve
Ġco hesive
Ġqu e
Ġqu aint
ĠK o
ĠK ab
Ġpe ek
ap a
Ġro aring
Ġun const
Ġun employ
Ġcomp ares
Ġtr aced
Ġtr acts
ĠSt aff
Ġsc anned
Ġbl ades
Ġdis in
Ġdis charge
Ġdis respect
ĠIn vention
Ġfl air
Ġfl uff
Ġover coming
Ġspe ar
Ġspe eches
Ġspe cials
ph ilis
Ġgr ated
ell in
Ġlist ens
ren ced
Ġtw ir
Ġ3 60
Ġ3 75
Ġam pl
ang ar
Ġem ig
Ġag ility
als amic
Ġ19 17
Ġ19 12
Ġ19 23
ĠCh air
ĠCh ihuahua
Ġimp osing
Ġunder lying
ĠV ert
ĠV ader
Ġshort ages
Ġfun erary
Ġra g
Ġra v
Ġra kes
Ġra isins
Ġcons iders
Ġsl ur
Ġsl ick
Ġsl ugg
Ġsl ipper
Ġsl opes
Ġwater color
Ġwater proof
Ġrel ied
Ġret ention
Ġret elling
Ġent angled
Ġpar ade
Ġinc idents
ib et
Ġform ulated
ĠAs he
Ġgu inea
Ġtri angles
ĠAl ert
ĠAl pine
co vsky
Ġear buds
Ġplan ter
Ġrep roduction
Ġsent imental
Ġcur led
Ġrest less
Ġbre ach
Ġclass mates
Ġext inction
Ġnight stand
Ġnight life
Ġhead master
Ġpop ulate
az ines
Ġcount ies
Ġschool er
ĠSe ah
ĊĠĠĠĠĠĠĠĠ ĠĠ
Ġsw ung
Ġsw itched
Ġ18 2
Ġ18 15
Ġ18 60
Ġsun g
Ġsun flowers
ah u
ah oo
Ġsn or
Ġsn uck
avor ite
Ġho ly
Ġless en
Ġimport ed
Ġgener osity
ĠRe gg
Ġref resh
Ġtrans ferring
Ġcat ac
Ġland lord
Ġval leys
ĠSh a
ĠSh ark
ask ing
Ġpain fully
Ġob ese
ĠAd alina
ĠAd ventures
ĠJo in
ĠDe al
ĠDe cor
Ġed itors
man n
enc hes
Ġsal am
ump ing
ane y
rodu ced
ĠAr n
Ġdra gged
ĠBl oom
ĠLe go
ĠLe gal
bo at
gr ader
bl own
sh ock
sh aw
sh ield
sh uffle
Ġparent hesis
ĠZ auner
Ġexc av
Ġdep osed
Ġdep ressive
Ġdep icting
Ġcurrent s
Ġeng ra
Ġconst itutional
An na
Ġcustom ize
Ġtown spe
vern ight
ĠEx cept
ĠEx odus
Ġview ing
Ġpick y
Ġrese mble
zz led
Ġfather s
Ch ris
Ġsocial ize
Ġdream t
Ġsuccess or
Ġquestion ing
Ġkey of
ĠDon key
ivid ual
Ġadv ises
Ġball ad
Ġconsider ations
Ġtrad itionally
Ġ12 8
Ġexpect ancy
Ġbox ers
Ġsweet eners
ED I
Ġri pping
ĠCar ly
ĠCar roll
ĠCol onel
Ġobject ives
Cl imate
ER N
Ġ* *
Ġinf used
Ġ} );
ida e
ĠQu idditch
Ġcast les
ĠJust itia
No ah
Ġsimilar ities
ĠAdd ing
14 4
Ġbur row
ĠCo al
Ġlif esty
Al ong
ĠGr anny
Ġtele port
Ġport rait
Ġrad ar
Ġimag ining
Ġlik ing
Ġlik able
Ġbrown ie
Ġ14 0
ĠX L
ĠX III
ĠGo gh
Ġcam els
Ġstream er
off rey
ĠRes urrection
ĠRes earchers
Ġill usion
Ġdeal er
Ġswe eping
ĠBar net
Be at
Ġdram as
Ġdefe nder
Ġpeace fully
AR B
Ġglob ular
Ġpred ecess
Ġspir al
Ġnote book
Ġur ged
Ġinstruct ed
Ġscreen ing
Ġhik ers
OR I
Ġcateg orize
Ġcomplex ion
Ġemerg es
ech o
ĠAb ove
Ġcalcul ations
Ġcalcul ating
ĠWell er
allow ed
Ġhun ted
Ġbath rooms
mas ters
ĠPer iod
Ġstat ues
Ġund efined
Ġcy n
Ġcy cling
Ġbelong ing
ux e
ĠComp lete
Ġarch ipelago
Ġflow ed
ĠMon ster
Ġprompt ing
ĠIm ages
Ġsick ness
Ġded uct
Ġeffort lessly
Ġbudget s
Ġbudget ing
Ġuns afe
Ġuns alted
Pl ant
ĠHigh way
Ġprogress es
ĠMus lim
Ġcru ise
Fl ask
OU T
Ġer rand
imp act
Ġpoll ut
ĠStud ents
ĠPart ner
ĠCont act
lear n
Ġvisual ize
ĠBo il
Ġcalm ly
men u
Ġstre ak
Ġnav al
Ġtun nels
Ġenter prise
Ġcoc aine
Ġselect ing
Ġrat ings
Ġliqu or
Ġsouth western
ĠBre aking
Ġrub bing
ĠBob rovsky
En joy
Good bye
amel a
Ġbatter ies
ĠMac cab
Ġ194 1
Ġmyth s
Ġcab bage
ĠOp ening
Ġprison er
Ġwindows ill
Ad am
ĠðŁ Ĵ
Ġpup ils
Ġguard ed
ĠLu z
Ġelev ate
Ġske letal
ĠHam pton
ĠMad ison
Ġperm itted
spe aking
Ġren amed
Ġcheap est
Ġtransform ation
ĠJud ith
Ġyell s
Ġunivers es
Ġnavig ator
ĠTri angle
Ġadvance ment
Ġadvance ments
Ġsweat ers
Ġexcess ively
ĠVol unte
Ġfert ile
Ġspect acle
Ġanaly zing
ĠCard inal
ibl ical
Ġdiagn ose
Ġbon uses
Ġunl imited
Ġmechan ics
Ġagg ress
Ġol ives
ĠSand wich
ĠColle en
Ġcert ification
Ġsin uses
Ġnarrow ly
Ġstead fast
ĠSch umacher
Ġfrost b
Ġbull ied
Ġconcent rate
ĠDra x
ĠMont gom
user Agent
Ġcaffe inated
Ġutil izes
Ġtoothp ick
Ġsne e
ĠBas ically
Cont act
ser ving
Ġrhyth mic
Bu zz
Ġbomb ings
Che ers
kl ore
Ġcompre hend
Ġdemonstr ations
ĠTre vor
ĠWal ter
Ġhint s
Ġwid get
Ġtrick y
Ġiter ate
Ġharvest ed
Read er
Ġcoord inated
ĠKat rina
ĠJon as
Ġrust y
ĠGra pe
Ġpron ounce
HT ML
itut ed
Ġpanc ake
Inst ructions
Out ro
Ġwise ly
ĠDen ali
Ġmathem atic
Sim ilar
Ġseas hell
Star light
Ġvocal ist
Sm all
Ġexpans ive
Ġinvis ibility
Ġfears ome
Ġiniti atives
ĠTour ist
ĠWalk er
ĠBan ana
Ġpersu ade
ĠLeg isl
Ġyield s
Ġgest ational
Ġune ven
Ġchees es
Ġshield s
ĠAgain st
Sk irmisher
Ġrail road
Ġhal ftime
pert ension
IM E
ĠComb ined
Ġinstinct ively
Fe el
Ġvel vet
Ġwars hip
ĠCost a
Ġsurve ys
Ã³ pez
Ġmour ning
ĠPortug uese
ĉĉ ĉ
Ġtorn ado
Ġcooper ative
Ġhaz ard
Ġintrig ued
ĠMot own
ĠBrew ing
Ġmanip ulate
ĠChampionship s
ĠZe us
Ġheaven ly
ĠExplore r
ĠHem isphere
ĠJes se
Ġadministr ators
Ġnegoti ations
Ġneat ly
Ġdispos al
ĠWeek ly
ĠPerform ed
Ġmoistur izer
QU ESTION
Ġdwell ers
Ġtempt ation
EF A
Ġhorm one
ĠEp isode
Ġeval uate
ĠStyle Sheet
Ġdistur bed
next Int
Ġoverth row
ĠMcG ee
ĠSad ly
Ġtract or
Sy mptoms
Ġbom bs
ĠPsych ology
Ġanthrop omorph
ilo qu
Ġstalk ed
ĠLes lie
Ġswift ly
fo am
Ġloos en
iche ver
sty les
Ġorch ard
Ġseiz ure
ĠContin ental
Ġscav enger
Ġcheetah s
ajit nov
Ġfestiv als
Ġfestiv ities
Ġsulf ur
ĠMeg abyte
ĠBreat h
Ġempt iness
ĠMarc os
Ġcorrid or
Ġmul ch
ĠJen kins
Ġpursu ing
Ġais les
Ġrecl iner
Ġartis an
Ġadvoc ates
Ġdemocr atic
Ġantagon ist
ĠCru ise
Ġspraw ling
Ġdisg ust
Ġperce ive
Ġbotan ical
Ġalleg ations
Ġinquir ies
Float Stack
Ġnan oparticles
ĠMcK inley
Ġmarshm allows
Ax iom
Ġroomm ate
ĠBeh ind
Ġburrit os
ĠMun ich
ĠCars on
Ġproc ure
Ġamend ments
Exper ience
rann osaurus
Ġcatal og
Select or
Ġchromos ome
ĠFres ne
Ġresign ation
Ġextravag ant
Ġmourn ful
Ġlitt ered
Ġplung ed
ĠFerr is
ĠGust av
ĠKun is
Ġraind rops
Ġmetic ulously
Ġcamoufl age
Ġdeadl iest
ĠAnto inette
ĠDetect ive
Ġirresist ible
Ġhosp itals
ĠCube Sat
Ġcongest ion
Ġdiscont in
Ġtsun ami
Ġuncont roll
Ġpric eless
Ġdiscon nect
ANSW ER
Ġhect ares
ĠDoy le
ĠKut cher
Ġnewcom ers
Ġbehavi our
Ġstagger ing
Ġcros sw
ĠPitts burgh
dimens ional
Ġteles c
onkey press
ĠAirl ines
Ġplaus ible
ueck ner
Ġslipper y
Ġtownspe ople
Ġlifesty les
ĠResurrection ist
ĠMontgom ery
- $
. -
7 99
: *
; [
= $(
B or
B arry
C A
C D
C ra
C and
C AN
C redit
D ry
D ense
D rop
D epend
E P
E p
E lectric
F re
G onna
G roup
G oogle
H o
H as
I O
K ana
K anji
L ink
L emon
L inda
M et
M ajor
N BA
O ffic
P al
P ant
Q T
S ide
S ix
S ho
S ounds
S onic
T ill
T ex
T ao
T igers
U C
W rit
W ere
Y M
Y Y
a verage
b ills
c ost
c ert
c aps
c hest
d i
e ur
e ast
e pt
f ertil
g re
g ot
g ate
g one
g ated
g rand
g ae
h aw
h appy
i ates
j ack
k ai
k open
l ain
l ama
l abel
m ine
m ount
m otion
n ation
n and
n ip
p ark
p ng
p arts
p aren
p roduct
p apers
q ta
r ings
r idge
s n
s ave
s hips
t ar
t ry
t ulip
u ana
x iety
y ards
z art
z uko
} )
Â ·
Ã ¦
É ª
Ġ ________
Ġt am
Ġt uck
Ġt ier
re ase
Ġs ill
Ġs orce
Ġw ary
Ġw ink
Ġw iping
Ġw retched
at ra
at um
Ġc acao
Ġc aterpillars
ou ji
it ars
Ġf urn
Ġf uss
Ġb og
Ġb ount
Ġb itten
Ġb apt
Ġb ounds
Ġb aker
Ġb isc
or o
or ist
Ġm if
Ġm apped
en za
Ġp s
Ġp ent
Ġp ics
Ġp ending
Ġp issed
Ġp herom
Ġto ad
ar ly
ar ched
Ġd addy
Ġd usk
al uk
Ġl aced
Ġl unge
Ġl ament
Ġl ighthouse
as hy
Ġth w
om ark
ic i
ll an
Ġn ugg
Ġn anny
Ġg a
Ġg ul
Ġg az
Ġe ll
ĠI A
et ian
et ris
st ra
st ru
ac am
ac celeration
ent ary
Ġbe ers
Ġbe ak
Ġbe aks
ĠT u
ĠT ill
ĠT rou
ĠT ax
ĠT etris
Ġhe x
Ġst ag
Ġst all
Ġst omp
Ġst ained
ld ron
Ġon set
am ia
se ek
Ġu pt
ad al
ad ers
ad ays
ad just
ig ar
ig uous
ur ai
ke red
ke gee
ith a
ith ium
ĠS oka
ĠS ullivan
ĠA riel
ĠA rya
oo sing
ĠM ig
ĠM ul
ĠM int
ĠM ason
ĠC er
ĠC ort
ĠC hing
ĠC atch
ĠC andy
Ġha iled
ri o
her ical
ol ing
ol or
ol ks
ol ester
ĠH ab
ĠH ail
ĠH ost
ĠH undred
ĠH erman
ĠH OA
ĠB M
ĠB ol
ĠB aking
ĠB uck
ĠB eng
ĠB rief
ĠB itch
ĠB onds
ĠB rainstorm
ĠB affin
Ġsh ri
Ġsh ag
ul ative
ĠW or
ĠW orm
ĠW hed
Ġme adows
ist ed
un ing
un ken
th read
ĠP T
ĠP i
ĠP am
Ġse ated
Ġse ize
Ġse ized
Ġse cluded
Ġcan n
Ġcan cel
Ġr und
Ġr acks
Ġr iff
Ġex asper
Ġ1 10
Ġcon ceived
em ail
em ia
em bour
qu al
qu ery
Ġv igilant
op oly
Ġk im
Ġal k
ab b
ab ies
ort ing
all on
Ġpl ag
Ġpl aint
ĠD y
ĠD ol
ĠD errick
ĠF is
ĠF ed
art oum
Ġli ly
Ġli berties
Ġpro active
Ġde ed
Ġde lete
Ġde leg
Ġby stand
Ġbut tered
ĠG h
ĠG oo
ĠG ak
ĠG iant
ĠG ye
ard on
ĠR oo
ĠR ud
ĠR ace
ĠR idge
ĠR ocks
ĠR ules
ĠR andy
Ġj aund
ast iff
ast rophic
ĠE lection
ĠE agle
Ġnot or
Ġnot ion
Ġ( /
ĠL if
ĠL ena
ĠL oren
Ġle v
Ġle ans
Ġle aked
ry n
ĠN ed
ĠN ag
ĠN icole
ĠJ ungle
fe ed
Ġfe eds
ep rist
pl aces
Ġgo verning
Ġcl icks
ĠO ny
ach a
ach t
Ġus able
ear ching
ĠTh an
ĠTh ur
ĠTh row
cl ient
Ġen light
Ġen semble
av an
Ġpo pping
Ġsp ouses
au i
ick i
ĠHe in
ĠHe brew
Ġco ff
Ġco aches
Ġqu art
Ġqu eer
ĠU pper
ĠK ou
ĠK itchen
ĠK ui
ans on
ile psy
Ġpe el
Ġpe renn
Ġro asting
Ġun ch
Ġun biased
Ġim bal
Ġtr ance
Ġsa una
ĠSt roud
Ġdis cl
Ġfl es
Ġfl ora
we ather
Ġoff spring
Ġcont agious
Ġres orts
Ġres urrection
ph is
ren a
ren ched
Ġam az
ru ce
Ġstory lines
Ġday time
Ġpart ial
Ġper me
Ġper cept
Ġdes olate
Ġdes igning
Ġ19 22
Ġ19 24
Ġ20 30
Ġpre view
ens itive
ĠCh ampions
Ġfo ll
ons ive
ĊĠĠĠĠ ĠĠ
Ġimp osed
Ġunder go
ĠV OCs
let ons
Ġtra it
Ġtra ff
Ġra ined
ĠShe ila
Ġcomm od
Ġcons cience
Ġsl ipping
Ġwater ways
Ġcre st
Ġsk ate
Ġsur re
Ġind ices
Ġind irect
Ġpar se
Ġinv ade
Ġinv itations
Ġinc is
Ġcr umbled
Ġcr ashes
erm at
ĠUn less
any a
Ġgu ides
Ġgu itars
Ġright ful
Ġfin ishes
Ġgl are
Ġgl immer
Ġexper imental
ron ics
ird le
ats h
Ġreg ain
Ġreg ulated
Ġvis ions
ĠBe ep
Ġlight bul
lic ation
Ġnever theless
Ġbo om
Ġbo oming
Ġdet erg
amp ons
Ġplace bo
Ġinform ational
ier ra
ĠAmeric as
ract able
Ġunt r
Ġopen ings
Ġve il
Ġve to
fl owing
Ġpost p
aut ical
Ġ18 89
Ġ18 41
Ġinter pre
Ġinter change
Ġsun k
Ġsun flower
augh ty
Can n
Ġsn ows
Ġel usive
ĊĊ ĠĊĊ
ĠSp ir
ĠSp inach
Ġdr ifting
ĠNew man
Ġdel ic
Ġaut ism
Ġpur r
und ai
Ġav id
Ġdi pped
Ġdi pping
Ġdri zzle
ĠSh ak
Ġ7 6
ĠMar l
ĠAd Ã©
Ġbelie vable
the ning
Ġcontin ental
Ġcook s
enc ers
Ġpot tery
ĠOn ion
ĠKe ith
Ġwa its
ĠAr can
ĠFr ances
20 16
ĠBl uet
ĠFor get
Ġcommun ications
ĠFl oat
Ġpay load
Ġmor ality
Ġsleep s
aj i
ĠZ illy
Ġdep arted
Ġocc ult
Ġelect oral
ĠCl imate
Ġrock ing
Ġgra zing
app er
Ġfr own
Ġfr antically
Ġwar fare
Ġaud it
Ġfill ings
ont i
work ers
ĠSc he
ĠSc reen
ĠSc oliosis
There fore
Ġnews papers
ĠTo ast
ĠPr ison
ĠNo ir
ĠNo pe
Ch ad
Ġenc aps
light dew
ĠTr uth
Ġste er
ĠHer nand
Ġmen us
Ġvide og
Ġ17 5
Ġ17 76
Ġmult it
Ġmult im
Ġmult if
Ġcell ars
Ġ15 00
Ġcamp ground
play ed
Ġspecific s
urs era
Ġintrodu ces
Ġauthor itative
sc ore
Ġbar ren
Ġbar rel
Ġri pped
Ġsurf ing
Ġphys icist
ĠPe ak
Ġvers atility
(" -
(" \
Ġgrand kids
Ġstri ped
ER F
Ġmeth ane
Ġdiv is
ĠChe ers
With in
Ġfem ur
Ġbright est
ĠChrist ians
Ġneigh bour
Ġesc ap
ĠEn ough
ĠEn jamin
Ġarg u
Ġcard inal
Ġdress er
Ġrul ers
Ġrad ical
Ġrad iant
Ġmultip ly
Ġkid neys
ĠMc Cann
ĠEd ition
Ġpath way
eter ia
ĠFin land
ĠFin ancial
Ġ196 1
Ġang el
Ġstress es
ha user
rel iving
ĠRes ident
Ġfund ed
Ġdry er
Ġgar ner
ald i
Ġmat ched
Ġcloud y
ĠSer bs
ĠBar ney
Ġadventure rs
Ġdeb ug
do ing
Ġmis in
Ġmountain eering
Ġmach inery
EN D
ĠJames on
Ġfix es
Ġshop lifting
Ġsight seeing
Ġharm ing
Ġsnow board
ĠJan ie
Ġplot ting
Ġbi omark
ara oh
ĠMed al
ĠMin or
Ġgas oline
Ġarr ays
26 8
ĠLou vre
Ġeight een
Ġmid st
Ġmid day
Ġmist ress
fact ory
Ġrev ive
Ġdocument ed
Ġdocument aries
Ġut most
Ġprefer ably
Ġthr ift
ĠSun ny
Ġbath s
ĠStar fle
Ġlog ical
de ep
Ġrose mary
Ġthick ness
Ġcraft ed
Ġreflect ive
da ily
Ġinstall ing
ĠSpe c
sec ure
sec ond
Ġdev our
Ġdev otion
Ġpen insula
Ġapplic ant
Bl ock
Ġunf inished
Ġge ometry
Ġsubst itutes
ĠWater melon
ĠPre heat
ĠTim othy
kin ter
Fl at
ĠLove craft
Ġ195 1
Ġ195 3
........ ..
Ġver bs
Ġver bal
Ġver dict
Ġpsych ic
ĠCharl i
Ġgentle men
ĠAtt ack
Ġsustain ability
Ġbound ary
Ġflu orescent
Un fortunately
Ġprior it
ĠMax im
ET H
ID E
Ġcounter parts
Ġscr ut
Ġexec ution
Ġdragon fly
Ġspark le
Ġliqu ids
De ep
ĠSl ide
Ġhyper activity
gl ass
ĠFe eling
ĠVis ual
Pro fessor
Ġnorth west
ĠCat hedral
ĠRec ently
En c
199 5
Ġsle ek
ĠAir port
Ġhyd rated
Ġinh alation
ĠBur row
Ġce ase
Ġce ased
ĠSund ays
Ġtur quoise
Ġodd ly
ĠOp eth
Ġprison ers
Le ave
Le aving
ett i
Ġhall way
Ġhyp oc
ĠWork s
Ġdemon stration
ĠMad onna
Ġperm its
spe ed
spe cific
Ġtro lls
Ġ190 1
ĠJud ge
Int o
ĠBet ty
Ġquarter back
Ġvibr ations
Ġjew els
Ġbuck ets
umbled ore
ĠMat ilda
Ġid ol
Ġembr acing
Ġsitu ated
Ġlas hes
Ġcos mos
Ġwra pper
Ġanaly zed
Ġmamm oth
ĠGard ens
Ġunl ocking
Ġsubscri ptions
ĠSand y
Ġalarm ing
AD DIS
ĠBull ock
ĠDel aware
ĠWall ace
Ġacceler ated
Ġexperiment ing
Ġmob ility
ĠKh artoum
ĠStr atton
Ġsubm arine
Ġsimpl icity
Ġmulti player
Ġutil ized
Ġpump kins
Ġrelie ving
ĠBrad shaw
Ġschedul ing
Ġhes itation
ĠJane iro
size of
ĠCommun ication
Ġrob bery
Jan ice
Ġbacter ial
Ġdent istry
ĠMill enn
Ġclin ics
Ġmini ature
Read y
Ġlock er
Ġcul min
Ġ186 7
Ġlapt ops
Ġinqu is
ĠPop ular
Ġassess ments
ĠSpring field
wa velength
Ġsurvey ed
Ġfulfill ed
Friend ly
Ġwal rus
ĠBon aparte
ĠPu pper
ĠGen oa
Ġgramm atical
Ġgig gle
ĠWood s
sm ith
Ġcomed ies
ĠNever theless
ĠOsc ars
Ġarom as
Ġarom atic
cr ust
ĠTer raform
ĠExt ra
Ġdism issed
Ġpersist ed
Ġjar gon
aph rag
aware ness
Ġfuck ing
ĠRick y
Ġsurviv or
Te am
Ġlou ng
ĠFre edom
ĠRat ched
Ġsoph om
Ġgross ed
ĠCream y
iki qta
Ġborrow ing
Ste ven
ĠDar ren
Ġsubt raction
Ġfragr ant
Through out
Ġinterpret ation
ĠPhilipp a
Ġâ Ĥ¬
ĠVan illa
Ġscrew s
ĠAsh ton
Work ing
ĠFour th
Ġmal icious
ĠMot or
ĠFem ales
Ġrod s
Ġbuff et
ĠShort ly
Ġresource ful
Ġank les
Ġgran ola
Ġmoistur izing
Ġdistingu ish
Ġcommunic ates
Ġcudd ly
ĠTrain ing
Ġexh ilar
ĠĊĠĠĠĠ Ġ
Ġawa ited
Ġsyll able
ĠSi oux
ĠSho pping
ĠPic ard
ĠStraw berries
Ġparas ites
Ġequival ents
Ġobsc ure
Ġpenc ils
ĠCam ry
Ġwors hip
ĠOper a
Ġcompanions hip
ĠEmploy ees
Ġdeploy ed
Ġapocaly ptic
Ser vice
iel berg
Ġwhistle bl
Ġtherm al
ĠLab rad
Ġstabil ize
Hist or
Ġrou ter
Ġspo iled
Ġmonit ored
Ġshowc asing
Ġcrick ets
Ġrect angular
ĠPhys ics
Ġunac cept
ĠCad bury
ĠRush more
ĠCham ber
Ġcaf eteria
Ġcryptocur rencies
Ġcust ody
ĠBlock buster
Ġoat meal
Ġram en
Ġaccus ations
Ġcorrid ors
Ġeld est
ongs ang
ĠVi enna
Ġhaw k
Ġlect ure
Ġcoinc idence
Ġdupl icates
Pop ulation
atis f
ĠEs pecially
Ġfundra ising
AND L
Ġdilig ently
Ġartic ulate
ĠHumph ries
Ġgoo ey
ilm ps
Ġtremb ling
Ġincl ined
ĠFA Q
Ġparan ormal
help ful
Ġidi opathic
ĠScarlet t
ĠCycl ops
ĠOre o
Ġunb ear
Ġunin hab
Ġunst able
ĠInit ially
contain er
Ġjourn aling
ĠAB BA
Ġchlor ophyll
Ġvoy age
ĠPrefer ably
Ġobstruct ing
Rom aji
Ġore gano
Ġhoo ves
ĠCamb od
Ġration ale
Ġaristocr at
Ġinval uable
ĠLeban on
ĠProof s
Kat ie
Ġdyn asty
Ġluc rative
Ġasyn chronous
ĠHats heps
Ġskil let
call back
ĠCasc ade
ĠDuc hess
ĠLux embour
clip se
Ġmetamorph osis
Ġengulf ed
ĠScan ner
ĠVenezuel a
Rich ard
Ġprow ess
Ġacron ym
fashion ed
Ġwholes ome
Ġesp ionage
ADVERTIS EMENT
Ġht ml
lds par
ĠSeah awks
Ġtelesc opes
QT T
kopen ko
Ġmif eprist
acam ole
olester ol
ĠWhed on
Ġrund own
ĠGak kai
ĠGye ongsang
ĠKui per
ĠArcan a
ĠStarfle et
ADDIS ON
ĠLuxembour g
Ġmifeprist one
! ?
! ).
' ?
) -
: .
? :
A K
A ust
B al
B ro
B ron
B rand
B ee
C L
C lean
C PU
C orrect
D I
D ead
D addy
E E
E le
E ight
H a
H ex
J ob
J apan
L ay
L ess
L ater
L eg
L ocal
M iss
N ap
N ASA
O ption
P od
P ick
R O
R ose
R iver
R AT
R alph
R andom
T ur
T ip
V en
W W
W atch
W alking
W oah
b one
b rand
b eta
c d
c ord
f ig
f est
f un
f ollow
g ur
g ence
g io
g iate
h m
i ator
i ability
k or
k um
m g
m ir
m ys
m iddle
n ite
n em
n ants
o z
p d
p ast
p ound
r own
r ude
r anged
s r
s ong
t ri
t ear
t ub
t aking
t ops
t ration
t arget
u ced
v iation
w ear
w ash
y pus
Ġ ig
Ġ );
Ġ icing
Ģ ï¸ı
Ġt ed
Ġt id
Ġt ilt
Ġt angle
Ġa il
Ġa ven
he a
he e
he rent
in flation
re as
Ġs or
Ġs ap
Ġs assy
Ġthe ology
Ġo de
Ġw aving
Ġw ipes
Ġw atered
Ġw ifi
er ting
Ġc oo
Ġc ubs
it ial
it udes
Ġf iance
Ġf rying
Ġf ajitas
Ġb unk
Ġb outs
Ġb ordered
is in
es ley
Ġm ol
Ġm ong
Ġm ins
Ġm arm
Ġm oles
Ġm ercy
en ame
Ġp am
Ġp agan
an u
Ġto ile
Ġto pping
ar u
Ġd ual
Ġd ances
Ġd ystopian
Ġin clusion
Ġh one
Ġh ugged
al m
al ie
al amus
Ġl ust
Ġl oops
as i
as ures
om us
om nia
ic ode
Ġn g
Ġn ach
Ġn ull
Ġn arc
Ġg amer
Ġg ossip
ĠI an
ĠI ss
et imes
st ad
st ars
ĠT res
ĠT ennis
ĠT ito
ĠT ropic
ĠT onight
Ġhe ed
Ġfor k
Ġst arry
Ġst yl
Ġst ingers
Ġon stage
se ven
se arch
ro foam
Ġu h
ad h
ad ine
ad der
ir gin
ur red
ur phy
ur iko
ĠS ut
ĠS ystems
ĠS osa
ĠS cientific
ĠA ru
ĠA pr
ct x
Ġwh ispers
Ġwh ilst
Ġas ph
Ġas semble
ĠM L
ĠM um
ĠM ess
ĠM ice
ĠM ord
ĠM add
ĠM UL
ĠM aui
ĠM QTT
ĠC S
ĠC OM
ĠC aval
ĠC edar
ra its
Ġha ul
Ġha voc
ri ly
ill ac
ol on
ers hip
um ably
ĠH ers
ĠH ume
ĠH ands
ĠH amm
ĠH ipp
ĠH ours
ĠB ou
ĠB il
ĠB av
ĠB end
ĠB eneath
Ġsh akes
Ġsh aping
est ation
ĠW ake
ĠW endy
ag gressive
Ġme nd
pe ak
pe ople
ore m
th y
ĠP ad
ĠP end
ĠP oss
ĠP ages
ĠP ops
ĠP ossible
ĠP interest
Ġch oke
Ġch inch
Ġse aw
Ġse ams
Ġse vered
Ġcan als
Ġcan ola
Ġr ic
Ġr iddle
Ġr umin
Ġex uber
Ġdo ses
Ġdo dge
Ġcon clude
em it
Ġv est
Ġv odka
op ot
Ġk araoke
ĠD oc
ĠD ell
ĠD raft
ĠD iversity
ĠD uda
ĠD umbledore
Ġmy os
nt on
ĠF ishing
ĠF unny
ĠF itness
os ers
Ġpro be
Ġde fect
ud or
ud get
ĠG el
ĠG row
ĠG ina
ĠG ym
ĠG omez
ĠR X
ĠR anch
ĠR ye
Ġj unky
Ġj unior
ast rous
ĠE van
ĠE conomic
Ġnot ify
Ġnot ifications
Ġ" __
Ġ( '
ĠL akers
ĠL Ã³pez
Ġle ak
Ġint uition
oc les
ĠN ear
ĠN arcissus
Ġup scale
Ġout breaks
ĠJ ans
ĠJ ax
ĠJ ury
ĠJ ee
ĠJ asmine
ment ioned
ĠĊ ĊĊ
iv ities
Ġcl ash
ĠO cc
ous ands
od ied
cl er
Ġhas s
Ġen v
Ġen vel
Ġen vious
Ġen roll
Ġen vy
act rian
Ġman ually
av ior
Ġpo ke
Ġpo ignant
Ġsp it
Ġsp am
Ġsp ared
Ġsp acious
Ġar ter
Ġar row
Ġar ising
Ġar rows
ree zy
au c
ĠY um
Ġco pe
ĠK ay
ĠK ia
ĠK ung
ĠK ha
Ġro be
Ġro ster
Ġro oft
Ġun ited
Ġun friendly
Ġcomp iled
ven ir
ĠSt ella
Ġsc ones
Ġsc uba
Ġbl asted
ne es
Ġdis able
Ġdis asters
Ġdis abled
Ġdis astrous
Ġfl ipped
Ġover sight
Ġover grown
ink ling
Ġhel m
Ġres ides
Ġres erves
Ġres umed
Ġgr inding
Ġ3 30
Ġ3 40
Ġem an
vel ocity
rough ton
Ġpart ition
Ġbr ass
Ġ19 15
Ġ19 31
mer se
Ġpre judice
ĠCh rome
Ġunder way
gg er
form ing
ĠV ue
ĠV ale
omet ers
Ġact in
Ġfun g
Ġdown side
be fore
Ġchar itable
Ġra pe
Ġrem nants
Ġend earing
Ġ5 9
Ġbu oy
Ġsl ash
Ġsl icing
ank y
Ġcar ve
Ġcar ving
Ġsk iers
Ġac claim
Ġind el
Ġind ef
Ġhum ili
In valid
Ġ' #
ib o
Ġread able
Ġhigh s
Ġtri ple
Ġop iate
ĠAl bum
ject ed
Ġear rings
Ġgl int
olog os
bot tom
Ġsim ulation
Ġph araoh
Ġcur ry
Ġreg ime
ĠBe aches
ĠBe eston
io lets
Ġmet er
Ġext rem
amp ed
Ġfil tration
Ġhead er
Ġhead quart
Ġinform s
ier sten
ok ers
Ġunt rained
br al
ters on
Ġve in
Ġ18 65
Ġexp iration
Ġ[ (
Ġsun burn
Ġsun glasses
eng ling
eng ula
Ġev oke
Ġsub net
You ng
velop ed
Ġmem br
ĠRe agan
ĠRe bellion
ĠSp art
Ġ8 3
Ġ{ "
__ ":
Ġsign atures
und ra
Ġdisc arded
Ġdi aphrag
ask an
Ġ7 1
Ġ7 4
ĠMar x
ĠMar athon
ĠMar lowe
Ġenjoy ment
ĠAd ele
ĠAd vert
Ġsing ers
Ġcontin ually
Ġline up
Ġed ited
Ġprog ression
Ġpot ions
Ġbeh ave
() );
uff les
Ġwind shield
Ġ9 4
Ġ9 00
Ġ9 11
ĠFr an
ĠFr ida
Ġside ways
Ġfilm makers
ĠFl ipper
Ġblack s
Ġcond ol
Ġcond ensed
Ġmor ale
ustom ed
sh ade
sh ape
cle ar
ĠBr itt
ĠZ one
Ġconf ines
Ġclim ax
Ġexc uses
Ġdef y
Ġprocess or
Ġallow ance
Ġprogram mer
An th
An ne
Ġsumm ar
Ġsever ity
ai ologos
work er
ĠEx c
ĠEx pos
ĠEx ample
rol ogy
Ġrese arched
Ġcost ing
Ġtest imony
Ġcap itals
zz o
Ch lor
Ch icken
ĠAfter ward
Ġpublic ations
Ġing estion
erv ative
erv atory
Ġwarm s
Ġorgan ism
Ġadv ancing
Ġdoor step
Ġfur iously
Ġlim estone
ĠHer bert
Ġtrad ers
ĠPro vis
ĠSome how
Ġpress ures
astic ache
Ġmod est
Ġsoft en
ĠInd ones
ĠSu ccess
Ġauthor ized
Ġdata frame
cul us
Ġcertain ty
Ġsqu id
Ġproblem atic
Ġmix es
Ġnon fiction
Ġpet ting
ĠPe ac
Ġsand s
Ġsand als
Ġneg lected
ĠEl iot
ĠWar io
Ġfoot work
Ġrepl aces
Ġshare holders
Ġant ics
ĠCon vention
ĠRo ver
Ġnut meg
Ġbrief ing
Ġgrad ual
umb les
Ġclos es
Ġsil ky
ĠQu entin
ĠPh antom
ĠLet tuce
dd ing
Ġaccess ibility
ĠTw itch
Ġremember ing
Ġtable top
For ce
ĠCo zart
ĠEn h
Ġexce l
ograph s
ograph ics
Ġaff airs
Ġsepar ately
reg n
Ġsens ing
Ġmagic ians
Ġintern ship
Ġfear less
Ġdam aging
Ġvac ations
ĠMe ow
ĠMe ghan
Ġnecess ity
Ġrandom ized
ĠSw itch
Ġinvent ing
Ġsto ves
omb ie
ĠĠĠĠĠĠĠĠ Ġ
ĠSer iously
Ġrecogn izing
ĠBar ley
uel ess
Ġprob ability
Ġinvestig ators
Sh all
str ings
Ġdeb ated
Ġinterview er
Ġmis ery
Ġsett lers
Ex ample
Ġfloor ing
Ġpred ic
ĠGet ty
ĠAng kor
Ġsou ps
Ġinn ate
Ġjoy ous
ĠGod ot
Ġ40 70
Ġ40 60
26 4
AN T
Ġcateg orized
Ġteach ings
ĠAb stract
ĠWest inghouse
Ġcalcul ates
Ġju gg
Ġcirc um
Ġfac ult
Ġhun ched
Ġcro chet
Ġadm iration
Ġviol ation
Ġviol ates
Ġviol ating
Ġsell ers
point ed
ĠSun screen
Ġcorrect ed
Ġattend ants
Ġopt ical
Ġcy cles
ĠGold berg
Ġpal ette
Every body
ĠHar old
ĠSpe aking
ĠAc id
ĠMon ica
Ġvan ish
Ġvan ishing
Ġstaff ers
Ġsymbol ic
Jo an
Su ch
Ġge ology
ĠGreen land
Ġreact ed
âĢ¦ âĢĿ
Ġmotiv ate
ĠPol itics
Ġuns us
Ġbroad er
Des cription
Ġtend ency
ugg les
Ġsty ling
Ġsty rofoam
Ġadapt ations
Ġlisten ers
Ġden ote
Fl amini
OU SE
ĠMond ays
ĠJul es
Ġpoll en
Ġenth r
ĠSal mon
ĠSim ple
ĠSim pson
Ġhospital ity
ĠAct ually
ĠPart henon
Ġpros pects
Ġnation als
Ġpsych iatrist
fly ing
ĠCharl eston
ĠLike wise
ĠAg ent
ĠBel ize
ĠAtt end
Ġrelig ions
ĠHol iday
ĠPal est
ĠPal aiologos
Ġautom obile
Ġthrill ers
Ġrab ies
Ġbow ed
ĠMor phe
Ġexec ute
Ġcoc oon
ĠCong reve
Ġsam urai
Ġspark s
De ath
ĠPri vate
US T
Ġjud ged
OM S
war ves
ĠRec ording
Man ager
ĠEr in
Ġfort ress
Tr ump
Ġblind ing
ĠSil icon
Se a
Ġpil ots
Ġguard ians
Ġhyp hen
Ġrent ing
Ġrent ed
Ġbat hing
Ġgall ons
Ġtransl ated
Pr ice
Ġow ed
ĠMal one
ĠSur prisingly
ĠAv ocado
ĠMad rid
Ġpropos als
Ġcommand ed
Ġenh ances
Ġ190 7
ĠÂ ½
ĠHy per
Ġmort al
Ġquarter ly
Ġcin em
Ġchip m
ĠCor al
Ġdistrict s
Ġdim orph
Ġvent ures
Ġkilomet res
Ġintegr al
Ġwra ps
Ġkiss ed
Ġunl ucky
Ġconfident ly
Ġmechan ic
Ġmechan isms
ĠCur ious
Ġ188 2
Am idst
olph in
ĠGar land
Ġlic ensed
ĠYouT uber
Ġmig ratory
Ġcart oons
Ġbrew eries
Ġfreel ancing
Ġfreel ancer
dog s
Ġsne akers
Ġpump ed
keep ers
ĠBas ic
Ġpond ered
ĠCab o
Res earch
Ġcoal ition
Ġacqu ire
Ġacqu iring
Ġencounter ing
ĠEv il
ĠEv olution
Ġrob bed
Ġlabel ed
build er
Ġtut ors
ĠMill ie
++ ;
Ġcoun cil
Ġcompar able
ynam ic
ĠSa fe
Ġrefres hed
Ġcollabor ate
Ġcollabor ative
Ġpier ced
ĠToy s
ĠColumb us
Ġhook ed
ĠSher pa
Ġ186 3
OO K
196 1
Ġpray ers
198 5
Ġvert ically
ĠWood y
cur l
ĠLo ad
Ġfoss ils
Ġdil ap
append Child
App le
ĠHon estly
Ġembarrass ment
Ġfertil izers
Ġnurs es
part y
Ġstun ts
Ġalert s
ĠEduc ational
ĠBan anas
Ġmurd erer
ĠNetwork ing
Ġtac o
Ġenchant ment
ĠStri pes
Ġdevast ation
Ġune asy
ĠDub covsky
Ġborrow ers
Ġbeet le
ĠJess ie
Ġinsist ence
Ġconvenient ly
yon cÃ©
Ġrept ile
ĠSteven s
Ġfond ly
ĠHand le
ĠPur ple
Ġperpet ually
Ġperpet rator
Ġinterpret ed
Ġcoron ation
Ġunfold s
Ġmaj ors
Ġmaj esty
ĠArab ian
Ġprohib ited
Ġrepair ing
Ġintimid ated
ĠAsh ley
More over
Ġintrig ue
Ġsniff ing
Ġdrift ed
Ġembark ed
este em
ĠWitch craft
Ġimper ial
ĠProte in
Fore ver
Ġaer ospace
Ġaer odynam
Ġrefe ree
Ġrefe rencing
Ġintr insic
Ġfart hest
ĠWizard ry
ĠRod ney
Ġsculpt ures
Ġinsult s
Ġsorted words
Ġcudd le
Ġdrain age
Ġlip stick
Ġclut ched
Ġawa iting
ĠDevelop ment
Ġmerch and
ĠBag el
ĠNeed less
third s
Ġexecut ives
Ġsophistic ation
Ġfog gy
Ġdict ate
Ġstrand s
Ġdiscipl ines
ĠCock pit
AY S
Ġgal ore
ĠBul aga
Ġglitter ing
conf idence
Hy d
dis play
init ial
Ġginger bread
ĠRay mond
Ġhypot hesis
sight ed
Ġconce al
ĠRen ner
interest ed
grad uate
ĠRam irez
ĠEnt reprene
Ġinstruction al
Part y
Ġinaug ural
Ġgel ato
ĠMNP s
Ġorch id
Ġspo il
Ġshowc ases
ĠIncorpor ated
KE Y
Lear ning
Per haps
Ġfount ains
Ġgasp ed
ĠTab by
ĠPain ting
ĠContin ue
Off ice
Ġrect angle
Ġsurge on
Ġling ered
ĠBenn ett
ĠAthen ian
HR Q
Ġles ions
ĠProdu cers
Ġsymp athetic
Fox es
Ġlur king
process ed
ĠPath s
Ġtrib ute
Oct ober
Person al
ĠTypes cript
Ġdupl icate
ĠCreat or
ĠJoh ann
Ġwed ges
ĠAz tec
ĠPix el
ĠDiam ond
avail able
ĠShir ley
ĠSurv ivor
ĠAqua Flask
Ġrehe arsal
ĠUr ban
ĠIng redients
[...]
