{"!":0,"\"":1,"#":2,"$":3,"%":4,"&":5,"'":6,"(":7,")":8,"*":9,"+":10,",":11,"-":12,".":13,"/":14,"0":15,"1":16,"2":17,"3":18,"4":19,"5":20,"6":21,"7":22,"8":23,"9":24,":":25,";":26,"<":27,"=":28,">":29,"?":30,"@":31,"A":32,"B":33,"C":34,"D":35,"E":36,"F":37,"G":38,"H":39,"I":40,"J":41,"K":42,"L":43,"M":44,"N":45,"O":46,"P":47,"Q":48,"R":49,"S":50,"T":51,"U":52,"V":53,"W":54,"X":55,"Y":56,"Z":57,"[":58,"\\":59,"]":60,"^":61,"_":62,"`":63,"a":64,"b":65,"c":66,"d":67,"e":68,"f":69,"g":70,"h":71,"i":72,"j":73,"k":74,"l":75,"m":76,"n":77,"o":78,"p":79,"q":80,"r":81,"s":82,"t":83,"u":84,"v":85,"w":86,"x":87,"y":88,"z":89,"{":90,"|":91,"}":92,"~":93,"¡":94,"¢":95,"£":96,"¤":97,"¥":98,"¦":99,"§":100,"¨":101,"©":102,"ª":103,"«":104,"¬":105,"®":106,"¯":107,"°":108,"±":109,"²":110,"³":111,"´":112,"µ":113,"¶":114,"·":115,"¸":116,"¹":117,"º":118,"»":119,"¼":120,"½":121,"¾":122,"¿":123,"À":124,"Á":125,"Â":126,"Ã":127,"Ä":128,"Å":129,"Æ":130,"Ç":131,"È":132,"É":133,"Ê":134,"Ë":135,"Ì":136,"Í":137,"Î":138,"Ï":139,"Ð":140,"Ñ":141,"Ò":142,"Ó":143,"Ô":144,"Õ":145,"Ö":146,"×":147,"Ø":148,"Ù":149,"Ú":150,"Û":151,"Ü":152,"Ý":153,"Þ":154,"ß":155,"à":156,"á":157,"â":158,"ã":159,"ä":160,"å":161,"æ":162,"ç":163,"è":164,"é":165,"ê":166,"ë":167,"ì":168,"í":169,"î":170,"ï":171,"ð":172,"ñ":173,"ò":174,"ó":175,"ô":176,"õ":177,"ö":178,"÷":179,"ø":180,"ù":181,"ú":182,"û":183,"ü":184,"ý":185,"þ":186,"ÿ":187,"Ā":188,"ā":189,"Ă":190,"ă":191,"Ą":192,"ą":193,"Ć":194,"ć":195,"Ĉ":196,"ĉ":197,"Ċ":198,"ċ":199,"Č":200,"č":201,"Ď":202,"ď":203,"Đ":204,"đ":205,"Ē":206,"ē":207,"Ĕ":208,"ĕ":209,"Ė":210,"ė":211,"Ę":212,"ę":213,"Ě":214,"ě":215,"Ĝ":216,"ĝ":217,"Ğ":218,"ğ":219,"Ġ":220,"ġ":221,"Ģ":222,"ģ":223,"Ĥ":224,"ĥ":225,"Ħ":226,"ħ":227,"Ĩ":228,"ĩ":229,"Ī":230,"ī":231,"Ĭ":232,"ĭ":233,"Į":234,"į":235,"İ":236,"ı":237,"Ĳ":238,"ĳ":239,"Ĵ":240,"ĵ":241,"Ķ":242,"ķ":243,"ĸ":244,"Ĺ":245,"ĺ":246,"Ļ":247,"ļ":248,"Ľ":249,"ľ":250,"Ŀ":251,"ŀ":252,"Ł":253,"ł":254,"Ń":255,"Ġt":256,"Ġa":257,"he":258,"in":259,"re":260,"Ġs":261,"Ġthe":262,"Ġo":263,"Ġw":264,"er":265,"nd":266,"at":267,"Ġc":268,"ou":269,"it":270,"Ġf":271,"Ġb":272,"on":273,"is":274,"ing":275,"or":276,"es":277,"Ġm":278,"en":279,"Ġp":280,"an":281,"Ġto":282,"ed":283,"ar":284,"Ġand":285,"Ġd":286,"Ġin":287,"Ġh":288,"al":289,"Ġof":290,"Ġl":291,"as":292,"Ġth":293,"om":294,"le":295,"ic":296,"ll":297,"Ġy":298,"Ġn":299,"Ġg":300,"Ġe":301,"ve":302,"ion":303,"ĠI":304,"et":305,"ow":306,"Ġyou":307,"st":308,"ac":309,"Ġre":310,"ent":311,"Ġbe":312,"ĠT":313,"ut":314,"ot":315,"ly":316,"Ġis":317,"ĠĠ":318,"ay":319,"id":320,"Ġhe":321,"Ġfor":322,"Ġst":323,"ld":324,"Ġon":325,"am":326,"se":327,"im":328,"Ġthat":329,"ro":330,"Ġu":331,"âĢ":332,"ad":333,"ig":334,"Ġit":335,"ir":336,"ur":337,"ke":338,"ver":339,"ith":340,"ĠS":341,"Ġwith":342,"Ġan":343,"ĠA":344,"ct":345,"Ġwh":346,"oo":347,"ter":348,"ce":349,"Ġas":350,"il":351,"ĠM":352,"if":353,"ĠC":354,"ĠThe":355,"Ġwas":356,"ch":357,"ra":358,"Ġha":359,"ri":360,"Ġare":361,"Ġwe":362,"her":363,"ill":364,"out":365,"ol":366,"ers":367,"igh":368,"ation":369,"um":370,"ĠH":371,"ĠB":372,"Ġsh":373,"'s":374,"ul":375,"est":376,"Ġne":377,"ĠW":378,"ant":379,"ome":380,"ag":381,"ate":382,"Ġor":383,"Ġme":384,"pe":385,"Ġab":386,"ite":387,"ould":388,"ist":389,"rom":390,"ore":391,"un":392,"th":393,"ĠP":394,"Ġch":395,"us":396,"ive":397,"Ġat":398,"Ġse":399,"Ġcan":400,"Ġyour":401,"Ġr":402,"âĢĻ":403,"ight":404,"pp":405,"ess":406,"Ġex":407,"Ġ1":408,"ain":409,"Ġfrom":410,"el":411,"Ġdo":412,"Ġcon":413,"em":414,"Ġabout":415,"ake":416,"Ġthis":417,"ure":418,"Ġwor":419,"qu":420,"Ġv":421,"op":422,"Ġk":423,"Ġal":424,"Ġhave":425,"ab":426,"ort":427,"all":428,"Ġpl":429,"Ġcom":430,"ĠD":431,"Ġmy":432,"and":433,"nt":434,"ĠF":435,"art":436,"Ġli":437,"os":438,"Ġpro":439,"Ġde":440,"gh":441,"Ġhis":442,"ies":443,"ĠĠĠĠ":444,"ust":445,"ud":446,"Ġby":447,"Ġso":448,"Ġbut":449,"rou":450,"ĠG":451,"ie":452,"red":453,"rite":454,"ard":455,"ak":456,"Ġher":457,"ĠR":458,"ide":459,"Ġj":460,"ast":461,"ĠE":462,"Ġnot":463,"ack":464,"Ġ\"":465,"Ġ(":466,"Ġthey":467,"Ġsu":468,"ge":469,"ĠL":470,"Ġle":471,"Ġint":472,"oc":473,"res":474,"Ġ2":475,"ry":476,"pt":477,"ong":478,"Ġwhe":479,"ĠN":480,"Ġup":481,"one":482,"ame":483,"Ġout":484,"Ġall":485,"ity":486,"The":487,"ood":488,"Ġte":489,"Ġtheir":490,"Ġmo":491,"ind":492,"ally":493,"ook":494,"ĠJ":495,"our":496,"'t":497,"ment":498,"ine":499,"fe":500,"Ġsome":501,"Ġlike":502,"ime":503,"Ġwho":504,"Ġfe":505,"ep":506,"Ġwill":507,"ions":508,"very":509,"ĠĊ":510,"pl":511,"iz":512,"Ġgo":513,"iv":514,"ĠIt":515,"Ġcl":516,"Ġthem":517,"ĠO":518,"00":519,"ach":520,"ous":521,"Ġshe":522,"ace":523,"own":524,"Ġkn":525,"Ġone":526,"ice":527,"Ġus":528,"ear":529,"ory":530,"ĠTh":531,"od":532,"cl":533,"Ġhas":534,"per":535,"reat":536,"Ġen":537,"ther":538,"ass":539,"Ġad":540,"ue":541,"act":542,"ci":543,"ase":544,"Ġman":545,"ich":546,"av":547,"Ġpo":548,"are":549,"Ġsp":550,"Ġmore":551,"Ġhad":552,"end":553,"Ġar":554,"Ġget":555,"ree":556,"au":557,"Ġtime":558,"ick":559,"age":560,"og":561,"ĠY":562,"Ġwould":563,"ĠHe":564,"Ġco":565,"ays":566,"Ġqu":567,"ĠU":568,"hat":569,"ĠK":570,"Ġinto":571,"so":572,"Ġwhat":573,"Ġ-":574,"ings":575,"Write":576,"ans":577,"ĠĠĠ":578,"ile":579,"ĠâĢ":580,"Ġwere":581,"Ġpe":582,"Ġwant":583,"ber":584,"ough":585,"Ġif":586,"Ġother":587,"ove":588,"ap":589,"able":590,"Ġro":591,"irst":592,"Ġun":593,"ated":594,"ip":595,"Ġmake":596,"Ġwhen":597,"ound":598,"Ġcomp":599,"Ġim":600,"Ġtr":601,"Ġsa":602,"ck":603,"ven":604,"ĠSt":605,"ater":606,"Ġsc":607,"Ġneed":608,"Ġbl":609,"Ġwork":610,"ild":611,"ne":612,"Ġhow":613,"Ġdis":614,"ark":615,"ĠIn":616,"Ġfl":617,"we":618,"Ġnew":619,"Ġover":620,"ary":621,"orm":622,"ink":623,"ence":624,"Ġhel":625,"Ġany":626,"cc":627,"Ġfirst":628,"Ġpr":629,"ail":630,"clud":631,"Ġspe":632,"Ġshould":633,"round":634,"Ġalso":635,"nder":636,"Ġoff":637,"Ġcont":638,"int":639,"Ġhelp":640,"Ġres":641,"ble":642,"âĢĿ":643,"urn":644,"hing":645,"ance":646,"itt":647,"Ġcould":648,"ire":649,"ph":650,"Ġbec":651,"ia":652,"Ġthere":653,"xt":654,"Ġgr":655,"du":656,"ction":657,"oy":658,"Ġhim":659,"Ġyear":660,"Ġthan":661,"ell":662,"Ġjust":663,"Ġlist":664,"ount":665,"Ġwhich":666,"fter":667,"ople":668,"ren":669,"ose":670,"ical":671,"ress":672,"Ġtw":673,"Ġ3":674,"Ġknow":675,"Ġam":676,"ord":677,"ang":678,"ult":679,"ff":680,"ru":681,"ors":682,"Ġem":683,"ade":684,"Ġag":685,"ish":686,"Ġstory":687,"ife":688,"ĠThis":689,"ond":690,"vel":691,"Ġbeen":692,"als":693,"rough":694,"Ġpeople":695,"ents":696,"Ġno":697,"ning":698,"Ġday":699,"hed":700,"Ġevery":701,"Ġpart":702,"Ġper":703,"ew":704,"les":705,"ub":706,"Ġbr":707,"Ġdes":708,"Ġour":709,"ign":710,"Ġits":711,"Ġ19":712,"ved":713,"other":714,"lease":715,"Ġ20":716,"Ġsm":717,"riend":718,"ily":719,"Ġinclud":720,"Ġword":721,"Ġlook":722,"Ġback":723,"ations":724,"mer":725,"ob":726,"Ġdon":727,"ving":728,"Ġpre":729,"ens":730,"Ġeach":731,"ĠCh":732,"ces":733,"alk":734,"lf":735,"wn":736,"Ġtwo":737,"Ġbet":738,"Ġfo":739,"Ġlong":740,"hen":741,"Ġdid":742,"ĠâĢľ":743,"ons":744,"Ġplay":745,"ĊĠĠĠĠ":746,"Ġimp":747,"ft":748,"Ġwhere":749,"ause":750,"ious":751,"Ġunder":752,"rit":753,"ars":754,"gg":755,"Ġuse":756,"ost":757,"ĠYou":758,"ful":759,"Ġpers":760,"ting":761,"Ġsee":762,"fore":763,"ĠThey":764,"ock":765,"Ġke":766,"Ġafter":767,"rent":768,"Ġthrough":769,"Ġcol":770,"Ġmost":771,"Ġmany":772,"Ġtoo":773,"ial":774,"hes":775,"form":776,"Ġonly":777,"ĠV":778,"ates":779,"omet":780,"Ġdif":781,"Ġshort":782,"Ġser":783,"ict":784,"Ġstart":785,"aking":786,"Ġact":787,"get":788,"let":789,"'m":790,"ition":791,"ves":792,"ĊĠĠĠ":793,"Ġtra":794,"Ġmay":795,"Ġrec":796,"ull":797,"Ġfun":798,"Ġart":799,"ian":800,"ool":801,"Ġnum":802,"Ġdown":803,"Ġfriend":804,"ise":805,"vers":806,"Ġgood":807,"be":808,"What":809,"Ġapp":810,"Ġway":811,"Ġchar":812,"ating":813,"ect":814,"Ġmu":815,"Ġra":816,"Ġ=":817,"llow":818,"Ġeven":819,"ĠShe":820,"Ġlife":821,".\"":822,"ere":823,"Ġche":824,"Ġ4":825,"Ġaround":826,"Ġthese":827,"vent":828,"Ġatt":829,"oth":830,"Ġrem":831,"ple":832,"Ġhome":833,"ng":834,"oss":835,"Ġsaid":836,"Ġend":837,"Ġfind":838,"Ġaw":839,"Ġlet":840,"Ġbefore":841,"Ġworld":842,"ath":843,"Ġ5":844,"Ġcall":845,"Ġcomm":846,"day":847,"Ġbu":848,"Ġfeel":849,"Ġwell":850,"..":851,"Ġvery":852,"Ġfam":853,"iss":854,"ower":855,"vie":856,"Ġwrite":857,"ange":858,"Ġthen":859,"Ġcons":860,"Ġtake":861,"Ġmade":862,"old":863,"Ġadd":864,"up":865,"self":866,"Ġwords":867,"Ġsl":868,"Ġdoes":869,"Ġyears":870,"Ġdiffe":871,"ank":872,"aw":873,"ize":874,"ouse":875,"uring":876,"ave":877,"Ġsomet":878,"ited":879,"hy":880,"Ġwhile":881,"Ġname":882,"Ġlove":883,"Ġwater":884,"ert":885,"Ġacc":886,"Ġmuch":887,"ather":888,"ames":889,"Ġcre":890,"Ġbel":891,"Ġperson":892,"Ġchild":893,"Ġrel":894,"ef":895,"Ġcar":896,"Ġfollow":897,"Ġret":898,"Ġset":899,"Ġsk":900,"akes":901,"ittle":902,"Ġthink":903,"Ġthings":904,"Ġthree":905,"ular":906,"Ġsur":907,"Ġbest":908,"Ġthough":909,"Ġdec":910,"acter":911,"Ġbecause":912,"raph":913,"pect":914,"Ġac":915,"Ġbeing":916,"Ġagain":917,"Ġprodu":918,"ffe":919,"ased":920,"'re":921,"Ġide":922,"orn":923,"âĢ¢":924,"ied":925,"Ġquest":926,"cri":927,"sw":928,"Ġind":929,"Ġgreat":930,"Ġent":931,"ures":932,"Ġpar":933,"Ġhum":934,"Ġnow":935,"Ġinv":936,"Ġgive":937,"cial":938,"Ġexpl":939,"Ġinc":940,"ual":941,"Ġmon":942,"Ġdog":943,"ative":944,"atch":945,"ward":946,"Ġhapp":947,"Ġfood":948,"Ġshow":949,"In":950,"Ġ'":951,"Ġown":952,"ities":953,"its":954,"ib":955,"Ġsec":956,"Ġcr":957,"ĠWe":958,"Ġtry":959,"erm":960,"Ġlittle":961,"Ġread":962,"Ġcreat":963,"ible":964,"Ġcharacter":965,"Ġbook":966,"Ġdifferent":967,"Ġfound":968,"ĠUn":969,"any":970,"Ġform":971,"ins":972,"Ġbeg":973,"read":974,"ĠAs":975,"air":976,"thing":977,"led":978,"Ġhigh":979,".[":980,"ets":981,"Ġgu":982,"lect":983,"ener":984,"ram":985,"ĠWhat":986,"Ġstr":987,"ween":988,"Ġlar":989,"bs":990,"ific":991,"Ġkeep":992,"Ġsy":993,"ĠIf":994,"Ġold":995,"arm":996,"Ġstud":997,"der":998,"Ġtri":999,"ix":1000,"ced":1001,"ways":1002,"Ġhand":1003,"ness":1004,"Ġright":1005,"Ġgoing":1006,"Ġop":1007,"Ġsmall":1008,"ĠAl":1009,"co":1010,"Ġins":1011,"Ġfew":1012,"Ġsure":1013,"Ġfin":1014,"Ġbetween":1015,"ork":1016,"ject":1017,"imes":1018,"Ġear":1019,"Ġty":1020,"tern":1021,"ek":1022,"Ġsomething":1023,"alth":1024,"Ġmin":1025,"ants":1026,"Ġgl":1027,"Ġinst":1028,"ale":1029,"Ġplan":1030,"Ġrep":1031,"Ġsuch":1032,"Ġused":1033,"ince":1034,"ash":1035,"ĠMake":1036,"Ġask":1037,"ty":1038,"Ġexper":1039,"Ġprov":1040,"ody":1041,"ident":1042,"Ġap":1043,"ines":1044,"chool":1045,"iet":1046,"ually":1047,"ron":1048,"Ġcome":1049,"olog":1050,"ts":1051,"Ġpoem":1052,"bot":1053,"ĠBut":1054,"ird":1055,"Ġsent":1056,"Ġsim":1057,"Ġreal":1058,"cess":1059,"Ġph":1060,"Ġcur":1061,"icle":1062,"Ġpoint":1063,"Ġloc":1064,"pr":1065,"ats":1066,"Ġrest":1067,"Ġreg":1068,"Ġfamily":1069,"Ġvis":1070,"ics":1071,"ĠBe":1072,"land":1073,"ote":1074,"ream":1075,"ner":1076,"Ġlo":1077,"Th":1078,"ss":1079,"Ġmus":1080,"io":1081,"ott":1082,"uck":1083,"Ġsay":1084,"ever":1085,"Ġca":1086,"ĠHow":1087,"agraph":1088,"Ġbre":1089,"Ġlight":1090,"Ġansw":1091,"meric":1092,"ience":1093,"reen":1094,"Ġsupp":1095,"ption":1096,"lic":1097,"Ġass":1098,"ik":1099,"Ġalways":1100,"Ġmet":1101,"Ġpass":1102,"Ġtell":1103,"Ġwr":1104,"Ġstill":1105,"Ġhere":1106,"ments":1107,"Ġusing":1108,"Ġinclude":1109,"Ġcalled":1110,"Ġclass":1111,"Ġ$":1112,"Ġtext":1113,"Ġnever":1114,"Ġext":1115,"Ġbo":1116,"Ġdet":1117,"here":1118,"Ġchat":1119,"Ġlear":1120,"Ġnext":1121,"Ġeas":1122,"Ġrun":1123,"Ġgame":1124,"amp":1125,"Ġlast":1126,"ny":1127,"Ġparagraph":1128,"Ġnight":1129,"Ġfil":1130,"Ġduring":1131,"Ġey":1132,"me":1133,"Ġsum":1134,"Ġaway":1135,"'ll":1136,"Ġturn":1137,"Ġhead":1138,"Ġcle":1139,"row":1140,"Ġput":1141,"Ġplace":1142,"Ġpop":1143,"Ġreturn":1144,"ead":1145,"ex":1146,"Ġpres":1147,"te":1148,"ho":1149,"Ġinform":1150,"az":1151,"Ġcount":1152,"Ġmight":1153,"ier":1154,"Ġbus":1155,").":1156,"ĠAmeric":1157,"Ġgrow":1158,"Ġresp":1159,"ax":1160,"ature":1161,"Ġmain":1162,"Ġschool":1163,"ract":1164,"amed":1165,"),":1166,"Ġdescri":1167,"Ġtop":1168,"Ġvar":1169,"iness":1170,"pped":1171,"ok":1172,"Ġ6":1173,"view":1174,"Ġfriends":1175,"Ġunt":1176,"hip":1177,"ric":1178,"Ġchatbot":1179,"ger":1180,"Ġbig":1181,"Ġopen":1182,"ention":1183,"ĠThere":1184,"Ġwalk":1185,"ĠAnd":1186,",\"":1187,"ized":1188,"It":1189,"br":1190,"ike":1191,"anc":1192,"ational":1193,"Ġcare":1194,"rand":1195,"Ġhouse":1196,"ems":1197,"Ġ#":1198,"ters":1199,"ling":1200,"ason":1201,"Ġve":1202,"ids":1203,"Ġquestions":1204,"Ġarticle":1205,"ĠSe":1206,".âĢĿ":1207,"Ġknown":1208,"ĊĠĠĠĠĠĠĠĠ":1209,"ared":1210,"ps":1211,"arch":1212,"Ġthose":1213,"fl":1214,"ov":1215,"ility":1216,"ĠCan":1217,"Ġpost":1218,"aut":1219,"Ġboth":1220,"000":1221,"Ġsw":1222,"Ġwrit":1223,"Ġ18":1224,"Ġ10":1225,"ices":1226,"ists":1227,"Ġ201":1228,"Ġspec":1229,"Ġmed":1230,"Ġinter":1231,"Ġhealth":1232,"ense":1233,"Ġexp":1234,"ms":1235,"Ġ[":1236,"Ġsun":1237,"Ġanother":1238,"Ġwhy":1239,"Ġweek":1240,"eng":1241,"Ġuntil":1242,"augh":1243,"Ġtalk":1244,"Ġev":1245,"ah":1246,"Ġchildren":1247,"Can":1248,"'ve":1249,"Ġsame":1250,"ues":1251,"Ġsn":1252,"ional":1253,"Ġgiv":1254,"Ġideas":1255,"Ġwom":1256,"Ġlot":1257,"Ġreally":1258,"Ġanim":1259,"weet":1260,"ences":1261,"bers":1262,"Ġsub":1263,"Ġrequ":1264,"Ġmil":1265,"Ġteam":1266,"avor":1267,"Ġho":1268,"Ġless":1269,"ross":1270,"oun":1271,"You":1272,"Ġbetter":1273,"',":1274,"ten":1275,"Ġ202":1276,"erg":1277,"Ġimport":1278,"Ġgener":1279,"Ġel":1280,"erest":1281,"velop":1282,"Ġgot":1283,"Ġmem":1284,"Ġfollowing":1285,"ĊĊ":1286,"ĠRe":1287,"stand":1288,"ĠSp":1289,"Ġnamed":1290,"Ġdr":1291,"\",":1292,"Ġwithout":1293,"Ġsound":1294,"omm":1295,"ĠNew":1296,"ined":1297,"Ġmonth":1298,"Ġref":1299,"Ġtrans":1300,"yle":1301,"Ġsecond":1302,"Ġhist":1303,"Ġ8":1304,"Ġ{":1305,"Ġstate":1306,"ired":1307,"Ġ200":1308,"Ġfact":1309,"Ġleft":1310,"ĠWhen":1311,"__":1312,"line":1313,"Ġsign":1314,"less":1315,"cer":1316,"Ġincluding":1317,"aces":1318,"Ġdel":1319,"Ġpos":1320,"ret":1321,"Ġaut":1322,"Ġcent":1323,"âĢľ":1324,"Ġcat":1325,"ically":1326,"Ġpur":1327,"Ġsong":1328,"Ġposs":1329,"Ġnear":1330,"Ġsol":1331,"Ġyoung":1332,"ĠPlease":1333,"Ġlead":1334,"Ġspace":1335,"Ġfour":1336,"He":1337,"ĠAn":1338,"joy":1339,"ese":1340,"ys":1341,"âĢĶ":1342,"Ġsomeone":1343,"And":1344,"Ġfive":1345,"Ġmaking":1346,"Ġcreate":1347,"rop":1348,"Ġdidn":1349,"und":1350,"uc":1351,"How":1352,"Ġland":1353,"ains":1354,"15":1355,"St":1356,"Ġgrou":1357,"ute":1358,"Ġpol":1359,"ows":1360,"Ġval":1361,"Ġav":1362,"Ġdevelop":1363,"Ġmust":1364,"Ġair":1365,"Ġhard":1366,"Ġnumber":1367,"oney":1368,"Ġdisc":1369,"Ġdi":1370,"Ġtoget":1371,"Ġtogether":1372,"Ġdri":1373,"ately":1374,"ided":1375,"Ġinterest":1376,"iting":1377,"ider":1378,"ides":1379,"Ġroom":1380,"Ġproduct":1381,"side":1382,"ĠSh":1383,"Ġinformation":1384,"Ġhuman":1385,"Ġbody":1386,"att":1387,"Ġdist":1388,"Ġlarge":1389,"to":1390,"Ġemail":1391,"Ġfree":1392,"ask":1393,"Ġkind":1394,"gan":1395,"Please":1396,"Ġdays":1397,"Ġ7":1398,"ĠHere":1399,",;":1400,";,;":1401,"cept":1402,"ode":1403,"ered":1404,"'d":1405,"ggest":1406,"arent":1407,"ĊĠĠĠĠĠĠĠ":1408,"Ġpain":1409,"Ġpower":1410,"ĠMar":1411,"ton":1412,"Ġenjoy":1413,"Ġpub":1414,"Ġjob":1415,"Ġmom":1416,"Ġoften":1417,"Ġob":1418,"atur":1419,"Ġfull":1420,"ĠAd":1421,"Ġlearn":1422,"ĠWh":1423,"ĠJo":1424,"19":1425,"by":1426,"ffect":1427,"When":1428,"Ġlive":1429,"com":1430,"Ġmag":1431,"Ġleast":1432,"Ġappe":1433,"Ġeat":1434,"ster":1435,"ories":1436,"Ġmiss":1437,"ries":1438,"Ġbelie":1439,"que":1440,"oes":1441,"Ġsince":1442,"rain":1443,"Ġunderstand":1444,"ney":1445,"Ġbuild":1446,"the":1447,"ished":1448,"Ġheart":1449,"Ġtyp":1450,"ards":1451,"leep":1452,"Ġsing":1453,"oon":1454,"ĠMay":1455,"Ġcontin":1456,"itive":1457,"arr":1458,"Ġline":1459,"ĠDe":1460,"ĠUnited":1461,"Ġwent":1462,"irl":1463,"17":1464,",âĢĿ":1465,"ug":1466,"Ġed":1467,"Ġpat":1468,"Ġprog":1469,"Ġlooking":1470,"50":1471,"Ġdire":1472,"Ġthought":1473,"Ġtoday":1474,"ush":1475,"Ġdoesn":1476,"Ġeyes":1477,"man":1478,"Ġfore":1479,"ertain":1480,"Ġcook":1481,"Ġprom":1482,"Ġever":1483,"enc":1484,"Ġsal":1485,"Ġable":1486,"Ġpot":1487,"Ġexam":1488,"Ġsuggest":1489,"Ġbeh":1490,"vice":1491,"Ġmark":1492,"Ġhaving":1493,"Ġcompany":1494,"ient":1495,"Ġbeaut":1496,"Ġgetting":1497,"Ġtrying":1498,"reate":1499,"ift":1500,"Ġpast":1501,"Ġprof":1502,"ĠOn":1503,"Ġenough":1504,"()":1505,"ene":1506,"ruct":1507,"Ġele":1508,"Ġcomplet":1509,"aur":1510,"ĠKe":1511,"med":1512,"Ġcame":1513,"uff":1514,"ump":1515,"ĠPl":1516,"Ġagainst":1517,"illion":1518,"Ġes":1519,"Ġfunction":1520,"ital":1521,"ield":1522,"port":1523,"Ġwind":1524,"ane":1525,"Ġwa":1526,"rodu":1527,"ĠAr":1528,"Ġ9":1529,"Ġcour":1530,"ĠAt":1531,"Ġbecome":1532,"ĠFr":1533,"fect":1534,"Ġbusiness":1535,"Ġcity":1536,"Ġdra":1537,"ĠMy":1538,"my":1539,"Ġbreak":1540,"Ġonce":1541,"chn":1542,"Ġquick":1543,"We":1544,"Ġstand":1545,"Ġtravel":1546,"20":1547,"utes":1548,"Ġimportant":1549,"arth":1550,"ium":1551,"aring":1552,"ages":1553,"Ġbul":1554,"Ġhour":1555,"cient":1556,"ĠBl":1557,"pend":1558,"Ġmind":1559,"Ġside":1560,"con":1561,"Ġprot":1562,"uss":1563,"Ġalong":1564,"Ġanything":1565,"ution":1566,"ify":1567,"ients":1568,"ĠFor":1569,"unch":1570,"oice":1571,"Ġsyst":1572,"Ġproble":1573,"ewrite":1574,"ĠQ":1575,"Ġfilm":1576,"Ġmar":1577,"ata":1578,"Ġmother":1579,"ĠStates":1580,"Ġthing":1581,"Ġcommun":1582,"ball":1583,"This":1584,"ĠLe":1585,"Ġuni":1586,"bo":1587,"room":1588,"Ġactiv":1589,"pping":1590,"ĠFl":1591,"ape":1592,"Ġwin":1593,"ining":1594,"But":1595,"10":1596,"Rewrite":1597,"Ġfall":1598,"Ġmakes":1599,"ember":1600,"Ġtook":1601,"ened":1602,"Ġblack":1603,"Ġways":1604,"ones":1605,"Ġmovie":1606,"Ġwon":1607,"Ġcond":1608,"Ġcal":1609,"Ġstay":1610,"Ġstarted":1611,"ina":1612,"Ġpay":1613,"outh":1614,"ills":1615,"Ġmean":1616,"Ġsuper":1617,"Ġfavor":1618,"Ġbit":1619,"Ġexperience":1620,"Ġsupport":1621,"Ġopp":1622,"Ġmor":1623,"Ġlater":1624,"Ġstore":1625,"Ġletter":1626,"ustom":1627,"ĠThat":1628,"Ġ0":1629,"Ġmove":1630,"Ġplease":1631,"ots":1632,"ently":1633,"ĠâĢĵ":1634,"Ġmoney":1635,"?\"":1636,"Ġtre":1637,"Ġtimes":1638,"Ġpopular":1639,"atter":1640,"Ġgroup":1641,"used":1642,"ement":1643,"Ġdrink":1644,"gr":1645,"igin":1646,"ĠThese":1647,"els":1648,"osed":1649,"Ġsleep":1650,"Ġfar":1651,"Ġleg":1652,"ptions":1653,"Ġexplain":1654,"bl":1655,"Ġboy":1656,"aj":1657,"ched":1658,"Ġbegan":1659,"Ġsit":1660,"ried":1661,"Ġeverything":1662,"Ġpartic":1663,"oint":1664,"ips":1665,"Ġcolor":1666,"Ġwriting":1667,"Ġanswer":1668,"clude":1669,"sh":1670,"ĊĠ":1671,"Ġcommon":1672,"cent":1673,"My":1674,"enn":1675,"Ġparent":1676,"Here":1677,"cle":1678,"Ġtone":1679,"Ġwhite":1680,"ision":1681,"Ġreview":1682,"Ġface":1683,"ĠBr":1684,"elt":1685,"ĠZ":1686,"Ġorder":1687,"hor":1688,"Ġbed":1689,"ism":1690,"Ġresult":1691,"Ġconf":1692,"Ġdoing":1693,"ellow":1694,"ĠEng":1695,"Ġdesign":1696,"hn":1697,"ury":1698,"Ġchange":1699,"Ġhistory":1700,"Ġgirl":1701,"Ġkids":1702,"ĠEarth":1703,"Ġhope":1704,"As":1705,"fort":1706,"Ġchang":1707,"Ġseries":1708,"Ġincre":1709,"sel":1710,"Ġclim":1711,"Ġbegin":1712,"Ġarea":1713,"Ġexc":1714,"Ġdef":1715,"ploy":1716,"itten":1717,"ĠAmerican":1718,"Ġnames":1719,"iew":1720,"ases":1721,"aby":1722,"Ġprocess":1723,"Ġmeet":1724,"Ġwatch":1725,"Ġdeep":1726,"Ġgames":1727,"Ġdep":1728,"Ġtreat":1729,"oud":1730,"ming":1731,"Ġdark":1732,"Ġred":1733,"idd":1734,"Ġallow":1735,"Ġtechn":1736,"aves":1737,"Ġeasy":1738,"aster":1739,"urt":1740,"Ġbelow":1741,"ann":1742,"iron":1743,"Ġothers":1744,"Ġcurrent":1745,"Ġwithin":1746,"Ġplant":1747,"Ġhappy":1748,"Ġocc":1749,"Ġdetail":1750,"erc":1751,"ready":1752,"Ġdirect":1753,"Ġeng":1754,"oid":1755,"Ġcou":1756,"Ġanswers":1757,"Ġtem":1758,"ĠIs":1759,"ĠWrite":1760,"Ġelect":1761,"ĠHowever":1762,"Ġwoman":1763,"ĠGive":1764,"Ġmusic":1765,"orld":1766,"Ġpa":1767,"Ġeveryone":1768,"Ġbring":1769,"Ġla":1770,"Ġlaw":1771,"Ġegg":1772,"ĠOne":1773,"ccess":1774,"Ġsentences":1775,"Ġvisit":1776,"par":1777,"Ġtit":1778,"err":1779,"Ġminutes":1780,"verse":1781,"ray":1782,"Ġalready":1783,"Ġprogram":1784,"Ġsays":1785,"Ġpark":1786,"eth":1787,"Ġstep":1788,"Ġconst":1789,"Ġsaw":1790,"ĠCl":1791,"put":1792,"ted":1793,"Ġground":1794,"Ġseem":1795,"Ġi":1796,"Ġtold":1797,"An":1798,"Ġcustom":1799,"ology":1800,"ator":1801,"Ġevent":1802,"Ġorigin":1803,"ality":1804,"Ġrock":1805,"way":1806,"ung":1807,"ording":1808,"Ġsumm":1809,"lling":1810,"oose":1811,"Ġgra":1812,"Ġsever":1813,"udd":1814,"Ġspecial":1815,"Ġprovide":1816,"Ġhot":1817,"ffee":1818,"app":1819,"Ġfr":1820,"Ġlevel":1821,"Ġinvest":1822,"year":1823,"!\"":1824,"Ġwar":1825,"Ġworking":1826,"Ġbecame":1827,"Ġaud":1828,"Ġfill":1829,"Ġtown":1830,");":1831,"vern":1832,"Ġhair":1833,"Ġtype":1834,"Ġacross":1835,"Ġclean":1836,"Ġanimals":1837,"Ġbullet":1838,"Ġknew":1839,"Ġmess":1840,"ont":1841,"ĠSo":1842,"ai":1843,"gest":1844,"work":1845,"ĠSc":1846,"une":1847,"Ġoutside":1848,"Ġseveral":1849,"lish":1850,"ĠEx":1851,"pective":1852,"Ġcharacters":1853,"Ġcor":1854,"Ġbro":1855,"Ġcomes":1856,"ither":1857,"Ġstyle":1858,"rol":1859,"bered":1860,"There":1861,"ĠInclude":1862,"Ġfoc":1863,"Ġview":1864,"Ġwanted":1865,"Ġpick":1866,"Ġelse":1867,"eor":1868,"ĠWith":1869,"Ġlow":1870,"Ġiss":1871,"Ġrhy":1872,"ĠKing":1873,"Ġpossible":1874,"Ġrese":1875,"Ġcolle":1876,"ening":1877,"ĠAll":1878,"Ġnews":1879,"Ġ199":1880,"Ġrele":1881,"Ġrece":1882,"Ġcost":1883,"Ġtest":1884,"irth":1885,"ored":1886,"ĠUse":1887,"Ġfavorite":1888,"Ġcap":1889,"resh":1890,"Ġreport":1891,"Ġmillion":1892,"zz":1893,"ential":1894,"Ġpie":1895,"ĠTo":1896,"ĠDo":1897,"Ġmorning":1898,"Ġbird":1899,"Ġstop":1900,"ĠPr":1901,"Ġcountry":1902,"Ġsystem":1903,"iful":1904,"ĠNo":1905,"Ġfather":1906,"ley":1907,"ele":1908,"Ġtree":1909,"Ġimpro":1910,"--":1911,"Ġtoward":1912,"Ġhor":1913,"Ġappro":1914,"ination":1915,"Ġcheck":1916,"Ġseen":1917,"Ġparty":1918,"Ġcomplete":1919,"ified":1920,"ront":1921,"Ġben":1922,"alf":1923,"olate":1924,"Ġperfect":1925,"Ġbased":1926,"Ġclose":1927,"Ch":1928,"Ġsocial":1929,"Ġoffer":1930,"Who":1931,"ĠHis":1932,"itional":1933,"Ġeffect":1934,"Ġearly":1935,"iety":1936,"ised":1937,"ives":1938,"Ġblue":1939,"ĠAfter":1940,"Ġenc":1941,"ĠKeep":1942,"Ġlocal":1943,"Ġpri":1944,"Ġjo":1945,"bed":1946,"light":1947,"ring":1948,"orth":1949,"pper":1950,"Ġage":1951,"ony":1952,"oor":1953,"Ġann":1954,"most":1955,"Ġdream":1956,"Ġliving":1957,"Ġpublic":1958,"Ġwo":1959,"Ġwhole":1960,"ĠUS":1961,"Ġprofess":1962,"acks":1963,"Ġsuccess":1964,"...":1965,"Ġdone":1966,"ĠOr":1967,"ĠâĢĶ":1968,"angu":1969,"Ġdue":1970,"Ġquestion":1971,"ably":1972,"rence":1973,"ged":1974,"Ġhold":1975,"Ġmeans":1976,"Ġing":1977,"Ġfut":1978,"but":1979,"ured":1980,"Ġpract":1981,"Ġkey":1982,"Ġcheese":1983,"erv":1984,"Ġgreen":1985,"ĠDon":1986,"ivid":1987,"ĠJohn":1988,"Ġwarm":1989,"ee":1990,"Ġperform":1991,"Ġsimple":1992,"viron":1993,"Ġ`":1994,"Ġtaking":1995,"Ġorgan":1996,"Ġadv":1997,"Ġlooked":1998,"Ġcoffee":1999,"lex":2000,"To":2001,"Ġblog":2002,"rench":2003,"Ġbad":2004,"Ġstrong":2005,"Ġfeet":2006,"ivers":2007,"Ġparagraphs":2008,"Ġz":2009,"Ġlay":2010,"Ġdoor":2011,"Ġsoon":2012,"Ġidea":2013,"Ġhours":2014,"Ġball":2015,"ables":2016,"Ġinvol":2017,"Ġasked":2018,"atural":2019,"):":2020,"Ġfur":2021,"Ġbirth":2022,"On":2023,"Ġlim":2024,"raft":2025,"Ġemploy":2026,"Ġconsider":2027,"reet":2028,"Ġdogs":2029,"itions":2030,"ĠTr":2031,"Ġplants":2032,"Ġterm":2033,"omp":2034,"Ġste":2035,"aving":2036,"rew":2037,"owers":2038,"ral":2039,"Ġgard":2040,"ĠHer":2041,"Ġmen":2042,"Ġinside":2043,"If":2044,"][":2045,"time":2046,"Ġbooks":2047,"Ġmonths":2048,"Ġhy":2049,"Ġtrad":2050,"oll":2051,"Ġyourself":2052,"Ġ12":2053,"nect":2054,"ued":2055,"Ġfelt":2056,"ĠYork":2057,"Ġcourse":2058,"Ġself":2059,"Ġvide":2060,"Ġspend":2061,"Ġitems":2062,"Ġenerg":2063,"ĠPro":2064,"Ġ17":2065,"ocolate":2066,"Ġrecord":2067,"Ġmention":2068,"ully":2069,"Ġexpect":2070,"Ġbeautiful":2071,"rist":2072,"ison":2073,"ĠSome":2074,"Ġskin":2075,"ks":2076,"Ġjour":2077,"Ġinstead":2078,"atic":2079,"rief":2080,"Ġexample":2081,"Ġ;,;":2082,"Ġbutter":2083,"Ġcup":2084,"Ġbas":2085,"Ġpress":2086,"Ġpositive":2087,"Ġbox":2088,"Create":2089,"Ġmult":2090,"Ġcontain":2091,"of":2092,"ising":2093,"arry":2094,"Ġdin":2095,"Ġhelps":2096,"Ġcut":2097,"Ġbenef":2098,"ches":2099,"Ġcode":2100,"Ġsweet":2101,"Ġcell":2102,"itch":2103,"Ġ15":2104,"Ġleave":2105,"Ġbehind":2106,"Ġ&":2107,"Ġest":2108,"ager":2109,"Ġingred":2110,"eral":2111,"Ġseason":2112,"Ġneeds":2113,"Ġmarket":2114,"Ġice":2115,"Ġcamp":2116,"rap":2117,"Ġgold":2118,"ales":2119,"Ġlangu":2120,"Ġnumbered":2121,"Ġcream":2122,"hys":2123,"Ġrestaur":2124,"Ġsingle":2125,"Ġsummer":2126,"Ġfuture":2127,"can":2128,"Ġblood":2129,"where":2130,"Ġtast":2131,"play":2132,"Ġspecific":2133,"Ġparents":2134,"bit":2135,"Ġfight":2136,"Ġequ":2137,"aim":2138,"ateg":2139,"Ġwritten":2140,"Ġadult":2141,"Ġslow":2142,"Ġoptions":2143,"Ġsho":2144,"Ġneeded":2145,"Ġamount":2146,"Ġpresent":2147,"vironment":2148,"Ġfly":2149,"urs":2150,"ĠWorld":2151,"astic":2152,"ached":2153,"Ġcomb":2154,"Ġprint":2155,"Ġnothing":2156,"cially":2157,"ajor":2158,"Ġenergy":2159,"fer":2160,"ying":2161,"ilar":2162,"Ġplaces":2163,"Ġintrodu":2164,"Ġrespons":2165,"yth":2166,"Ġmod":2167,"Ġdescription":2168,"ĊĠĠĠĠĠĠĠĠĠĠĠ":2169,"Ġfish":2170,"Ġdem":2171,"orts":2172,"izz":2173,"Ġhands":2174,"Ġchall":2175,"for":2176,"Ġsoft":2177,"ior":2178,"mb":2179,"ĠInd":2180,"Ġreach":2181,"ency":2182,"12":2183,"mp":2184,"ĠSu":2185,"Ġyet":2186,"ĠCal":2187,"Ġrain":2188,"Ġstra":2189,"Ġlost":2190,"though":2191,"Ġtrue":2192,"Ġperspective":2193,"Ġauthor":2194,"ned":2195,"wh":2196,"Ġdata":2197,"Ġcoming":2198,"Ġfre":2199,"Ġkill":2200,"Ġtakes":2201,"ler":2202,"Ġmass":2203,"Ġeither":2204,"iced":2205,"ument":2206,"Ġtypes":2207,"Ġunique":2208,"tain":2209,"ength":2210,"ython":2211,"sc":2212,"Ġreci":2213,"ived":2214,"Ġpoints":2215,"Ġquickly":2216,"ED":2217,"Ġfront":2218,"Ġbar":2219,"ances":2220,"Ġabove":2221,"ĠYour":2222,"Ġ30":2223,"Ġtrip":2224,"Ġfresh":2225,"ude":2226,"Ġspecies":2227,"ls":2228,"Ġlate":2229,"Ġlives":2230,"Ġdeath":2231,"Ġwild":2232,"itting":2233,"cul":2234,"Ġhig":2235,"key":2236,"like":2237,"Ġri":2238,"head":2239,"Ġlonger":2240,"Ġcertain":2241,"Ġfeeling":2242,"Ġindivid":2243,"Ġsqu":2244,"atures":2245,"Ġpu":2246,"iding":2247,"Ġstudents":2248,"gar":2249,"por":2250,"Ġfast":2251,"Ġlines":2252,"Ġ100":2253,"ĠFrench":2254,"Ġsurf":2255,"ĊĠĠĠĠĠĠĠĠĠĠĠĠ":2256,"Ġpret":2257,"Ġentire":2258,"Ġproblem":2259,"bing":2260,"use":2261,"Ġbaby":2262,"anger":2263,"Wh":2264,"arize":2265,"Ġisn":2266,"ĠCar":2267,"Ġadvent":2268,"not":2269,"Ġmount":2270,"Ġmix":2271,"aced":2272,"Ġoffic":2273,"Ġdiff":2274,"na":2275,"ana":2276,"Ġupon":2277,"Ġinfl":2278,"Ġnon":2279,"Ġreason":2280,"Ġbelieve":2281,"Ġdest":2282,"ĠWill":2283,"Ġproject":2284,"Ġmiles":2285,"Ġpet":2286,"Ġphys":2287,"ĠCol":2288,"ĠPe":2289,"Ġhimself":2290,"uly":2291,"Ġsand":2292,"Ġneg":2293,"Ġavail":2294,"ĠEl":2295,"Ġgiven":2296,"Ġprotect":2297,"iter":2298,"Ġfire":2299,"ister":2300,"ĠThen":2301,"Ġweight":2302,"Ġvers":2303,"ental":2304,"Ġalmost":2305,"selves":2306,"Ġnove":2307,"osp":2308,"ilt":2309,"ĠWar":2310,"istic":2311,"Ġchick":2312,"Ġconvers":2313,"Ġgovern":2314,"Ġcreated":2315,"(\"":2316,"Ġcult":2317,"Ġfield":2318,"ili":2319,"Ġfoot":2320,"Ġpersonal":2321,"Ġclear":2322,"Ġfocus":2323,"Ġfru":2324,"Ġplaying":2325,"iod":2326,"Ġsour":2327,"Ġda":2328,"Ġcontrol":2329,"Ġsentence":2330,"vious":2331,"iction":2332,"Ġheard":2333,"ils":2334,"Ġsea":2335,"So":2336,"Ġplanet":2337,"Ġsix":2338,"Ġtom":2339,"Ġeff":2340,"Ġrepl":2341,"Ġenvironment":2342,"Ġwonder":2343,"ze":2344,"hel":2345,"verage":2346,"Ġgets":2347,"Ġobject":2348,"eds":2349,"Ġoffice":2350,"elebr":2351,"18":2352,"Ġsize":2353,"ĠMr":2354,"Ġmyself":2355,"Ġcouldn":2356,"Ġveget":2357,"cing":2358,"ec":2359,"Ġexerc":2360,"ĠEnglish":2361,"Cl":2362,"Ġpack":2363,"Ġshare":2364,"Ġbrain":2365,"Ġmajor":2366,"Ġgrand":2367,"Ġemot":2368,"Ġreleased":2369,"ery":2370,"Ġant":2371,"Ġcontent":2372,"Ġingredients":2373,"Ġstri":2374,"ortun":2375,"iku":2376,"Ġvalue":2377,"Ġess":2378,"irt":2379,"erson":2380,"aps":2381,"ground":2382,"Ġrange":2383,"ĠNe":2384,"Ġdate":2385,"Ġhit":2386,"ER":2387,"Ġhalf":2388,"Ġprep":2389,"Ġphone":2390,"dom":2391,"Ġstar":2392,"Ġcold":2393,"bor":2394,"ering":2395,"ĠInst":2396,"Ġvarious":2397,"ĠCon":2398,"Ġwasn":2399,"ĠRo":2400,"Ġcommunity":2401,"Ġheav":2402,"Ġloved":2403,"Ġwomen":2404,"fully":2405,"uro":2406,"Ġsense":2407,"Ġnut":2408,"Ġnice":2409,"ety":2410,"ization":2411,"Ġplayed":2412,"Ġready":2413,"Ġmeth":2414,"Ġ*":2415,"Ġcool":2416,"edd":2417,"Ġhear":2418,"ationship":2419,"ians":2420,"Ġmatter":2421,"Ġinf":2422,"vert":2423,"empt":2424,"Ġscient":2425,"Ġ16":2426,"Ġcomfort":2427,"ĠWhile":2428,"iam":2429,"min":2430,"Ġcause":2431,"Ġbrief":2432,"Ġgrad":2433,"Ġmoment":2434,"Ġ/":2435,"Ġbot":2436,"Ġamong":2437,"aughter":2438,"Ġredu":2439,"Ġstru":2440,"],":2441,"Ġmot":2442,"____":2443,"Ġlanguage":2444,"Ġfair":2445,"Ġdiv":2446,"Ġrole":2447,"Ġsafe":2448,"Ġgarden":2449,"Ġcelebr":2450,"icult":2451,"Ġtitle":2452,"iny":2453,"oura":2454,"Ġfig":2455,"umb":2456,"Ġclos":2457,"Ġscene":2458,"Ġlearning":2459,"olf":2460,"Ġmoon":2461,"Ġfinally":2462,"Ġevents":2463,"Ġgen":2464,"Ġvol":2465,"ples":2466,"Ġskills":2467,"book":2468,"val":2469,"Ġsil":2470,"Ġbott":2471,"ises":2472,"ests":2473,"ĠDis":2474,"Ġfunny":2475,"Ġnatural":2476,"pecially":2477,"Ġrelationship":2478,"Ġactivities":2479,"Ġavailable":2480,"acher":2481,"Ġdifficult":2482,"sy":2483,"Ġfro":2484,"ommend":2485,"ges":2486,"Ġ<":2487,"Ġson":2488,"Ġoper":2489,"Ġdig":2490,"Ġnature":2491,"Ġmoder":2492,"Ġlikely":2493,"col":2494,"ðŁ":2495,"Ġ}":2496,"Ġobs":2497,"ĠAm":2498,"idered":2499,"Ġmedia":2500,"Ġmethod":2501,"Ġthird":2502,"ĠChe":2503,"rill":2504,"09":2505,"Ġsat":2506,"ida":2507,"Ġopportun":2508,"aly":2509,"....":2510,"Ġcapt":2511,"Ġhealthy":2512,"Ġcir":2513,"Ġbreat":2514,"ume":2515,"plain":2516,"ging":2517,"ĠNot":2518,"Ġcolors":2519,"acy":2520,"reme":2521,"Ġproper":2522,"Ġperiod":2523,"Ġrunning":2524,"ators":2525,"ĠQu":2526,"Ġactually":2527,"Ġphot":2528,"Ġtou":2529,"Ġgave":2530,"Ġrecommend":2531,"Ġconsidered":2532,"Ġhumans":2533,"Ġeggs":2534,"With":2535,"Ġattention":2536,"Ġdecided":2537,"Ġturned":2538,"Ġbuilding":2539,"Ġresearch":2540,"iver":2541,"set":2542,"isk":2543,"rought":2544,"ials":2545,"Ġfem":2546,"Ġbag":2547,"cean":2548,"Ġareas":2549,".)":2550,"11":2551,"asons":2552,"ĠBrit":2553,"aken":2554,"Ġworks":2555,"Ġdisco":2556,"Ġimprove":2557,"Ġwood":2558,"Ġcast":2559,"izing":2560,"Ġarri":2561,"Ġago":2562,"Ġlargest":2563,"Ġstudy":2564,"Ġborn":2565,"Ġbright":2566,"Ġpaper":2567,"\".":2568,"ror":2569,"Ġident":2570,"ashing":2571,"ĠPh":2572,"ĠLet":2573,"resent":2574,"They":2575,"reng":2576,"ĠChrist":2577,"Ġnumbers":2578,"dd":2579,"umm":2580,"Ġwants":2581,"Ġwhether":2582,"ĠJust":2583,"Ġaccess":2584,"Ġeye":2585,"That":2586,"asy":2587,"ands":2588,"ĠGeor":2589,"oci":2590,"Ġusually":2591,"Ġsometimes":2592,"Ġinsp":2593,"No":2594,"son":2595,"Ġtweet":2596,"Ġmater":2597,"Ġabs":2598,"onds":2599,"Ġsimilar":2600,"Ġmembers":2601,"Ġcrit":2602,"owl":2603,"Ġonline":2604,"oop":2605,"ulation":2606,"Ġchocolate":2607,"Ġgoes":2608,"Ġbuy":2609,"Ġcouple":2610,"Ġvideo":2611,"Ġfit":2612,"Ġtot":2613,"idence":2614,"ĠAdd":2615,"Ġwait":2616,"Ġuser":2617,"onse":2618,"ĠMan":2619,"Ġconnect":2620,"Ġlived":2621,"overed":2622,"ĠChar":2623,"Ġindust":2624,"ĠAlso":2625,"Ġforest":2626,"IN":2627,"word":2628,"Ġneigh":2629,"Ġcomput":2630,"Ġweeks":2631,"Ġdetails":2632,"lished":2633,"ĠTw":2634,"uses":2635,"Ġsad":2636,"iday":2637,"chie":2638,"aught":2639,"Ġsau":2640,"oring":2641,"Ġquite":2642,"Ġattempt":2643,"Ġparticular":2644,"Ġfail":2645,"Ġbase":2646,"Ġhost":2647,"artment":2648,"Ġbrother":2649,"Ġaccount":2650,"Ġmilk":2651,"ees":2652,"Ċĉ":2653,"Ġdied":2654,"Ġep":2655,"Ġsky":2656,"Ġsurpr":2657,"Ġesc":2658,"Ġtips":2659,"ades":2660,"Ġdise":2661,"Ġremember":2662,"anks":2663,"Ġextra":2664,"14":2665,"iant":2666,"Ġbur":2667,"Ġhaiku":2668,"Ġprofessional":2669,"Ġtable":2670,"ops":2671,"Ġbecom":2672,"Ġsurface":2673,"For":2674,"Ġtour":2675,"Ġpull":2676,"Ġvoice":2677,"Ġcover":2678,"Ġtried":2679,"Ġaudience":2680,"bum":2681,"go":2682,"hood":2683,"ought":2684,"Ġexperi":2685,"Ġespecially":2686,"Ġwife":2687,"ĠTe":2688,"Ġ198":2689,"Ġtemper":2690,"ĠPark":2691,"Ġregular":2692,"Ġdiscuss":2693,"attle":2694,"ires":2695,"Ġbal":2696,"Ġhol":2697,"ĠCo":2698,"apan":2699,"Ġremain":2700,"Ġnovel":2701,"ĠEn":2702,"Ġens":2703,"ĠUnivers":2704,"Ġwrong":2705,"13":2706,"kn":2707,"Ġlif":2708,"asing":2709,"ĠTV":2710,"hern":2711,"unt":2712,"Ġarg":2713,"Ġanyone":2714,"Ġappear":2715,"Ġcry":2716,"itc":2717,"Ġpict":2718,"ĠPres":2719,"Ġexist":2720,"Ġthroughout":2721,"Ġsuggestions":2722,"ration":2723,"Ġcard":2724,"Ġstreng":2725,"ĠSm":2726,"antly":2727,"Ġexce":2728,"Ġspeak":2729,"ially":2730,"ply":2731,"ograph":2732,"Ġservice":2733,"Ġtalking":2734,"ky":2735,"aches":2736,"elp":2737,"medi":2738,"mber":2739,"iff":2740,"ability":2741,"Ġleaves":2742,"ogn":2743,"Ġattract":2744,"Ġproducts":2745,"iddle":2746,"Ġdinner":2747,"Ġdou":2748,"Ġalone":2749,"Ġdeg":2750,"Ġanimal":2751,"She":2752,"orida":2753,"Ġrather":2754,"apt":2755,"Ġaff":2756,"Ġwall":2757,"illy":2758,"Ġuses":2759,"Ġgiving":2760,"ael":2761,"Ġdress":2762,"cience":2763,"Ġimpact":2764,"fast":2765,"Ġlab":2766,"icious":2767,"acing":2768,"Ġaccept":2769,"Ġrestaurant":2770,"aged":2771,"Ġsepar":2772,"icks":2773,"Ġroad":2774,"Ġvariety":2775,"eg":2776,"kay":2777,"reg":2778,"ĠNational":2779,"Ġclot":2780,"Ġsave":2781,"Ġaccording":2782,"ĠCity":2783,"Ġrul":2784,"ĠGerm":2785,"Ġ197":2786,"Ġexplore":2787,"Ġwrote":2788,"Ġsens":2789,"Ġwide":2790,"asure":2791,"ief":2792,"Ġteeth":2793,"Ġposition":2794,"Ġmagic":2795,"Ġjourney":2796,"Al":2797,"Give":2798,"vices":2799,"Ġ+":2800,"Ġban":2801,"ĠJapan":2802,"ĠAmerica":2803,"Ġmessage":2804,"Ġcand":2805,"ĠGr":2806,"Ġtele":2807,"ishing":2808,"Ġsend":2809,"Ġbirthday":2810,"Ġthemselves":2811,"Ġhappened":2812,"Ġfinal":2813,"ĊĠĠĠĠĠĠĠĠĠĠĠĠĠĠĠ":2814,"Ġmodern":2815,"come":2816,"ox":2817,"Ġport":2818,"ights":2819,"Ġcase":2820,"âĢĵ":2821,"AS":2822,"body":2823,"Ġbrought":2824,"ĠGu":2825,"Ġgovernment":2826,"Ġrad":2827,"izza":2828,"Ġchicken":2829,"aling":2830,"Ġexact":2831,"ĠDay":2832,"Ġexpress":2833,"Ġavoid":2834,"Ġrhyme":2835,"Ġowner":2836,"Ġgeneral":2837,"Ġmultip":2838,"lt":2839,"ico":2840,"Ġeating":2841,"Ġking":2842,"Ġkid":2843,"Ġfamous":2844,"Ġpassed":2845,"Ġresponse":2846,"Ġsignific":2847,"ma":2848,"Ġcake":2849,"ĠMc":2850,"abet":2851,"ĠEvery":2852,"Ġcoll":2853,"Ġ50":2854,"era":2855,"Ġintern":2856,"Ġstarting":2857,"Ġtrees":2858,"Hi":2859,"One":2860,"Ġlooks":2861,"Ġwindow":2862,"ĠRep":2863,"Ġfeed":2864,"Ġprote":2865,"Ġcollege":2866,"Ġlower":2867,"Ġmyster":2868,"ĠEuro":2869,"Ġrequire":2870,"eb":2871,"Ġoil":2872,"Ġalbum":2873,"ĠNow":2874,"Ġimag":2875,"pril":2876,"af":2877,"now":2878,"pose":2879,"arc":2880,"Ġstories":2881,"ĠBy":2882,"ĠPython":2883,"Ġlik":2884,"ĠEd":2885,"ĠEm":2886,"Ġsugar":2887,"bert":2888,"Ġ2023":2889,"ĠFlorida":2890,"30":2891,"su":2892,"Ġcompan":2893,"Ġscri":2894,"Ġsurv":2895,"pite":2896,"erry":2897,"Ġpath":2898,"eter":2899,"Ġworth":2900,"Ġfear":2901,"Ġcompet":2902,"Ġbrown":2903,"ledge":2904,"Ġforward":2905,"Ġearth":2906,"Ġpurch":2907,"uation":2908,"erve":2909,"Ġhon":2910,"amm":2911,"add":2912,"Ġweather":2913,"Ġsche":2914,"Ġthinking":2915,"Ġwalking":2916,"Ġeduc":2917,"Ġtotal":2918,"lo":2919,"lls":2920,"Ġbeach":2921,"Ġsearch":2922,"swer":2923,"Ġdeterm":2924,"udden":2925,"friend":2926,"iforn":2927,"Ġsurround":2928,"Ġdaily":2929,"ĠEurope":2930,"Ġten":2931,"Ġcatch":2932,"Ġband":2933,"Ġcareer":2934,"Ġexercise":2935,"lement":2936,"ille":2937,"ilities":2938,"ĠFin":2939,"Ġmov":2940,"Ġcreative":2941,"Ġpretty":2942,"Ġstrugg":2943,"Ġstars":2944,"Ġteacher":2945,"Ġ196":2946,"Ġprevent":2947,"Ġsaying":2948,"Ġpiece":2949,"Ġ14":2950,"back":2951,"Ġchoice":2952,"Ġcannot":2953,"ounds":2954,"Ġformat":2955,"Ġrecipe":2956,"ĠX":2957,"oms":2958,"Ġseems":2959,"ĠGo":2960,"Ġ25":2961,"Ġshows":2962,"Ġsounds":2963,"Ġconversation":2964,"idge":2965,"Ġwebs":2966,"Ġvill":2967,"Ġspread":2968,"ensive":2969,"Ġhistor":2970,"Ġoriginal":2971,"Ġencoura":2972,"rest":2973,"Ġtrack":2974,"ublic":2975,"Ġasking":2976,"ancy":2977,"aff":2978,"Ġtall":2979,"Ġcam":2980,"Ġang":2981,"ctor":2982,"Ġdoc":2983,"Ġspeed":2984,"Ġrequest":2985,"Ġscript":2986,"ON":2987,"Ġdam":2988,"Ġrand":2989,"Ġbirds":2990,"Ġinflu":2991,"Ġnegative":2992,"ifornia":2993,"pes":2994,"Ġsus":2995,"Ġstress":2996,"ĠDr":2997,"Ġfurther":2998,"ĠUniversity":2999,"Ġstrength":3000,"Ġtask":3001,"Ġstream":3002,"Ġvac":3003,"ological":3004,"Hey":3005,"Ġmovies":3006,"off":3007,"uct":3008,"rect":3009,"Ġbrand":3010,"Ġinit":3011,"Ġones":3012,"Ġsauce":3013,"Your":3014,"pos":3015,"het":3016,"Ġlength":3017,"ady":3018,"Ġfeatures":3019,"def":3020,"Ġaverage":3021,"reci":3022,"ĠMe":3023,"ĠMex":3024,"Ġlocated":3025,"Ġmultiple":3026,"een":3027,"list":3028,"Ġcorn":3029,"Ġheat":3030,"Ġ11":3031,"Ġmaybe":3032,"Ġdevelopment":3033,"Ġtaken":3034,"Ġpig":3035,"Ġdro":3036,"ĠCent":3037,"Ġsetting":3038,"conom":3039,"?âĢĿ":3040,"ha":3041,"rict":3042,"sing":3043,"Ġdiet":3044,"Ġyellow":3045,"Ġet":3046,"enty":3047,"ural":3048,"antasy":3049,"Ġran":3050,"Ġparts":3051,"Ġsimply":3052,"oke":3053,"rel":3054,"Ġrate":3055,"Ġdead":3056,"ĠRes":3057,"Ġ400":3058,"Ġglass":3059,"ĠSpace":3060,"Ġcenter":3061,"Ġchanges":3062,"ĠBritish":3063,"write":3064,"Ġfund":3065,"arp":3066,"Ġled":3067,"Ġord":3068,"Ġchoose":3069,"Ġproblems":3070,"Ġchalleng":3071,"gs":3072,"nam":3073,"right":3074,"zy":3075,"Ġpan":3076,"irm":3077,"ĠApril":3078,"Ġtea":3079,"Ġhowever":3080,"vin":3081,"atoes":3082,"Ġdry":3083,"Ġgar":3084,"Ġnecess":3085,"Ġsold":3086,"ĠJune":3087,"Ġbuilt":3088,"Ġmission":3089,"Ġtaste":3090,"Ġrandom":3091,"Ġboss":3092,"Ġdial":3093,"ald":3094,"Ġgoals":3095,"Ġeasily":3096,"Ġexcited":3097,"vision":3098,"orrow":3099,"ague":3100,"ĠNorth":3101,"Ġtrou":3102,"Ġachie":3103,"Ġtool":3104,"Ġdaughter":3105,"Ġrout":3106,"izes":3107,"Ġflowers":3108,"Ġsmell":3109,"board":3110,"Ã©":3111,"Ġcats":3112,"Ġmat":3113,"ĠMich":3114,"olution":3115,"ibility":3116,"Ġcompletely":3117,"Ġbenefits":3118,"ĠCalifornia":3119,"Ġocean":3120,"ĠSw":3121,"aging":3122,"airs":3123,"Ġstudent":3124,"Ġcontinued":3125,"Ġannoun":3126,"Ġhigher":3127,"ken":3128,"mes":3129,"Ġinvent":3130,"Ġsto":3131,"Ġcloud":3132,"Ġreading":3133,"Ġill":3134,"icate":3135,"Ġreve":3136,"usion":3137,"Ġextreme":3138,"Ġswim":3139,"ios":3140,"omb":3141,"iled":3142,"Ġru":3143,"Ġdeal":3144,"Ġclaim":3145,"dule":3146,"Ġcreating":3147,"Ġpolit":3148,"Dear":3149,"epend":3150,"Ġturt":3151,"ago":3152,"Ġincrease":3153,"Ġelectric":3154,"``":3155,"Ġast":3156,"Ġswe":3157,"ato":3158,"itter":3159,"Ġple":3160,"Ġloss":3161,"Ġbear":3162,"ams":3163,"ppy":3164,"ĠĠĠĠĠĠĠĠ":3165,"Ġarray":3166,"Ġpresident":3167,"azing":3168,"Ġdraw":3169,"Ġfilled":3170,"Ġpriv":3171,"ino":3172,"Ġheld":3173,"ĠSer":3174,"ogue":3175,"Ġprevious":3176,"Ġplayers":3177,"Ġrecogn":3178,"ĠPresident":3179,"over":3180,"raw":3181,"ĠBar":3182,"Ġfoods":3183,"Ġfacts":3184,"Ġsteps":3185,"Ġsummary":3186,"Ġadventure":3187,"inger":3188,"Ġvi":3189,"Ġnearly":3190,"Ġpaint":3191,"Ġissues":3192,"ites":3193,"ĠDes":3194,"Ġfruit":3195,"Ġcomputer":3196,"Ġvict":3197,"ivity":3198,"ended":3199,"Ġreceived":3200,"Ġtouch":3201,"200":3202,"eke":3203,"uel":3204,"roll":3205,"Ġprob":3206,"ĠGreat":3207,"ello":3208,"Ġpercent":3209,"Ġclassic":3210,"Ġgrowing":3211,"Ġgives":3212,"Ġinteresting":3213,"Ġoccur":3214,"Ġeventually":3215,"Ġinvestig":3216,"band":3217,"Ġfine":3218,"Ġisland":3219,"Ġstates":3220,"iger":3221,"ĠAust":3222,"using":3223,"Ġconcer":3224,"Sh":3225,"gov":3226,"Ġaction":3227,"anced":3228,"str":3229,"Ġpowerful":3230,"After":3231,"Ġter":3232,"Ġoption":3233,"Ġmoved":3234,"ocks":3235,"Ġserious":3236,"aws":3237,"Ġprovided":3238,"Ġdiscovered":3239,"Ġstraight":3240,"cast":3241,"vas":3242,"asp":3243,"ively":3244,"Ġplat":3245,"ĠRed":3246,"Be":3247,"king":3248,"num":3249,"Ġwat":3250,"imately":3251,"agement":3252,"order":3253,"Ġseemed":3254,"itchen":3255,"Is":3256,"Ġsav":3257,"Ġfarm":3258,"ica":3259,"icy":3260,"Ġgone":3261,"Ġstruct":3262,"Ġdeb":3263,"Ġincludes":3264,"Ġinterview":3265,"Ġcentury":3266,"ummarize":3267,"Ġneighbor":3268,"do":3269,"Ġmis":3270,"Ġhus":3271,"ĠMark":3272,"Ġrisk":3273,"Ġimmedi":3274,"Ġassoci":3275,"Ġindustry":3276,"Ġformer":3277,"Ġmeal":3278,"Ġleaving":3279,"ival":3280,"Ġvari":3281,"uge":3282,"Ġprin":3283,"Ġappreci":3284,"Ġmuscle":3285,"Ġpotential":3286,"Ġmountain":3287,"estion":3288,"Ġchance":3289,"Ġsett":3290,"Ġmouth":3291,"Ġdram":3292,"Ġdanger":3293,"ĠTheir":3294,"ĠHarry":3295,"Ġgrid":3296,"Ġcollect":3297,"Ġfollowed":3298,"Ġlocation":3299,"Ġtechnology":3300,"uary":3301,"Ġaffect":3302,"arget":3303,"antic":3304,"unk":3305,"Ġtraining":3306,"Ġfemale":3307,"Ex":3308,"gen":3309,"Ġmach":3310,"Ġhop":3311,"Ġstage":3312,"ĠSam":3313,"ference":3314,"ĠSte":3315,"EN":3316,"Oh":3317,"Sure":3318,"ĠApp":3319,"ĠDav":3320,"ĠGree":3321,"Ġflavor":3322,"Ġsongs":3323,"Ġability":3324,"Ġdoll":3325,"Ġworked":3326,"Ġloves":3327,"Ġcontinue":3328,"Ġepis":3329,"ekend":3330,"ĠComm":3331,"ĠHouse":3332,"Ġdefe":3333,"ĠJames":3334,"Ġincluded":3335,"!âĢĿ":3336,"rees":3337,"Ġfix":3338,"Ġthrow":3339,"oman":3340,"Ġreached":3341,"urity":3342,"ĠMount":3343,"aked":3344,"ĠJack":3345,"Ġpeace":3346,"Ġconsum":3347,"Ġstring":3348,"Ġdisease":3349,"AR":3350,"gy":3351,"itary":3352,"Ġfat":3353,"Ġnet":3354,"Ġwear":3355,"Ġdecl":3356,"ission":3357,"Ġsecret":3358,"Ġtowards":3359,"inary":3360,"Ġpizza":3361,"Ġnorm":3362,"Ġgift":3363,"Ġeconom":3364,"ĠMars":3365,"Ġweekend":3366,"Ġadded":3367,"Ġsubject":3368,"Ġbreakfast":3369,"Ġphysical":3370,"anz":3371,"Ġitself":3372,"Ġshop":3373,"Ġfloor":3374,"Ġattack":3375,"Ġrepresent":3376,"Ġbeauty":3377,"Ġconditions":3378,"Ġwatching":3379,"ĠGeorge":3380,"II":3381,"Ġsight":3382,"Ġinput":3383,"Ġharm":3384,"iring":3385,"Ġquality":3386,"Ġfeels":3387,"nes":3388,"Ġaren":3389,"Ġround":3390,"Ġsoil":3391,"Ġmoving":3392,"Ġdelicious":3393,"Ġpressure":3394,"bon":3395,"ners":3396,"Ġplayer":3397,"Ġglob":3398,"ashington":3399,"known":3400,"Hello":3401,"Ġpred":3402,"ĠFrom":3403,"Ġspent":3404,"Ġspot":3405,"Ġaddition":3406,"Ġassist":3407,"ounter":3408,"Ġ2020":3409,"Ġbeginning":3410,"Ġindividual":3411,"Ġsource":3412,"iles":3413,"hers":3414,"ĠWho":3415,"Ġherself":3416,"ĠOh":3417,"Ġ300":3418,"Ġfinds":3419,"Ġmaintain":3420,"Ġsnow":3421,"Ġrom":3422,"Ġfile":3423,"ĠGet":3424,"Ġknowledge":3425,"Ġgrowth":3426,"Ġresults":3427,"edding":3428,"orry":3429,"Ġstuff":3430,"ĠAng":3431,"ĠâĢĺ":3432,"Ġpractice":3433,"Ġtraditional":3434,"16":3435,"At":3436,"gon":3437,"Ġsou":3438,"itude":3439,"edy":3440,"amb":3441,"ĠSouth":3442,"ĠWhy":3443,"Ġkitchen":3444,"ĠEven":3445,"ropri":3446,"ĠBlack":3447,"iber":3448,"Ġcaught":3449,"Ġbread":3450,"Ġthous":3451,"ĠAre":3452,"Ġmeat":3453,"ĠJan":3454,"Ġstarts":3455,"Ġterms":3456,"Ġvegetables":3457,"Summarize":3458,"Ġscience":3459,"alt":3460,"Ġplot":3461,"Ġimm":3462,"Ġolder":3463,"ĠOnce":3464,"Ġinn":3465,"ĠAf":3466,"ivil":3467,"Ġspir":3468,"Ġoffers":3469,"Ġmeeting":3470,"Ġopportunity":3471,"CT":3472,"uals":3473,"Ġdance":3474,"Ġspring":3475,"Ġfriendly":3476,"Ġentertain":3477,"Ġinteract":3478,"Ġdrive":3479,"Ġcustomer":3480,"ole":3481,"itation":3482,"Ġbi":3483,"ara":3484,"Ġgain":3485,"ĠMed":3486,"emy":3487,"Ġthoughts":3488,"Ġprovides":3489,"print":3490,"Ġcountries":3491,"BA":3492,"Where":3493,"Ġmel":3494,"Ġali":3495,"Ġdecor":3496,"Ġopening":3497,"uddenly":3498,"ius":3499,"yond":3500,"ication":3501,"ĠWashington":3502,"ĠGl":3503,"Ġjoy":3504,"Ġdisplay":3505,"Ġprim":3506,"Ġissue":3507,"net":3508,"Ġtiny":3509,"hest":3510,"Ġrelease":3511,"ĠCreate":3512,"Ġtheme":3513,"anging":3514,"ffic":3515,"Ġrecent":3516,"night":3517,"Ġbank":3518,"amin":3519,"iling":3520,"ĠMin":3521,"aker":3522,"ĠEach":3523,"Ġnote":3524,"Ġsuit":3525,"Ġdish":3526,"Ġflight":3527,"Ġconsist":3528,"Ġregard":3529,"ĠSuper":3530,"ES":3531,"anch":3532,"Ġgas":3533,"owd":3534,"Ġur":3535,"Ġdepend":3536,"ĠOct":3537,"Ġknows":3538,"Ġinstruct":3539,"Ġensure":3540,"Ġexactly":3541,"Do":3542,"yl":3543,"storm":3544,"idents":3545,"Ġscreen":3546,"Ġstatement":3547,"Ġdialogue":3548,"mon":3549,"ooth":3550,"Ġthreat":3551,"illa":3552,"ula":3553,"oph":3554,"Ġremind":3555,"Ġremove":3556,"Ġchanged":3557,"AT":3558,"Ġ,":3559,"inct":3560,"ĠTake":3561,"Ġstick":3562,"aming":3563,"Ġmeaning":3564,"Ġprobably":3565,"25":3566,"ext":3567,"ns":3568,"nal":3569,"pro":3570,"inal":3571,"Ġrepe":3572,"Ġprice":3573,"Ġrecently":3574,"Ġchem":3575,"Ġengine":3576,"\")":3577,"Why":3578,"more":3579,"Ġbask":3580,"ĠPa":3581,"Ġgoal":3582,"ueen":3583,"Ġarr":3584,"Ġcontact":3585,"Ġserved":3586,"Ġdifference":3587,"Ġproduce":3588,"Ġcross":3589,"Ġjump":3590,"Ġ['":3591,"Ġpolice":3592,"Ġcustomers":3593,"Ġwebsite":3594,"yst":3595,"Ġburn":3596,"Ġmiddle":3597,"Ġluck":3598,"Ġliter":3599,"ĠAI":3600,"osing":3601,"ĠGod":3602,"Ġ24":3603,"Ġthank":3604,"Ġkept":3605,"Ġadditional":3606,"ibly":3607,"Ġbulleted":3608,"Ġhusband":3609,"ht":3610,"life":3611,"enced":3612,"Ġreasons":3613,"ĠMany":3614,"rib":3615,"ĠJe":3616,"Ġfeature":3617,"Ġ40":3618,"Ġrelax":3619,"cript":3620,"Ġcaused":3621,"Ġopened":3622,"Ġsalt":3623,"26":3624,"Ġtail":3625,"Ġcas":3626,"ĠJuly":3627,"Ġgrass":3628,"ression":3629,"Ġwalked":3630,"Answer":3631,"Ġheavy":3632,"AN":3633,"Ġble":3634,"aries":3635,"Ġhik":3636,"Ġonto":3637,"imate":3638,"ĠLou":3639,"Ġsaf":3640,"Ġamazing":3641,"Ġtypically":3642,"Ġdesigned":3643,"Ġbottom":3644,"ĠMichael":3645,"OR":3646,"Ġcred":3647,"Ġaddress":3648,"Ġveh":3649,"Ġpuzz":3650,"iest":3651,"oved":3652,"Ġeight":3653,"Ġseven":3654,"Ġvir":3655,"iving":3656,"Ġslight":3657,"Ġemployees":3658,"Ġestab":3659,"Ġimmediately":3660,"Ġtarget":3661,"Ġcateg":3662,"Ġbra":3663,"ĠMoon":3664,"rab":3665,"Ġteen":3666,"Ġteach":3667,"rences":3668,"ocked":3669,"Ġmagical":3670,"ares":3671,"yellow":3672,"ada":3673,"Ġcomplex":3674,"Ġflo":3675,"Ġemerg":3676,"Ġsuccessful":3677,"Ġslowly":3678,"Come":3679,"ech":3680,"green":3681,"house":3682,"mpt":3683,"nds":3684,"Ġfict":3685,"Ġbud":3686,"Ġmid":3687,"ĠAb":3688,"ĠWest":3689,"ĠPot":3690,"ĠOver":3691,"Ġaware":3692,"Ġwinter":3693,"Ġcalcul":3694,"anut":3695,"Ġstorm":3696,"ruction":3697,"Ġrelated":3698,"Ġexplan":3699,"Ġbehav":3700,"Ġmarried":3701,"Ġlegs":3702,"Ġetc":3703,"bre":3704,"rey":3705,"atory":3706,"Ġcop":3707,"icated":3708,"Ġfell":3709,"Ġcreatures":3710,"Ġlarger":3711,"undred":3712,"Ġpublished":3713,"Ġlevels":3714,"Ġcapital":3715,"Ġbasic":3716,"Ġfigure":3717,"craft":3718,"Ġmist":3719,"Ġforget":3720,"ĠWell":3721,"Ġusers":3722,"Ġdishes":3723,"Ġincred":3724,"Ġboard":3725,"Ġpattern":3726,"ĠIsland":3727,"Ġtrouble":3728,"Ġwish":3729,"Ġbowl":3730,"enge":3731,"Ġforce":3732,"Ġitem":3733,"ores":3734,"Ġju":3735,"avors":3736,"Ġquiet":3737,"Ġservices":3738,"ĠSept":3739,"Ġculture":3740,"Ġton":3741,"Ġwedding":3742,"otes":3743,"Ġmeant":3744,"ushed":3745,"Ġ2021":3746,"Ġgroups":3747,"Ġreported":3748,"Ġsandw":3749,"ĠMarch":3750,"ribut":3751,"Ġ13":3752,"Ġproduction":3753,"Ġclimate":3754,"Ġjoin":3755,"Ġcirc":3756,"fact":3757,"sp":3758,"uk":3759,"arily":3760,"ension":3761,"Ġscientists":3762,"Don":3763,"host":3764,"ris":3765,"Ġhom":3766,"Ġrev":3767,"oting":3768,"ĠSan":3769,"ĠPar":3770,"allow":3771,"coming":3772,"white":3773,"Ġdocument":3774,"Ġfictional":3775,"Ġ.":3776,"Ġpage":3777,"ĠTry":3778,"Ġstreet":3779,"Ġarms":3780,"Ġ==":3781,"Ġtelling":3782,"Ġescape":3783,"che":3784,"ey":3785,"gin":3786,"Ġut":3787,"rely":3788,"Ġallowed":3789,"Ġapproach":3790,"Ġmentioned":3791,"Ġexpected":3792,"Ġpair":3793,"Ġinj":3794,"Ġhuge":3795,"ĠMary":3796,"ĠFirst":3797,"Ġcoast":3798,"ometimes":3799,"Ġadults":3800,"Ġcomfortable":3801,"70":3802,"Let":3803,"Make":3804,"ware":3805,"Ġfac":3806,"Ġdom":3807,"Ġhun":3808,"Ġupd":3809,"cles":3810,"aped":3811,"Ġdecide":3812,"Ġpurpose":3813,"Ġreduce":3814,"22":3815,"ï¿":3816,"Ġcro":3817,"onic":3818,"Ġlose":3819,"ĠRuss":3820,"Ġallows":3821,"ously":3822,"oday":3823,"Ġarm":3824,"Ġroll":3825,"Ġprefer":3826,"Ġtrain":3827,"Ġfilms":3828,"ugust":3829,"Ġparticip":3830,"Ġinvolved":3831,"Ġtelevision":3832,"ĠAfric":3833,"Ġfantasy":3834,"ĠMost":3835,"ĠHave":3836,"acebook":3837,"Ġadm":3838,"ĠState":3839,"Ġcarry":3840,"Ġregion":3841,"Ġeasier":3842,"Ġgrab":3843,"Ġversion":3844,"Ġviol":3845,"based":3846,"lin":3847,"ober":3848,"ĠTy":3849,"ĠTex":3850,"Ġsell":3851,"Ġrid":3852,"ĠLa":3853,"Ġinte":3854,"ocket":3855,"Ġending":3856,"Ġrealized":3857,"Ġsolar":3858,"Ġdeveloped":3859,"Ġcooking":3860,"box":3861,"error":3862,"Ġdamage":3863,"ropriate":3864,"ï¿½":3865,"point":3866,"Ġmatch":3867,"Ġlaugh":3868,"Ġgiant":3869,"ĠCount":3870,"Ġadvice":3871,"Ġ--":3872,"Ġhelpful":3873,"Ġfinan":3874,"Ġdescribe":3875,"Ġactivity":3876,"Ġsituation":3877,"ederal":3878,"Ġbeyond":3879,"uth":3880,"Ġwhose":3881,"itted":3882,"Ġdecision":3883,"Ġmissing":3884,"Ġcondition":3885,"Once":3886,"vest":3887,"Ġgro":3888,"Ġstock":3889,"outhern":3890,"uments":3891,"ĠHaw":3892,"Ġshape":3893,"ĠRem":3894,"Ġwriter":3895,"Ġdiam":3896,"Ġelements":3897,"Help":3898,"Re":3899,"hol":3900,"Ġlunch":3901,"Ġthr":3902,"iment":3903,"ĠSun":3904,"Ġanx":3905,"Ġancient":3906,"Ġagre":3907,"ancing":3908,"Ġessential":3909,"Ġ//":3910,"Ġsort":3911,"estern":3912,"ama":3913,"ĠPut":3914,"Ġconc":3915,"Ġconcept":3916,"Ġstrange":3917,"ĠAlthough":3918,"Ġplanning":3919,"inese":3920,"Ġnearby":3921,"Ġtemperature":3922,"Ġnecessary":3923,"All":3924,"oom":3925,"Ġtick":3926,"ĠAward":3927,"ĠCle":3928,"olute":3929,"Ġrace":3930,"Ġaltern":3931,"pty":3932,"berry":3933,"Ġfinding":3934,"Ġreturned":3935,"Ġrespond":3936,"Ġevidence":3937,"sych":3938,"Ġokay":3939,"Ġbath":3940,"ĠTurn":3941,"ĠBu":3942,"agram":3943,"Ġrough":3944,"Ġresour":3945,"Ġlots":3946,"mas":3947,"person":3948,"ĊĊĠĠĠ":3949,"ani":3950,"Ġhundred":3951,"ĠAnt":3952,"ĠPer":3953,"emic":3954,"Ġ'$":3955,"Ġguess":3956,"Ġwaiting":3957,"Ġcells":3958,"Ġfrequ":3959,"Ġplenty":3960,"ĊĠĠĠĠĊĠĠĠ":3961,"Ġguy":3962,"Ġsmaller":3963,"mbol":3964,"Class":3965,"Ġmaterial":3966,"'],":3967,"ope":3968,"wood":3969,"Ġdie":3970,"Ġrich":3971,"Ġfeelings":3972,"Ġassign":3973,"Ġbelieved":3974,"Ġcorrect":3975,"Ġcloser":3976,"Ġplatform":3977,"Ġcards":3978,"orpor":3979,"Ġmic":3980,"Ġtooth":3981,"ĠCr":3982,"Ġplastic":3983,"Ġtrust":3984,"ĠStar":3985,"Ġhappen":3986,"Ġcrowd":3987,"Ġpassage":3988,"Ġrequired":3989,"Ġexplaining":3990,"Ġcurrently":3991,"Ġsignificant":3992,"Ġstopped":3993,"fish":3994,"inated":3995,"Ġmill":3996,"Ġlog":3997,"ander":3998,"Ġoutline":3999,"Ġwouldn":4000,"Ġoverall":4001,"obb":4002,"ĠQueen":4003,"ĠWilliam":4004,"Of":4005,"de":4006,"Ġsite":4007,"Ġlink":4008,"Ġult":4009,"ctions":4010,"Ġneck":4011,"Ġalph":4012,"Ġrose":4013,"ube":4014,"Ġseeing":4015,"Ġdefin":4016,"Ġhorror":4017,"Ġindividuals":4018,"ĠSeptember":4019,"Ġir":4020,"Ġahead":4021,"Ġsister":4022,"atives":4023,"ester":4024,"Ġthick":4025,"Ġstat":4026,"Ġund":4027,"Ġcho":4028,"ĠGener":4029,"Ġnoticed":4030,"Ġattend":4031,"Ġclothes":4032,".,":4033,"ault":4034,"ipped":4035,"Ġopt":4036,"Ġcy":4037,"Ġdrop":4038,"aled":4039,"ĠBill":4040,"ĠPat":4041,"ĠGold":4042,"Ġshel":4043,"Ġbelong":4044,"ĠSec":4045,"Ġunderstanding":4046,"mptoms":4047,"40":4048,"Now":4049,"cy":4050,"hold":4051,"ux":4052,"ville":4053,"Ġverse":4054,"Ġcraft":4055,"Ġstanz":4056,"seum":4057,"ĠComp":4058,"agon":4059,"ĠFacebook":4060,"Ġarch":4061,"Ġflour":4062,"Ġflower":4063,"Ġhighly":4064,"Ġturns":4065,"Ġseparate":4066,"Ġachieve":4067,"down":4068,"mosp":4069,"onna":4070,"Ġlat":4071,"ĠTom":4072,"ims":4073,"abor":4074,"Ġlibr":4075,"Ġblock":4076,"Ġearl":4077,"Ġdreams":4078,"Ġbreath":4079,"pre":4080,"ãģ":4081,"import":4082,"tered":4083,"ĠAmericans":4084,"Ġreflect":4085,"Ġexcell":4086,"Ġrules":4087,"Well":4088,"da":4089,"tr":4090,"Ġsitting":4091,"Ġcash":4092,"Ġpal":4093,"ĠName":4094,"Ġflat":4095,"Ġflow":4096,"Ġhelping":4097,"Ġserve":4098,"Ġactive":4099,"Ġbasket":4100,"\":":4101,"Every":4102,"iqu":4103,"zen":4104,"Âł":4105,"ern":4106,"Ġcra":4107,"Ġyard":4108,"Ġstation":4109,"ĠHar":4110,"Ġsoci":4111,"roud":4112,"atively":4113,"Ġowners":4114,"Ġinstall":4115,"Ġedge":4116,"----":4117,"ĠOctober":4118,"aid":4119,"hib":4120,"lor":4121,"Ġcars":4122,"Ġbattle":4123,"imum":4124,"ado":4125,"ĠSpe":4126,"ĠAc":4127,"ĠAugust":4128,"ĠHen":4129,"oyal":4130,"ĠChinese":4131,"Ġmuseum":4132,"Ġfinished":4133,"ospital":4134,"Ġparticularly":4135,"Ġcompanies":4136,",[":4137,"free":4138,"Ġaf":4139,"Ġcities":4140,"sec":4141,"ĠMon":4142,"Ġvan":4143,"Ġalthough":4144,"rupt":4145,"Ġreality":4146,"Ġlaunch":4147,"Which":4148,"Ġsafety":4149,"rs":4150,"Ġtherap":4151,"Ġfle":4152,"Ġhurt":4153,"vey":4154,"Ġstood":4155,"Ġstaff":4156,"ilies":4157,"atever":4158,"ortion":4159,"Ġblank":4160,"Ġsmile":4161,"Ġgenerally":4162,"Ġmember":4163,"Ġinterested":4164,"ĠBlue":4165,"Ġdemand":4166,"Ġtools":4167,"Ġassociated":4168,"Ġmachine":4169,"29":4170,"la":4171,"oot":4172,"Ġcit":4173,"Ġmental":4174,"Ġhar":4175,"Ġnational":4176,"Ġship":4177,"Ġatmosp":4178,"Ġexcept":4179,"ĠOur":4180,"Ġsymbol":4181,"Ġcookies":4182,"Ġresponsible":4183,"fill":4184,"ham":4185,"ipp":4186,"Ġwings":4187,"alse":4188,"Ġlack":4189,"Ġdev":4190,"Ġadop":4191,"ccording":4192,"ĠVal":4193,"Ġdriving":4194,"Ġprompt":4195,"Ġsales":4196,"Ġbecoming":4197,"Ġdoub":4198,"Ġchemical":4199,"60":4200,"just":4201,"ses":4202,"Ġcow":4203,"Ġpen":4204,"Ġforg":4205,"eles":4206,"Ġsports":4207,"Ġscen":4208,"Ġspeech":4209,"Ġapplic":4210,"Ġletters":4211,"Ġextract":4212,"Ġpopulation":4213,"Ġmilitary":4214,"Ġpaid":4215,"Ġpieces":4216,"ĠJapanese":4217,"AL":4218,"Bl":4219,"Jo":4220,"Ġtim":4221,"Ġunf":4222,"Ġhelped":4223,"Ġleading":4224,"Ġelement":4225,"Ġexciting":4226,"ĠPeople":4227,"Ġarrived":4228,"Ġastron":4229,"ĠTexas":4230,"ï¿½ï¿½":4231,"itor":4232,"ashed":4233,"ĠIm":4234,"ĠInt":4235,"oto":4236,"Ġhaven":4237,"umber":4238,"ulate":4239,"arts":4240,"ĠJim":4241,"ĠThank":4242,"cious":4243,"ashion":4244,"Ġmetal":4245,"Ġlearned":4246,"Ġchallenge":4247,"ĠInstead":4248,"haps":4249,"Ġcivil":4250,"icles":4251,"vered":4252,"Ġride":4253,"ibr":4254,"ĠAss":4255,"Ġdistance":4256,"ĠEngland":4257,"Ġbroken":4258,"Ġintroduction":4259,"Ġfinancial":4260,"Su":4261,"Ġfirm":4262,"Ġbones":4263,"ora":4264,"Ġhung":4265,"Ġge":4266,"Ġwel":4267,"umn":4268,"ooking":4269,"Ġemp":4270,"Ġdegrees":4271,"ĠMexico":4272,"Ġinstructions":4273,"Ġslightly":4274,"90":4275,"Some":4276,"Ġspl":4277,"Ġfan":4278,"Ġbaking":4279,"Ġworry":4280,"osh":4281,"ĠGreen":4282,"Ġrights":4283,"Ġcompleted":4284,"black":4285,"Ġvacation":4286,"**":4287,"100":4288,"21":4289,"Ġsick":4290,"Ġstret":4291,"uries":4292,"ushing":4293,"Ġmanager":4294,"Ġartist":4295,"Ġindepend":4296,"Ġsubst":4297,"Ġhole":4298,"Ġprotein":4299,"Ġextremely":4300,"Ġnetwork":4301,"Ġnormal":4302,"mark":4303,"no":4304,"Ġbill":4305,"Ġbillion":4306,"isp":4307,"Ġloud":4308,"lla":4309,"urch":4310,"Ġadvert":4311,"Ġtruly":4312,"Ġstrateg":4313,"ĠWhite":4314,"Ġemotional":4315,"Ġholiday":4316,"Ġvillage":4317,"ĠLouis":4318,"Ġexplanation":4319,"Comp":4320,"From":4321,"ixt":4322,"Ġtax":4323,"Ġbite":4324,"Ġmax":4325,"Ġtow":4326,"arter":4327,"Ġded":4328,"Ġreact":4329,"âĢ¦":4330,"ĠMag":4331,"ĠWater":4332,"essert":4333,"Ġsubs":4334,"ĠStart":4335,"Ġbackground":4336,"Ġsecurity":4337,"Ġapartment":4338,"blue":4339,"Ġmotiv":4340,"Ġvolcan":4341,"Ġdiscover":4342,"Ġbalance":4343,"cause":4344,"rated":4345,"Ġmur":4346,"style":4347,"ads":4348,"ĠPort":4349,"usi":4350,"alls":4351,"Ġflavors":4352,"Ġkeeping":4353,"Ġeffects":4354,"Ġbecomes":4355,"friendly":4356,"Ġprivate":4357,"ĠJanuary":4358,"!!":4359,"care":4360,"Ġhero":4361,"anta":4362,"Ġrise":4363,"ĠUp":4364,"Ġcarbon":4365,"Ġfollows":4366,"Ġsupposed":4367,"Ġsolution":4368,"Ġeffort":4369,"Ġpicture":4370,"ASA":4371,"Ġcasual":4372,"Ġbudget":4373,"Con":4374,"name":4375,"water":4376,"Ġsilly":4377,"aded":4378,"ĠSatur":4379,"cend":4380,"Ġmeas":4381,"ĠPol":4382,"Ġuns":4383,"Ġapply":4384,"Ġ2022":4385,"Ġ09":4386,"Ġbroad":4387,"ĠDisney":4388,"Ġthousands":4389,"Des":4390,"Pl":4391,"Ġsorry":4392,"omen":4393,"ĠTell":4394,"roy":4395,"ĠMore":4396,"ĠCom":4397,"ĠHigh":4398,"ĠPre":4399,"ĠRich":4400,"ĠRock":4401,"appe":4402,"Ġscary":4403,"obby":4404,"Ġhumor":4405,"Ġbegins":4406,"Ġbiggest":4407,"engu":4408,"Ġtransport":4409,"Ġsummarize":4410,"Ġpictures":4411,"Ġafford":4412,"ĠHawai":4413,"Ġalphabet":4414,"noon":4415,"Ġtired":4416,"Ġpool":4417,"icing":4418,"entle":4419,"ĠSince":4420,"ags":4421,"Ġcomment":4422,"Ġprop":4423,"Ġtend":4424,"Ġpoor":4425,"Ġpoet":4426,"Ġevening":4427,"Ġproduced":4428,"Ġprogress":4429,"Ġexamples":4430,"ĠFriday":4431,"ĠKingdom":4432,"Ġhighest":4433,"ĠRepublic":4434,"ĠPotter":4435,"lies":4436,"ugg":4437,"Ġcere":4438,"rible":4439,"ĠNove":4440,"Then":4441,"Ġtruck":4442,"Ġresc":4443,"Ġmostly":4444,"Ġformed":4445,"Ġguide":4446,"oku":4447,"Ġfully":4448,"Ġforever":4449,"Ġincreased":4450,"Ġpurchase":4451,"Classify":4452,"Name":4453,"ĠĠĊ":4454,"Ġsty":4455,"see":4456,"sect":4457,"ĠCons":4458,"Ġshoes":4459,"Ġseat":4460,"Ġrow":4461,"Ġspr":4462,"Ġempty":4463,"ĊĠĠĠĠĠ":4464,"Ġraise":4465,"Ġdirectly":4466,"Ġperformance":4467,"While":4468,"Ġtomorrow":4469,"ĠChristmas":4470,"ography":4471,"ĠGerman":4472,"via":4473,"asc":4474,"Ġgrew":4475,"ĠTim":4476,"sequ":4477,"roph":4478,"ĠMus":4479,"Ġplays":4480,"Ġadapt":4481,"new":4482,"Ġlisten":4483,"Ġends":4484,"Ġcrime":4485,"________":4486,"Ġsurprise":4487,"80":4488,"ae":4489,"iers":4490,"kin":4491,"Ġsuddenly":4492,"Ġcru":4493,"Ġden":4494,"icago":4495,"oted":4496,"itely":4497,"ĠLake":4498,"ĠOther":4499,"claim":4500,"Ġscore":4501,"Ġrap":4502,"Ġsymptoms":4503,"idden":4504,"Ġeducation":4505,"Ġbehavior":4506,"23":4507,"Fl":4508,"OU":4509,"gle":4510,"ini":4511,"Ġoven":4512,"Ġcases":4513,"Ġbond":4514,"asion":4515,"lymp":4516,"raid":4517,"ĠLove":4518,"Ġpeanut":4519,"Ġ195":4520,"iana":4521,"Ġcauses":4522,"Ġpossess":4523,"()`":4524,"Ġtraveling":4525,"Ġsystems":4526,"Ġreceive":4527,"Ġpuppy":4528,"Just":4529,"Ġwit":4530,"Ġpink":4531,"ĠMond":4532,"ateful":4533,"Ġsection":4534,"ĠJul":4535,"Ġremains":4536,"otten":4537,"Ġbusy":4538,"Ġwriters":4539,"Ġbrainstorm":4540,"Ġfairy":4541,"Ġmystery":4542,"Ġexcellent":4543,"IC":4544,"Qu":4545,"wise":4546,"xic":4547,"omas":4548,"Ġnarr":4549,"ĠII":4550,"ĠAny":4551,"cember":4552,"ustain":4553,"Ġ21":4554,"ĠOff":4555,"berries":4556,"Ġremote":4557,"pected":4558,"Ġopin":4559,"Ġjobs":4560,"Ġmovement":4561,"Ġmassive":4562,"Ġpolitical":4563,"Ġspirit":4564,"ĠNovember":4565,"IT":4566,"rics":4567,"Ġer":4568,"Ġdad":4569,"Ġnative":4570,"imp":4571,"ĠCa":4572,"Ġ22":4573,"ellig":4574,"Ġsmooth":4575,"Ġnumer":4576,"Ġappeared":4577,"Ġcollection":4578,"Ġgradu":4579,"Ġturtle":4580,"Ġatmosphere":4581,"99":4582,"EO":4583,"Fr":4584,"IS":4585,"Or":4586,"door":4587,"eed":4588,"Ġfans":4589,"Ġnotice":4590,"ĠOlymp":4591,"Ġpoll":4592,"Ġimage":4593,"ĠStud":4594,"Ġdisappe":4595,"Ġtwist":4596,"Ġincome":4597,"Ġkeeps":4598,"aze":4599,"Ġrefer":4600,"ĠFrance":4601,"ĠGermany":4602,"Ġepisode":4603,"ĠSaturday":4604,"Ar":4605,"Ġ|":4606,"Ġfiction":4607,"Ġoffe":4608,"Ġstuck":4609,"ocr":4610,"ĠNASA":4611,"ĠStreet":4612,"Ġpartner":4613,"Ġtrail":4614,"Ġenth":4615,"ancis":4616,"Ġspending":4617,"Ġprepare":4618,"By":4619,"ym":4620,"Ġx":4621,"isl":4622,"arian":4623,"alian":4624,"Ġlone":4625,"ĠSal":4626,"ĠSim":4627,"aks":4628,"Ġspin":4629,"Ġcovered":4630,"Ġended":4631,"Step":4632,"ĠMaybe":4633,"grid":4634,"........":4635,"Ġdouble":4636,"Ġscheme":4637,"Ġlibrary":4638,"45":4639,"=\"":4640,"Could":4641,"Ġver":4642,"Ġwolf":4643,"ero":4644,"Ġpir":4645,"Ġpand":4646,"Ġhospital":4647,"Ġbeat":4648,"ĠAct":4649,"ĠMic":4650,"unning":4651,"ĠPart":4652,"Ġpros":4653,"ĠRiver":4654,"Ġfamilies":4655,"ification":4656,"Ġteams":4657,"Ġfourth":4658,"Ġ90":4659,"ĠFrank":4660,"Ġdrinks":4661,"Ġpuzzle":4662,"28":4663,"aper":4664,"under":4665,"Ġmir":4666,"Ġpets":4667,"Ġnation":4668,"ĠWhere":4669,"Ġring":4670,"place":4671,"odies":4672,"Ġprem":4673,"Ġpresence":4674,"Ġhorse":4675,"Ġexperiences":4676,"Ġneighborhood":4677,"Ġvirus":4678,"Ġtonight":4679,"Ġpsych":4680,"Ġdessert":4681,"change":4682,"ĠPac":4683,"Ġappropriate":4684,"Ġaward":4685,"Ġlights":4686,"Ġdirection":4687,"Ġlikes":4688,"Ġcitiz":4689,"24":4690,"AM":4691,"fly":4692,"ximately":4693,"Ġghost":4694,"Ġheight":4695,"ĠSpr":4696,"Ġshut":4697,"Ġplans":4698,"ails":4699,"ĠChina":4700,"Ġadding":4701,"Ġprojects":4702,"iliar":4703,"Ġwonderful":4704,"ĠCharl":4705,"Ġclouds":4706,"Ġresources":4707,"ban":4708,"rate":4709,"Ġlau":4710,"acon":4711,"ĠCont":4712,"ĠPo":4713,"ĠLike":4714,"ĠPlay":4715,"Ġmodel":4716,"Ġcorner":4717,"Ġafraid":4718,"bes":4719,"gers":4720,"vant":4721,"hero":4722,"Ġmale":4723,"anish":4724,"alax":4725,"ĠTH":4726,"ĠSign":4727,"izard":4728,"Ġcontains":4729,"ords":4730,"Ġartists":4731,"ĠDecember":4732,"Ġuniverse":4733,"ĠPrin":4734,"Ġflying":4735,"Ġstraw":4736,"Ġprepared":4737,"Ġdangerous":4738,"ĠDavid":4739,"OT":4740,"ait":4741,"ique":4742,"isc":4743,"Ġmood":4744,"Ġgentle":4745,"rost":4746,"ĠAg":4747,"Ġhabit":4748,"Ġvit":4749,"ĠFood":4750,"Ġspell":4751,"Ġcontract":4752,"Ġemb":4753,"Ġcharge":4754,"Ġindex":4755,"cohol":4756,"Ġdetect":4757,"rooms":4758,"ĠExplain":4759,"Ġcosts":4760,"eah":4761,"wide":4762,"Ġfif":4763,"Ġpow":4764,"Ġpounds":4765,"lear":4766,"riage":4767,"ĠBel":4768,"Ġmeals":4769,"odes":4770,"ondon":4771,"Ġaccident":4772,"Ġcourt":4773,"ĠAtt":4774,"annel":4775,"Ġlayer":4776,"Ġchallenges":4777,"Turn":4778,"bur":4779,"Ġsustain":4780,"Ġwis":4781,"Ġbound":4782,"ĠMart":4783,"emon":4784,"Ġcommer":4785,"udoku":4786,"ĠList":4787,"Ġsheet":4788,"Ġflu":4789,"ĠChicago":4790,"oston":4791,"cribe":4792,"Ġentry":4793,"Ġvisual":4794,"Thank":4795,"Ġclasses":4796,"ĠSea":4797,"Ġpatients":4798,"ĠFrancis":4799,"Ġlimited":4800,"Ġrestaurants":4801,"Ġkilled":4802,"Ġbaseball":4803,"ĠAustral":4804,"olutely":4805,"Not":4806,"Un":4807,"bits":4808,"itle":4809,"onent":4810,"Ġdru":4811,"Ġduck":4812,"Ġhur":4813,"Ġ250":4814,"ressive":4815,"Ġactor":4816,"Ġtopic":4817,"Ġmethods":4818,"Ġromantic":4819,"ĠHenry":4820,"RED":4821,"pur":4822,"Ġign":4823,"Ġpun":4824,"Ġly":4825,"Ġnerv":4826,"ĠSchool":4827,"ĠAlex":4828,"ĠMom":4829,"rag":4830,"ĠBo":4831,"ĠBest":4832,"Ġsex":4833,"Ġclub":4834,"Ġqual":4835,"Ġafternoon":4836,"Ġrelig":4837,"Ġreader":4838,"Ġguests":4839,"Ġphr":4840,"otted":4841,"Ġtells":4842,"Ġimportance":4843,"Ġvalues":4844,"Ġemotions":4845,"Ġproperty":4846,"Ġglobal":4847,"Ġearlier":4848,"</":4849,"Ġnest":4850,"ache":4851,"rie":4852,"ĠHol":4853,"ĠPal":4854,"Ġsequ":4855,"Ġ150":4856,"Ġplate":4857,"ĠDuring":4858,"ilet":4859,"Ġcolon":4860,"Ġearn":4861,"Ġreturns":4862,"Ġautom":4863,"Ġprior":4864,"olly":4865,"Ġfighting":4866,"useum":4867,"Ġwalls":4868,"Im":4869,"Sp":4870,"mother":4871,"uable":4872,"arl":4873,"Ġthrill":4874,"imal":4875,"Ġorange":4876,"ava":4877,"well":4878,"Ġboat":4879,"Ġputting":4880,"okes":4881,"Ġtransit":4882,"Ġseconds":4883,"Ġfalls":4884,"Ġfalling":4885,"Ġeffective":4886,"Ġappearance":4887,"Ġappreciate":4888,"Ġgrocer":4889,"Br":4890,"aign":4891,"gu":4892,"Ġtiger":4893,"Ġfashion":4894,"acco":4895,"orthern":4896,"ĠGrand":4897,"Ġsuff":4898,"ĠLife":4899,"Ġmanagement":4900,"Ġscream":4901,"Ġrab":4902,"Ġproviding":4903,"ampions":4904,"Ġleader":4905,"Ġstandard":4906,"ifying":4907,"Ġconduct":4908,"Ġshopping":4909,"Ġmountains":4910,"Ġobjects":4911,"Ġmaterials":4912,"Ġsociety":4913,"Ġenthusi":4914,"ACT":4915,"May":4916,"Tell":4917,"ufact":4918,"Ġtheory":4919,"itz":4920,"Ġinsect":4921,"Ġbears":4922,"Ġweak":4923,"ulated":4924,"Ġmeasure":4925,"ĠLondon":4926,"Ġresist":4927,"elly":4928,"Ġinches":4929,"Ġhappens":4930,"Ġcrack":4931,"Ġcausing":4932,"Ġcalm":4933,"Ġtitles":4934,"appoint":4935,"Ġfrust":4936,"ĠCenter":4937,"Ġprinci":4938,"Ġhiking":4939,"27":4940,"Ġtal":4941,"Ġaim":4942,"Ġbow":4943,"ican":4944,"Ġec":4945,"Ġbeans":4946,"ĠAp":4947,"Ġwhatever":4948,"ceed":4949,"ĠBat":4950,"ĠBoston":4951,"ferences":4952,"nection":4953,"Ġsmart":4954,"Ġideal":4955,"Ġbreed":4956,"Ġ80":4957,"Ġrocks":4958,"Ġdigital":4959,"men":4960,"oons":4961,"erved":4962,"Ġfaster":4963,"Ġthri":4964,"owing":4965,"Ġstre":4966,"rian":4967,"Ġshift":4968,"Ġrates":4969,"Ġintellig":4970,"Ġunable":4971,"Ġgrown":4972,"Ġvisiting":4973,"Ġlimit":4974,"Ġmenu":4975,"Ġgolden":4976,"Ġsatis":4977,"ĠTwo":4978,"Ġangry":4979,"Ġanxiety":4980,"ĠMonday":4981,"file":4982,"tle":4983,"Ġ:":4984,"Ġbought":4985,"Ġhat":4986,"Ġnav":4987,"ĠMor":4988,"ĠMax":4989,"ĠBig":4990,"Ġshared":4991,"ĠIntern":4992,"Ġturning":4993,"Ġdescribed":4994,"Ġ60":4995,"Ġexpand":4996,"Ġmemory":4997,"Ġfocused":4998,"Ġintroduced":4999,"minist":5000,"Ġrule":5001,"Ġlatest":5002,"35":5003,"ET":5004,"ID":5005,"Ġcounter":5006,"lection":5007,"idth":5008,"imin":5009,"ĠMet":5010,"ĠMuseum":5011,"Ġvoc":5012,"Ġvia":5013,"icked":5014,"Ġunus":5015,"Ġtruth":5016,"Ġscr":5017,"Ġchest":5018,"Ġdecades":5019,"Ġtries":5020,"Ġinvolves":5021,"Ġriver":5022,"Ġphotos":5023,"Ġroutine":5024,"Ġvehicle":5025,"))":5026,"what":5027,"erse":5028,"ona":5029,"oned":5030,"Ġdust":5031,"Ġthin":5032,"ette":5033,"ola":5034,"ĠBen":5035,"ĠBro":5036,"unge":5037,"thlet":5038,"ĠDep":5039,"Ġbutton":5040,"Ġpepper":5041,"Ġgrant":5042,"Ġdespite":5043,"Ġstudies":5044,"Ġmuscles":5045,"Ġbigger":5046,"Ġmedium":5047,"Ġexpensive":5048,"Ġcommonly":5049,"ervation":5050,"Ġsquare":5051,"ĠSmith":5052,"```":5053,"ĠTurner":5054,"Since":5055,"ipping":5056,"Ġtun":5057,"Ġtight":5058,"Ġnine":5059,"Ġabortion":5060,"Ġexec":5061,"ĠItalian":5062,"Ġscared":5063,"Ġ=>":5064,"Ġenter":5065,"Ġpassion":5066,"Ġfactors":5067,"Ġleaders":5068,"Ġdriver":5069,"Ġpainting":5070,"Ġpatient":5071,"Ġdragon":5072,"ĠCheck":5073,"Ġopportunities":5074,"Ġpulled":5075,"Ġdegree":5076,"ĠGreek":5077,"Are":5078,"Ġcoc":5079,"Ġhang":5080,"vere":5081,"Ġforced":5082,"Ġwhales":5083,"ching":5084,"Ġshot":5085,"ppers":5086,"These":5087,"ĠOut":5088,"ĠYes":5089,"flict":5090,"ĠBrown":5091,"ĠScott":5092,"canvas":5093,"Pe":5094,"made":5095,"vis":5096,"atre":5097,"orus":5098,"ompl":5099,"ĠSometimes":5100,"ĠCong":5101,"istics":5102,"Ġselect":5103,"quit":5104,"Ġdesert":5105,"Ġincorpor":5106,"Ġruns":5107,"Ġ2016":5108,"Ġsnack":5109,"Ġsigned":5110,"Ġstanding":5111,"Ġdollars":5112,"Ġtherapy":5113,"Ġnervous":5114,"OL":5115,"met":5116,"Ġsam":5117,"Ġcave":5118,"Ġmaster":5119,"Ġpengu":5120,"Ġgather":5121,"Ġeth":5122,"ĠSet":5123,"Ġwealth":5124,"ighter":5125,"ulations":5126,"ĠGood":5127,"Ġclosed":5128,"Ġmanufact":5129,"Ġspark":5130,"ender":5131,"Ġprices":5132,"Ġresidents":5133,"Ġ2017":5134,"ĠArt":5135,"Ġprotagon":5136,"Ġlaun":5137,"Ġcups":5138,"Ġwatched":5139,"Ġvariable":5140,"ĠJeff":5141,"Ġoffered":5142,"bow":5143,"Ġfuel":5144,"ingers":5145,"Ġhide":5146,"Ġears":5147,"ĠCour":5148,"Ġshout":5149,"Ġrat":5150,"Ġliqu":5151,"ĠUK":5152,"Ġlongest":5153,"Ġacting":5154,"Ġaccompl":5155,"Ġdelight":5156,"Ġdrinking":5157,"Ġincreasing":5158,"Ġemployee":5159,"Ġfruits":5160,"Ġclothing":5161,"Ġkingdom":5162,"Ġsandwich":5163,"iques":5164,"BC":5165,"De":5166,"born":5167,"Ġsouth":5168,"Ġwet":5169,"ĠTra":5170,"ĠSl":5171,"ĠSat":5172,"oof":5173,"uman":5174,"ĠBre":5175,"ĠPri":5176,"Ġrub":5177,"aint":5178,"Ġcompl":5179,"ĠGame":5180,"Ġworkers":5181,"Ġdisappoint":5182,"Ġtwice":5183,"Ġfox":5184,"Ġcalls":5185,"Ġcrew":5186,"Ġfounded":5187,"Ġplanets":5188,"Ġrealize":5189,"Ġmeteor":5190,"Ġcleaning":5191,"Ġapproximately":5192,"Ġadvant":5193,"Ġhyper":5194,"force":5195,"Ġsources":5196,"Ġbags":5197,"Ġschedule":5198,"Ġsurrounding":5199,"US":5200,"].":5201,"gl":5202,"lines":5203,"rast":5204,"Ġfol":5205,"Ġpush":5206,"Ġtoilet":5207,"ste":5208,"Ġbell":5209,"Ġforces":5210,"ĠBob":5211,"agers":5212,"ĠFe":5213,"Ġsock":5214,"ĠRon":5215,"Ġjud":5216,"ĠĊĊ":5217,"clusion":5218,"ĠâĢ¢":5219,"ipment":5220,"Ġcompared":5221,"ĠVis":5222,"pects":5223,"Ġgreatest":5224,"Ġextend":5225,"Ġyounger":5226,"Ġenjoyed":5227,"ĠCharles":5228,"Ġargument":5229,"Ġbasketball":5230,"Ġcommercial":5231,"OM":5232,"Pro":5233,"win":5234,"war":5235,"Ġbab":5236,"Ġnorth":5237,"ether":5238,"term":5239,"ĠCat":5240,"Ġchair":5241,"abeth":5242,"Ġ23":5243,"ĠItaly":5244,"Ġsets":5245,"ĠRec":5246,"ĠAnother":5247,"Ġcalories":5248,"Ġtreatment":5249,"Ġbroke":5250,"Ġmarketing":5251,"Ġcampaign":5252,"Ġresponses":5253,"Ġfreed":5254,"Ġeffic":5255,"Ġgenre":5256,"33":5257,"En":5258,"Man":5259,"Yes":5260,"bu":5261,"gn":5262,"kes":5263,"mo":5264,"nie":5265,"xy":5266,"Ġtale":5267,"org":5268,"Ġnone":5269,"Ġnose":5270,"iders":5271,"rial":5272,"ĠRead":5273,"ĠEr":5274,"Ġroots":5275,"Ġlisted":5276,"Ġhappiness":5277,"Ġloan":5278,"Ġcentral":5279,"Ġeleph":5280,"Ġsuperhero":5281,"Ġtreats":5282,"Ġholding":5283,"abetes":5284,"ystem":5285,"ded":5286,"hem":5287,"Ġboo":5288,"Ġproud":5289,"Ġgre":5290,"Ġgun":5291,"otic":5292,"urance":5293,"Ġwaste":5294,"oles":5295,"ĠWhe":5296,"Ġconflict":5297,"ĠFeb":5298,"oses":5299,"ĠRoman":5300,"izabeth":5301,"Ġraised":5302,"azon":5303,"199":5304,"appy":5305,"Ġjoke":5306,"Ġjournal":5307,"Ġstrike":5308,"Ġinspir":5309,"Ġannounced":5310,"Ġstructure":5311,"Ġcredit":5312,"field":5313,"ka":5314,"hered":5315,"iture":5316,"Ġham":5317,"icip":5318,"ademy":5319,"ĠFord":5320,"arted":5321,"ĠRob":5322,"asted":5323,"ĠJew":5324,"ĠThomas":5325,"Ġspaces":5326,"ruary":5327,"ubble":5328,"ossible":5329,"Ġrelatively":5330,"Ġskill":5331,"Ġshowing":5332,"Ġresponds":5333,"Ġmedical":5334,"Ġvaluable":5335,"Ġgirls":5336,"Ġoccup":5337,"Ġwoods":5338,"Ġinspired":5339,"Ġswimming":5340,"Ġincredible":5341,"RE":5342,"rome":5343,"Ġsle":5344,"Ġwake":5345,"Ġpitch":5346,"Ġbeaches":5347,"ĠAir":5348,"agn":5349,"Ġalive":5350,"Ġcomplain":5351,"apes":5352,"ĠInc":5353,"Ġtraffic":5354,"ĠBecause":5355,"oken":5356,"Ġprograms":5357,"Ġconstantly":5358,"Ġhyd":5359,"Ġmysterious":5360,"Ġagreed":5361,"Ġhundreds":5362,"Ġshelter":5363,"Ġlonely":5364,"REDACT":5365,"('":5366,"hand":5367,"length":5368,"nic":5369,"Ġwine":5370,"Ġinh":5371,"ications":5372,"Ġfort":5373,"eline":5374,"Ġsomewhere":5375,"ĠOld":5376,"Ġshouldn":5377,"Ġlightning":5378,"Ġ2018":5379,"Ġappears":5380,"Ġspecifically":5381,"ĠMrs":5382,"ĠInstagram":5383,"Ġcelebrate":5384,"Ġchoices":5385,"Ġunusual":5386,"Tr":5387,"ki":5388,"Ġsac":5389,"Ġcore":5390,"Ġcute":5391,"Ġfab":5392,"Ġhoney":5393,"olar":5394,"ĠBur":5395,"Ġrice":5396,"Ġdoctor":5397,"Ġvirt":5398,"Ġkil":5399,"ĠFind":5400,"ĠEmp":5401,"Ġnotes":5402,"gend":5403,"ĠLin":5404,"Ġmodule":5405,"weets":5406,"ĠSpanish":5407,"Ġpaying":5408,"Ġbringing":5409,"Ġequipment":5410,"Ġbanana":5411,"Ġhistorical":5412,"Ġencourage":5413,"Ġtasks":5414,"Ġentertainment":5415,"Ġstanzas":5416,"Ġnumerous":5417,"Ġpowder":5418,"REDACTED":5419,"Good":5420,"uing":5421,"with":5422,"yn":5423,"Ġment":5424,"Ġmine":5425,"Ġpod":5426,"Ġlady":5427,"amel":5428,"ifts":5429,"riz":5430,"Ġconv":5431,"Ġconnection":5432,"Ġoutput":5433,"eps":5434,"Ġunc":5435,"Ġhighlight":5436,"ĠBefore":5437,"ĠRobert":5438,"Ġcastle":5439,"Ġhonest":5440,"Ġcamera":5441,"ĠParis":5442,"mail":5443,"itors":5444,"Ġbatter":5445,"Ġpill":5446,"etime":5447,"aylor":5448,"ĠMo":5449,"ĠMention":5450,"Ġweigh":5451,"Ġweird":5452,"ummy":5453,"uls":5454,"Ġseasons":5455,"Ġworst":5456,"Ġalcohol":5457,"Ġmoves":5458,"apter":5459,"urniture":5460,"Ġnoise":5461,"ĠVir":5462,"Ġactual":5463,"Ġmoments":5464,"Ġstores":5465,"Ġchanging":5466,"Ġrhyming":5467,"Ġmixed":5468,"Ġdropped":5469,"ĠMarket":5470,"Ġhoping":5471,"ĠFebruary":5472,"Ab":5473,"car":5474,"inations":5475,"Ġce":5476,"isions":5477,"Ġmer":5478,"ĠTime":5479,"ĠSund":5480,"ĠMac":5481,"ĠCup":5482,"Ġwearing":5483,"Ġsees":5484,"Ġcancer":5485,"osaur":5486,"Ġdevice":5487,"Ġgod":5488,"ĠUnder":5489,"ĠKn":5490,"phas":5491,"Ġgrateful":5492,"Ġages":5493,"Ġ194":5494,"Ġsmok":5495,"Ġshowed":5496,"Ġlocations":5497,"Ġbreaking":5498,"ĠMario":5499,"Ġoppos":5500,"Ġclimb":5501,"Ġgrav":5502,"words":5503,"Ġsusp":5504,"ĠPaul":5505,"Ġestablished":5506,"ĠRichard":5507,"AA":5508,"tt":5509,"wing":5510,"Ġbare":5511,"Ġbodies":5512,"orce":5513,"ented":5514,"Ġplaced":5515,"roup":5516,"Ġupcoming":5517,"clus":5518,"iley":5519,"Ġblind":5520,"Ġcreature":5521,"Ġformal":5522,"ĠAsk":5523,"Ġapart":5524,"Ġsupply":5525,"Ġvideos":5526,"Ġrecipes":5527,"Ġtur":5528,"Ġsides":5529,"Ġodd":5530,"Ġfederal":5531,"isters":5532,"ĠSil":5533,"ĠMiss":5534,"chan":5535,"estyle":5536,"Ġselling":5537,"pport":5538,"Ġmyth":5539,"osquit":5540,"Ġsoda":5541,"Ġoutdoor":5542,"earch":5543,"Ġeverywhere":5544,"hens":5545,"ocking":5546,"Ġexpert":5547,"Ġ189":5548,"Ġdiabetes":5549,"Ġdepth":5550,"Ġoffering":5551,"Ġtomatoes":5552,"Ġholes":5553,"Ġdetermined":5554,"ributed":5555,"//":5556,"top":5557,"hew":5558,"Ġwaves":5559,"Ġcab":5560,"Ġmut":5561,"Ġpure":5562,"Ġrewrite":5563,"Ġstone":5564,"lder":5565,"Ġchips":5566,"iven":5567,"ĠOp":5568,"ĠThough":5569,"ĠThanks":5570,"Ġcoach":5571,"Ġanywhere":5572,"Ġprison":5573,"Ġpersonality":5574,"Ġthinks":5575,"Ġsyn":5576,"Ġinstance":5577,"Ġsolve":5578,"Ġwindows":5579,"Ġlaws":5580,"erald":5581,"Ġscientific":5582,"Ġphoto":5583,"Ġoccurred":5584,"Ġconcerns":5585,"Ġinnov":5586,"Ġcategory":5587,"Ġjuice":5588,"ĠCounty":5589,"Ġhungry":5590,"Ext":5591,"Le":5592,"Mar":5593,"Se":5594,"gia":5595,"world":5596,"Ġtough":5597,"ena":5598,"enny":5599,"Ġhidden":5600,"Ġlake":5601,"Ġnuc":5602,"Ġgonna":5603,"ett":5604,"ĠToday":5605,"uts":5606,"ĠSoc":5607,"Ġweap":5608,"Ġsharp":5609,"ĠFore":5610,"akers":5611,"Ġadjust":5612,"Ġmanage":5613,"aple":5614,"Ġrespect":5615,"Ġappoint":5616,"Ġstudio":5617,"ronic":5618,"Ġsupplies":5619,"Ġtopics":5620,"anches":5621,"ĠJoe":5622,"Ġsleeping":5623,"Ġlegal":5624,"ictionary":5625,"Ġrelationships":5626,"ĠTwitter":5627,"Ġinitial":5628,"Ġprimary":5629,"Ġhomes":5630,"89":5631,"how":5632,"Ġmixt":5633,"Ġgir":5634,"ota":5635,"ĠCO":5636,"Ġseeds":5637,"ĠRet":5638,"Ġ2000":5639,"Ġoverw":5640,"Ġimplement":5641,"Ġuseful":5642,"airy":5643,"Ġoldest":5644,"Ġfinish":5645,"otta":5646,"Ġdraft":5647,"fortun":5648,"Ġestim":5649,"ĠElizabeth":5650,"Ġnuts":5651,"Ġfailed":5652,"Ġbathroom":5653,"ĠGeneral":5654,"alaxy":5655,"Ad":5656,"Me":5657,"NA":5658,"Over":5659,"])":5660,"aver":5661,"oids":5662,"rad":5663,"vide":5664,"itar":5665,"icial":5666,"Ġnom":5667,"Ġreward":5668,"ilos":5669,"olved":5670,"ĠEnd":5671,"Ġ27":5672,"ĠIts":5673,"Ġusual":5674,"Ġmanner":5675,"Ġbrings":5676,"gged":5677,"Ġrare":5678,"atching":5679,"Ġreaders":5680,"Ġguys":5681,"Ġhandle":5682,"ĠCanada":5683,"Ġtalks":5684,"Ġsigns":5685,"Ġoriginally":5686,"Ġframe":5687,"Ġsaved":5688,"Ġalien":5689,"Ġcitizens":5690,"gal":5691,"wo":5692,"ĠðŁ":5693,"iner":5694,"Ġsouthern":5695,"Ġfinger":5696,"Ġpil":5697,"Ġpup":5698,"Ġhall":5699,"Ġreference":5700,"ĠSar":5701,"oogle":5702,"ĠMass":5703,"Ġaband":5704,"ession":5705,"usted":5706,"ĠLittle":5707,"Ġclock":5708,"Ġspots":5709,"Ġfamiliar":5710,"ĠAsia":5711,"Ġguard":5712,"Ġdescribing":5713,"Ġsolid":5714,"Ġpasta":5715,"Ġbedroom":5716,"Ġhyp":5717,"Ġsquir":5718,"Ġgrandmother":5719,"Ġcritical":5720,"Ġinfluence":5721,"Ġturtles":5722,"Ġaliens":5723,"ĠHawaii":5724,"Ġlyrics":5725,"Ġgrocery":5726,"ao":5727,"gent":5728,"west":5729,"orter":5730,"Ġhous":5731,"Ġlosing":5732,"Ġvast":5733,"Ġcomments":5734,"Ġcomedy":5735,"Ġ26":5736,"Ġupset":5737,"Ġwilling":5738,"Ġhasht":5739,"Ġsport":5740,"Ġtrash":5741,"Ġknowing":5742,"Ġactions":5743,"Ġgreater":5744,"Ġhappening":5745,"Ġcreates":5746,"Ġpromise":5747,"eneath":5748,"Ġmarriage":5749,"Ġsoftware":5750,"ĠCarol":5751,"Ġessay":5752,"ĠQuestion":5753,"Ġsurprised":5754,"Ġliked":5755,"ĠMexican":5756,"Ġinvestigation":5757,"Ġdepending":5758,"Ġcopy":5759,"Ġrescue":5760,"ampionship":5761,"Ġprotagonist":5762,"ĠCourt":5763,"39":5764,"Ġathlet":5765,"Ġbone":5766,"Ġhunt":5767,"Ġrent":5768,"Ġhearing":5769,"ĠWork":5770,"aine":5771,"ĠLu":5772,"Ġmoist":5773,"Ġfellow":5774,"Ġentered":5775,"cope":5776,"Ġcurs":5777,"Ġ2019":5778,"Ġgenerate":5779,"Ġallowing":5780,"Ġnutri":5781,"Ġnutrit":5782,"Ġsilver":5783,"ĠAmazon":5784,"Ġsurvive":5785,"Ġdetermine":5786,"hetic":5787,"Ġdefinitely":5788,"List":5789,"]:":5790,"sized":5791,"Ġera":5792,"Ġtables":5793,"Ġsale":5794,"Ġbat":5795,"oration":5796,"omer":5797,"Ġgall":5798,"adow":5799,"ĠMatt":5800,"Ġseg":5801,"Ġtrade":5802,"veland":5803,"Ġbrush":5804,"Ġdesk":5805,"Ġlovely":5806,"Ġapolog":5807,"Ġcurious":5808,"Ġwalks":5809,"Ġrequires":5810,"Ġtransl":5811,"Ġinterests":5812,"Ġelev":5813,"Ġtechniques":5814,"Ġdetailed":5815,"Ġdirected":5816,"ĠTrue":5817,"Ġdemon":5818,"Ġdestination":5819,"Ġdestroy":5820,"Ġfootball":5821,"Ġefforts":5822,"going":5823,"Ġradio":5824,"Ġmillions":5825,"Ġoverwhel":5826,"Pr":5827,"rd":5828,"Ġske":5829,"Ġow":5830,"Ġmath":5831,"Ġtoys":5832,"Ġyog":5833,"ading":5834,"ĠMal":5835,"ĠHam":5836,"ĠBer":5837,"ĠBra":5838,"ĠBowl":5839,"unar":5840,"ressed":5841,"Ġbranches":5842,"lets":5843,"ucky":5844,"Ġpassing":5845,"Ġkinds":5846,"Ġbuildings":5847,"anna":5848,"ING":5849,"Ġexperienced":5850,"purple":5851,"Americ":5852,"ran":5853,"erves":5854,"arrow":5855,"Ġloop":5856,"uto":5857,"iden":5858,"irty":5859,"ĠSur":5860,"ĠAv":5861,"ĠMad":5862,"ĠWay":5863,"ĠPet":5864,"ĠYellow":5865,"Ġdisorder":5866,"Ġperm":5867,"hess":5868,"Ġremoved":5869,"Ġminute":5870,"Ġmusical":5871,"Ġtexture":5872,"Ġvegan":5873,"Ġleads":5874,"encing":5875,"();":5876,"Ġtomato":5877,"Ġdiscovery":5878,"ji":5879,"mond":5880,"spe":5881,"uce":5882,"Ġtro":5883,"esar":5884,"arge":5885,"Ġdates":5886,"Ġgri":5887,"entially":5888,"ĠMur":5889,"ifting":5890,"ĠBoth":5891,"ĠForm":5892,"Ġpropos":5893,"Ġlean":5894,"ĠNight":5895,"Ġmoons":5896,"ĠThurs":5897,"ĠHealth":5898,"Ġroy":5899,"Ġrobot":5900,"Ġroof":5901,"Ġunknown":5902,"Ġcommand":5903,"Ġhousehold":5904,"Ġmemories":5905,"ĠReg":5906,"Ġpotatoes":5907,"Ġstands":5908,"Ġparticles":5909,"Ġlaid":5910,"Ġhotel":5911,"Ġviews":5912,"ĠPrince":5913,"Ġadventures":5914,"Ġmotion":5915,"Ġregularly":5916,"Ġportion":5917,"ĠFinally":5918,"Ġgarlic":5919,"Ġdoubt":5920,"Ġpirate":5921,"Ġinsects":5922,"Our":5923,"Use":5924,"count":5925,"pass":5926,"paper":5927,"sv":5928,"itute":5929,"itution":5930,"Ġbun":5931,"Ġmad":5932,"Ġmouse":5933,"Ġpowers":5934,"Ġdut":5935,"Ġgaming":5936,"Ġyouth":5937,"Ġren":5938,"oty":5939,"ctors":5940,"oos":5941,"celer":5942,"ĠMother":5943,"Ġweb":5944,"quar":5945,"Ġalle":5946,"Ġ28":5947,"Ġteasp":5948,"ĠOf":5949,"Ġenh":5950,"ĠYear":5951,"Ġunw":5952,"inking":5953,"Ġperhaps":5954,"Ġ190":5955,"Ġserving":5956,"icted":5957,"Ġcheap":5958,"Ġcrust":5959,"Ġtransform":5960,"Ġdistract":5961,"Ġsalad":5962,"which":5963,"porary":5964,"Ġcandy":5965,"related":5966,"Ġdramatic":5967,"ĠAfrica":5968,"Ġroughly":5969,"Ġwelcome":5970,"rostic":5971,"Ġstreets":5972,"pack":5973,"ua":5974,"ĠÂ":5975,"eras":5976,"Ġbark":5977,"orage":5978,"Ġpy":5979,"anas":5980,"Ġbees":5981,"Ġstim":5982,"ooper":5983,"ĠCap":5984,"umes":5985,"ĠHy":5986,"ĠHome":5987,"ĠHelp":5988,"ulf":5989,"Ġplus":5990,"ĠJud":5991,"ĠOb":5992,"Ġarmy":5993,"Ġrelief":5994,"Ġforms":5995,"Ġtrial":5996,"Ġasks":5997,"Ġschools":5998,"ĠAtl":5999,"ennis":6000,"Ġwarning":6001,"Ġorganization":6002,"Ġwildlife":6003,"Ġofficial":6004,"Ġofficials":6005,"Ġfrozen":6006,"Ġlabor":6007,"Ġchallenging":6008,"ĠAcademy":6009,"Ġwitness":6010,"ĠVirgin":6011,"55":6012,"Int":6013,"rig":6014,"orney":6015,"Ġmort":6016,"Ġpin":6017,"Ġdat":6018,"Ġhate":6019,"Ġthread":6020,"Ġyell":6021,"etch":6022,"Ġreven":6023,"utter":6024,"ĠSn":6025,"ĠSen":6026,"ĠBet":6027,"ĠDem":6028,"Ġweren":6029,"Ġgrams":6030,"arsh":6031,"Ġseek":6032,"Ġfunctions":6033,"Ġaccur":6034,"ĠUnion":6035,"Ġphilos":6036,"Ġrestrict":6037,"Ġvision":6038,"uesday":6039,"Ġcontinues":6040,"uffy":6041,"Ġunivers":6042,"Ġsites":6043,"Ġinvolve":6044,"Ġstruggling":6045,"Ġinteger":6046,"Ġopinion":6047,"ĠPacific":6048,"Ġnavig":6049,"Ġfreedom":6050,"Ġmixture":6051,"bles":6052,"eal":6053,"ipe":6054,"yard":6055,"Ġic":6056,"Ġaster":6057,"Ġcher":6058,"Ġborder":6059,"orse":6060,"omach":6061,"achel":6062,"Ġhaun":6063,"Ġshower":6064,"aste":6065,"Ġcoin":6066,"Ġqueen":6067,"Ġquarter":6068,"Ġmakeup":6069,"Ġworkout":6070,"ubs":6071,"Ġsunlight":6072,"ropical":6073,"Ġcooked":6074,"ĠOnly":6075,"Ġbenefit":6076,"Ġidentify":6077,"Ġdebt":6078,"Ġblend":6079,"Ġastronaut":6080,"Compose":6081,"TH":6082,"from":6083,"iation":6084,"ye":6085,"Ġtweets":6086,"rem":6087,"isher":6088,"Ġhike":6089,"astern":6090,"llo":6091,"ĠTri":6092,"aying":6093,"rogen":6094,"chant":6095,"umps":6096,"ĠHist":6097,"Ġshown":6098,"estic":6099,"Ġate":6100,"ĠLear":6101,"owned":6102,"Ġanymore":6103,"enses":6104,"Ġkeys":6105,"ĠVen":6106,"Ġloving":6107,"Ġcookie":6108,"ĠPlan":6109,"Ġjoined":6110,"Ġadvance":6111,"Ġrecorded":6112,"Ġcertainly":6113,"Ġclearly":6114,"Ġlifestyle":6115,"suit":6116,"Ġhistoric":6117,"Ġsweat":6118,"ĠCongress":6119,"Ġliquid":6120,"Ġadvantage":6121,"SD":6122,"Take":6123,"Ġsch":6124,"Ġwire":6125,"icorn":6126,"Ġgreet":6127,"uten":6128,"rage":6129,"Ġshall":6130,"Ġexcess":6131,"Ġdoors":6132,"Ġvary":6133,"Ġmanaged":6134,"Ġprey":6135,"itionally":6136,"Ġacrostic":6137,"Ġclassified":6138,"ĠSharp":6139,"arring":6140,"Ġ1990":6141,"Ġpractices":6142,"while":6143,"Ġenvironmental":6144,"Ġabsor":6145,"ĠEuropean":6146,"Ġdrama":6147,"John":6148,"Ġpodcast":6149,"iance":6150,"ya":6151,"Ġerror":6152,"Ġtong":6153,"Ġwond":6154,"Ġcin":6155,"Ġbes":6156,"Ġlift":6157,"Ġloyal":6158,"acle":6159,"ĠTuesday":6160,"Ġstir":6161,"Ġstomach":6162,"âĢį":6163,"Ġwash":6164,"una":6165,"Ġchip":6166,"Ġvibr":6167,"ĠDog":6168,"Ġjew":6169,"ource":6170,"Ġunlike":6171,"ĠStep":6172,"Ġpregn":6173,"Ġacts":6174,"Ġ45":6175,"Ġbuck":6176,"Ġbuying":6177,"ĠAlice":6178,"Ġplanned":6179,"Ġpurple":6180,"encies":6181,"Ġcolorful":6182,"Ġcouch":6183,"Ġvisitors":6184,"Ġrecords":6185,"umbled":6186,"Ġconnected":6187,"Ġremaining":6188,"Ġwidely":6189,"Ġinternational":6190,"Ġcompetition":6191,"Ġpreviously":6192,"Ġeconomy":6193,"Ġalternative":6194,"Ġstatus":6195,"Ġreferred":6196,"ĠAustralia":6197,"Ġlaunched":6198,"Extract":6199,"ĠThursday":6200,"Her":6201,"ollow":6202,"Ġtire":6203,"Ġsore":6204,"Ġmosquit":6205,"ednes":6206,"Ġdough":6207,"otion":6208,"ĠMat":6209,"ĠCor":6210,"ummer":6211,"itect":6212,"that":6213,"Ġven":6214,"ĠGe":6215,"asts":6216,"resp":6217,"ĠNBA":6218,"Ġallerg":6219,"ours":6220,"Ġclient":6221,"Ġthemes":6222,"sole":6223,"Ġpeas":6224,"berg":6225,"alking":6226,"Ġmush":6227,"Ġfriendship":6228,"Ġdeliver":6229,"Ġdistrict":6230,"Ġtypical":6231,"Ġmajority":6232,"Ġbottle":6233,"Ġabsolutely":6234,"Ġprotection":6235,"Ġordered":6236,"ĠSunday":6237,"His":6238,"LE":6239,"fall":6240,"Ġid":6241,"Ġfingers":6242,"Ġtoxic":6243,"Ġdim":6244,"iches":6245,"utive":6246,"ayed":6247,"ĠWild":6248,"unction":6249,"Ġvent":6250,"ĠNet":6251,"fection":6252,"oseph":6253,"Ġembr":6254,"ĠVol":6255,"vention":6256,"Ġchildhood":6257,"Ġinstr":6258,"aska":6259,"Ġsitu":6260,"Ġresearc":6261,"Ġhonor":6262,"Ġpigs":6263,"Ġannounce":6264,"Ġinvented":6265,"Ġterrible":6266,"doors":6267,"Ġregarding":6268,"ĠCompany":6269,"Ġsatisf":6270,"xygen":6271,"Ġboost":6272,"Will":6273,"bors":6274,"ias":6275,"nel":6276,"you":6277,"arant":6278,"Ġlas":6279,"ĠMid":6280,"ĠCould":6281,"olve":6282,"Ġshark":6283,"ĠWestern":6284,"Ġworse":6285,"Ġdebut":6286,"ĠLook":6287,"Ġintense":6288,"Ġclients":6289,"Ġgray":6290,"angle":6291,"Ġ2010":6292,"Ġforeign":6293,"Ġstaying":6294,"Ġclimbing":6295,"Ġperformed":6296,"Ġamounts":6297,"Ġcombination":6298,"Ġtemperatures":6299,"Ġcryst":6300,"Ġreveal":6301,"ĠRussia":6302,"ĠRussian":6303,"Ġhumorous":6304,"ĠFrancisco":6305,"Ġkilomet":6306,"Even":6307,"bird":6308,"rical":6309,"van":6310,"Ġcos":6311,"ita":6312,"Ġfert":6313,"orial":6314,"sters":6315,"Ġbeef":6316,"ĠAD":6317,"ĠCome":6318,"ĠPeter":6319,"Ġvote":6320,"ĠDid":6321,"Ġtears":6322,"Ġcoat":6323,"ĠKenn":6324,"Ġflash":6325,"Ġspect":6326,"Ġthanks":6327,"Ġremark":6328,"Ġmonkey":6329,"Ġguitar":6330,"Ġminor":6331,"Ġ2005":6332,"retend":6333,"Ġeaten":6334,"Ġrocket":6335,"Ġcapable":6336,"Ġexisting":6337,"Ġintegr":6338,"ĠCleveland":6339,"Ġmicro":6340,"Ke":6341,"Many":6342,"fi":6343,"rets":6344,"Ġwra":6345,"atin":6346,"Ġflex":6347,"Ġpython":6348,"Ġyes":6349,"ĠSy":6350,"Ġanaly":6351,"ĠCard":6352,"ĠBook":6353,"Ġconsequ":6354,"Ġworried":6355,"Ġkiss":6356,"ĠDad":6357,"ĠGames":6358,"ĠEast":6359,"Ġintro":6360,"Ġ29":6361,"Ġfeat":6362,"Ġroles":6363,"Ġspeaking":6364,"anged":6365,"Ġprec":6366,"henomen":6367,"Ġseeking":6368,"Ġworldwide":6369,"Ġcarried":6370,"ibl":6371,"ibilities":6372,"Ġdescriptions":6373,"Ġdiagn":6374,"ĠLeague":6375,"Ġdirector":6376,"Ġpicked":6377,"ĠGeorgia":6378,"Ġdiseases":6379,"Ġrecognize":6380,"ĠSteve":6381,"ĠApple":6382,"ĠGolden":6383,"500":6384,"66":6385,"OW":6386,"fit":6387,"Ġtaught":6388,"Ġoh":6389,"erick":6390,"itable":6391,"Ġbon":6392,"essel":6393,"Ġmamm":6394,"Ġlemon":6395,"oming":6396,"Ġnor":6397,"acles":6398,"rier":6399,"ĠWednes":6400,"ĠPoint":6401,"Ġchannel":6402,"Ġdevices":6403,"ĠGard":6404,"ĠLast":6405,"izations":6406,"ĠThree":6407,"Ġhadn":6408,"Ġunl":6409,"Ġagree":6410,"Ġunderground":6411,"Ġfewer":6412,"ologist":6413,"Ġ70":6414,"Ġsinger":6415,"Ġsuggests":6416,"Ġconfident":6417,"Ġholds":6418,"ĠDespite":6419,"Ġwaters":6420,"Ġdefeated":6421,"ĠOffice":6422,"Ġpandemic":6423,"49":6424,"75":6425,"According":6426,"Em":6427,"fess":6428,"iat":6429,"mic":6430,"pet":6431,"Ġfra":6432,"Ġpine":6433,"Ġthus":6434,"Ġwhale":6435,"Ġaside":6436,"ĠMod":6437,"ĠBay":6438,"Ġmechan":6439,"Ġrank":6440,"Ġdear":6441,"Ġgrade":6442,"Ġagg":6443,"iously":6444,"Ġearned":6445,"Ġ2013":6446,"Ġ2014":6447,"Ġpossibly":6448,"Ġairpl":6449,"Ġdistinct":6450,"grade":6451,"Ġconstruction":6452,"Ġcorpor":6453,"button":6454,"Ġreplied":6455,"Ġsurrounded":6456,"Ġvanilla":6457,"Ġtongue":6458,"Ph":6459,"writ":6460,"ĊĠĠ":6461,"Ġtent":6462,"Ġtag":6463,"Ġwest":6464,"Ġwizard":6465,"Ġcous":6466,"Ġfa":6467,"Ġfurniture":6468,"Ġbeneath":6469,"isms":6470,"Ġtoy":6471,"Ġstro":6472,"roat":6473,"Ġupper":6474,"ĠSanta":6475,"ĠCur":6476,"Ġsevere":6477,"Ġexchange":6478,"Ġconven":6479,"ĠDef":6480,"icken":6481,"ildren":6482,"Ġemphas":6483,"Ġagency":6484,"Ġtrails":6485,"Ġapple":6486,"Ġattached":6487,"Ġcreation":6488,"akespe":6489,"Ġdecade":6490,"Ġgrows":6491,"Ġcarefully":6492,"Ġswitch":6493,"Ġ188":6494,"Ġcenturies":6495,"Ġlanded":6496,"Ġmissed":6497,"Ġperfectly":6498,"Ġofficer":6499,"Ġfrog":6500,"Ġinternet":6501,"Ġfixed":6502,"Ġeconomic":6503,"Ġrepeated":6504,"Ġfrequently":6505,"Ġsubscri":6506,"Get":6507,"SS":6508,"bled":6509,"case":6510,"pal":6511,"Ġol":6512,"Ġoct":6513,"orable":6514,"anes":6515,"omic":6516,"icine":6517,"ĠSand":6518,"ception":6519,"ĠMil":6520,"ĠBaby":6521,"Ġalarm":6522,"osure":6523,"osition":6524,"Ġlegend":6525,"avy":6526,"Ġotherwise":6527,"Ġroot":6528,"ĠStan":6529,"Ġflood":6530,"itty":6531,"ĠChocolate":6532,"Ġletting":6533,"Ġplane":6534,"azz":6535,"Ġtransfer":6536,"Ġadvanced":6537,"Ġdinosaur":6538,"Ġequal":6539,"Ġfields":6540,"Ġdivided":6541,"ĠDisc":6542,"Ġcaptured":6543,"Ġupdate":6544,"ĠAfrican":6545,"Ġarchitect":6546,"Ġcrazy":6547,"Ġmurder":6548,"Ġvitamin":6549,"stein":6550,"ĠEmpire":6551,"Ġopposite":6552,"Ġnuclear":6553,"41":6554,"AD":6555,"AP":6556,"Am":6557,"Mr":6558,"ih":6559,"iable":6560,"uous":6561,"esla":6562,"Ġdating":6563,"Ġdirt":6564,"Ġdancing":6565,"Ġinfect":6566,"Ġlit":6567,"lean":6568,"Ġgently":6569,"olph":6570,"umin":6571,"Ġorbit":6572,"Ġmeets":6573,"this":6574,"alled":6575,"ĠGar":6576,"class":6577,"Ġspoke":6578,"icking":6579,"ĠKore":6580,"Ġcontro":6581,"Ġlistening":6582,"Ġourselves":6583,"Ġdecre":6584,"iox":6585,"Ġevil":6586,"Ġsnacks":6587,"Ġobst":6588,"Ġtechnical":6589,"Ġparks":6590,"Ġtests":6591,"Ġhoriz":6592,"ĠColle":6593,"Ġemotion":6594,"Ġstruck":6595,"Ġproperly":6596,"Ġcritic":6597,"Ġinitially":6598,"rolled":6599,"ĠGreece":6600,"Ġdiamond":6601,"Ġindependent":6602,"ĠTHE":6603,"ĠCarolina":6604,"ĠWednesday":6605,"akespeare":6606,"During":6607,"cers":6608,"found":6609,"long":6610,"Ġiron":6611,"Ġcert":6612,"Ġfest":6613,"Ġhanging":6614,"Ġlic":6615,"utions":6616,"otal":6617,"ami":6618,"âĢĬ":6619,"ĠBull":6620,"ĠBudd":6621,"ĠDel":6622,"ĠLos":6623,"aren":6624,"ogether":6625,"ĠUsing":6626,"cluding":6627,"beat":6628,"Ġretail":6629,"Ġexperts":6630,"Ġheads":6631,"teen":6632,"ĠSee":6633,"Ġ2012":6634,"Ġgeneration":6635,"Ġhumanity":6636,"ĠMarvel":6637,"Ġobvious":6638,"Ġbutterfly":6639,"Ġbeneficial":6640,"Ġresponsibility":6641,"ĠIndia":6642,"Ġremained":6643,"Ġterrit":6644,"ĠPrincess":6645,"ĠDepartment":6646,"Ġfabric":6647,"fortunately":6648,"ION":6649,"Sc":6650,"natural":6651,"yer":6652,"Ġterr":6653,"atically":6654,"Ġfought":6655,"Ġpra":6656,"Ġpadd":6657,"Ġphenomen":6658,"Ġdu":6659,"Ġdining":6660,"igen":6661,"olves":6662,"umble":6663,"ĠHall":6664,"ulous":6665,"Ġchoo":6666,"osen":6667,"Ġjokes":6668,"Ġunicorn":6669,"forest":6670,"Ġappl":6671,"athy":6672,"Ġsecure":6673,"ĠWhich":6674,"themed":6675,"Ġstored":6676,"Ġlegisl":6677,"Ġannoy":6678,"Ġcontaining":6679,"Ġimagine":6680,"Ġstreaming":6681,"Ġelectricity":6682,"alloween":6683,"Ġgrabbed":6684,"Ġmuseums":6685,"Ġrapid":6686,"ĠCaesar":6687,"Ġlaug":6688,"Ġteaspoon":6689,"65":6690,"bell":6691,"game":6692,"move":6693,"oir":6694,"rid":6695,"Ġsin":6696,"Ġtheatre":6697,"Ġwing":6698,"ndrome":6699,"Ġct":6700,"ito":6701,"ingly":6702,"Ġnarrow":6703,"ĠTaylor":6704,"Ġstead":6705,"ĠSch":6706,"olars":6707,"ĠHog":6708,"ĠBiden":6709,"ĠWall":6710,"Ġchill":6711,"Ġris":6712,"Ġkitten":6713,"uster":6714,"ĠGal":6715,"iece":6716,"ĠRose":6717,"Ġoutdoors":6718,"Ġscar":6719,"Ġimpossible":6720,"omething":6721,"Ġ500":6722,"Ġacceler":6723,"Ġexperiment":6724,"Ġnights":6725,"Ġmagn":6726,"Ġbelief":6727,"ĠPlace":6728,"Ġreports":6729,"Ġshoe":6730,"Ġreplace":6731,"Ġfrost":6732,"Ġbrothers":6733,"Ġcompanion":6734,"load":6735,"Ġsoul":6736,"Ġpatterns":6737,"esterday":6738,"Ġflew":6739,"Ġaccomplish":6740,"First":6741,"GB":6742,"IL":6743,"New":6744,"draw":6745,"zing":6746,"Ġtied":6747,"Ġfishing":6748,"Ġinner":6749,"asm":6750,"Ġgym":6751,"etic":6752,"ĠTur":6753,"ĠMike":6754,"ĠCra":6755,"Ġshade":6756,"Ġvs":6757,"Ġvessel":6758,"ĠDown":6759,"ĠĠĠĠĠĠĠ":6760,"ĠGoogle":6761,"Ġintended":6762,"Ġmob":6763,"ĠOl":6764,"Ġadminist":6765,"Ġarrest":6766,"ĠKh":6767,"phone":6768,"anges":6769,"Ġcalling":6770,"upid":6771,"Ġbeloved":6772,"Ġexploring":6773,"Ġmonster":6774,"Ġcrisp":6775,"Ġlanding":6776,"Ġlandsc":6777,"Ġenjoying":6778,"Ġbusinesses":6779,"const":6780,"Ġwinning":6781,"Ġconstant":6782,"Ġmodels":6783,"Ġwondering":6784,"Ġperiods":6785,"ĠPhil":6786,"Ġfitness":6787,"Ġstruggle":6788,"Ġvictory":6789,"ENT":6790,"Ġepisodes":6791,"ĠRemember":6792,"aniel":6793,"Ġphrase":6794,"Ġjewel":6795,"Ġlaughed":6796,"py":6797,"uch":6798,"Ġsig":6799,"Ġsink":6800,"Ġfaces":6801,"Ġbars":6802,"Ġbull":6803,"isa":6804,"Ġgolf":6805,"ĠTor":6806,"ĠCast":6807,"ĠHolly":6808,"Ġexcer":6809,"Ġconcent":6810,"ĠDet":6811,"Ġlies":6812,"peror":6813,"aret":6814,"Ġcozy":6815,"ĠStr":6816,"Ġdescend":6817,"Ġfold":6818,"ĠYouT":6819,"Ġadds":6820,"ups":6821,"Ġentr":6822,"Ġsubm":6823,"Ġpromin":6824,"Ġboyfriend":6825,"Ġoccasion":6826,"Ġwoke":6827,"Ġorganized":6828,"Ġlimerick":6829,"Ġentirely":6830,"Ġrevealed":6831,"Ġprimarily":6832,"ĠType":6833,"Ġoptim":6834,"ĠAssoci":6835,"Ġcabin":6836,"37":6837,"Have":6838,"ca":6839,"hors":6840,"press":6841,"yan":6842,"Ġ>":6843,"Ġtip":6844,"Ġtape":6845,"Ġsisters":6846,"Ġmig":6847,"Ġmile":6848,"Ġmap":6849,"Ġmask":6850,"Ġgroom":6851,"Ġeast":6852,"ĠIce":6853,"ĠImp":6854,"lying":6855,"ĠSov":6856,"Ġanal":6857,"ĠHalloween":6858,"Ġkm":6859,"ĠDra":6860,"ĠDist":6861,"Ġjack":6862,"Ġsomewhat":6863,"reek":6864,"Ġcontext":6865,"intend":6866,"Ġapps":6867,"Ġinvited":6868,"Ġinviting":6869,"Ġglad":6870,"Ġsimpl":6871,"Ġobtain":6872,"aturally":6873,"Ġcommunication":6874,"Ġexcite":6875,"apple":6876,"Ġmulti":6877,"Ġbreathing":6878,"Ġ1970":6879,"Ġcandid":6880,"Ġviolence":6881,"Ġapplication":6882,"ĠConsider":6883,"Ġhashtags":6884,"Ġroyal":6885,"FL":6886,"cher":6887,"Ġoxygen":6888,"Ġwand":6889,"Ġcart":6890,"Ġbaked":6891,"Ġpushed":6892,"Ġeager":6893,"ĠMont":6894,"cho":6895,"Ġcha":6896,"user":6897,"Ġrude":6898,"emies":6899,"ĠDa":6900,"ĠDNA":6901,"Ġlie":6902,"ĠGirl":6903,"Ġleaf":6904,"ĠJerry":6905,"Ġenemy":6906,"action":6907,"ĠKy":6908,"Ġcontem":6909,"Ġparam":6910,"Ġguid":6911,"Ġcaffe":6912,"Ġbrew":6913,"ĠRev":6914,"Ġpurs":6915,"Ġprogramming":6916,"ĠClub":6917,"Ġprofession":6918,"Ġballs":6919,"Ġconsidering":6920,"ĠTrump":6921,"Ġcutting":6922,"Ġfreel":6923,"Ġexception":6924,"regon":6925,"Ġcameras":6926,"Ġpleas":6927,"ĠAngeles":6928,"Ġlucky":6929,"Ġincredibly":6930,"Ġutil":6931,"Ġtoothp":6932,"Ġmaximum":6933,"Ġalphabetical":6934,"ĠBatman":6935,"FC":6936,"Like":6937,"dog":6938,"father":6939,"ped":6940,"Ġtiss":6941,"Ġsne":6942,"Ġfier":6943,"Ġfalse":6944,"Ġpump":6945,"Ġtoss":6946,"Ġnail":6947,"Ġgotten":6948,"ament":6949,"urb":6950,"keep":6951,"ĠAccording":6952,"ĠBas":6953,"Ġchosen":6954,"Ġexhib":6955,"ĠRome":6956,"ĠLand":6957,"ĠLord":6958,"oodles":6959,"Ġfeather":6960,"ĠOcean":6961,"Ġshell":6962,"Ġquote":6963,"Ġquotes":6964,"Ġrespective":6965,"Ġbranch":6966,"Ġdesire":6967,"Ġcharged":6968,"Ġattacks":6969,"coin":6970,"Ġvisited":6971,"Ġbreeds":6972,"Ġreturning":6973,"Ġrooms":6974,"Ġlargely":6975,"Ġparking":6976,"Ġstronger":6977,"Ġlanguages":6978,"Ġpackage":6979,"color":6980,"Ġcapture":6981,"Ġidentity":6982,"Ġaccessible":6983,"ĠEveryone":6984,"Ġsuitable":6985,"Ġawareness":6986,"Ġdiamonds":6987,"Ġultimately":6988,"Ġdedicated":6989,"Ġcrucial":6990,"Ġinspiration":6991,"Ġnutrients":6992,"Ġoctop":6993,"CE":6994,"Cont":6995,"dr":6996,"iate":6997,"ule":6998,"inter":6999,"Ġmatt":7000,"enger":7001,"Ġhobby":7002,"ali":7003,"ownt":7004,"amily":7005,"Ġanger":7006,"ctic":7007,"ĠCook":7008,"Ġshr":7009,"ĠPict":7010,"ĠPenn":7011,"Ġconsole":7012,"ĠElect":7013,"ĠJava":7014,"Ġcliff":7015,"ĠHead":7016,"Ġwanting":7017,"Ġunex":7018,"Ġtrig":7019,"ictor":7020,"Ġrelie":7021,"Ġformation":7022,"ieties":7023,"Ġheading":7024,"Ġswing":7025,"tenance":7026,"Ġpolar":7027,"Ġpayment":7028,"Ġtowns":7029,"Ġmessages":7030,"Ġnewspaper":7031,"Ġrelevant":7032,"Ġtesting":7033,"ackson":7034,"Ġzoo":7035,"Ġcultural":7036,"Ġexperiencing":7037,"Ġlifetime":7038,"Ġexistence":7039,"ĠBarb":7040,"Ġislands":7041,"ĠMountain":7042,"gypt":7043,"Ġassistance":7044,"Ġpoetry":7045,"claimed":7046,"Ġsustainable":7047,"Ġbabies":7048,"Ġestimated":7049,"Ġabandoned":7050,"Ġphilosop":7051,"Ġsituations":7052,"Ġresearchers":7053,"Ġkilometers":7054,"Ġctx":7055,"Ġexcerpt":7056,"Ġexcitement":7057,"\";":7058,"76":7059,"Fin":7060,"ij":7061,"ivery":7062,"oving":7063,"ser":7064,"width":7065,"Ġ!":7066,"Ġtie":7067,"erals":7068,"Ġbold":7069,"oral":7070,"Ġpit":7071,"Ġhorn":7072,"acob":7073,"rog":7074,"ĠSus":7075,"ĠSouthern":7076,"ĠMir":7077,"ĠWould":7078,"agine":7079,"Ġchurch":7080,"elf":7081,"Ġconclusion":7082,"Ġalt":7083,"abilities":7084,"ĠDire":7085,"ĠEve":7086,"ĠJones":7087,"Ġknife":7088,"Ġpond":7089,"Ġsched":7090,"Ġcontest":7091,"Ġeveryday":7092,"Ġtrained":7093,"Ġcheer":7094,"Ġacid":7095,"Ġguest":7096,"Ġvisible":7097,"ĠBeat":7098,"ucks":7099,"Ġ2011":7100,"Ġ2006":7101,"ĠAnswer":7102,"ĠBrad":7103,"Ġpretend":7104,"ĠMcC":7105,"Ġteachers":7106,"Ġstructures":7107,"Ġefficient":7108,"Ġmattress":7109,"Ġschedul":7110,".'":7111,"cular":7112,"ection":7113,"fire":7114,"oa":7115,"ycl":7116,"Ġ@":7117,"Ġful":7118,"Ġfancy":7119,"orough":7120,"Ġmac":7121,"Ġpocket":7122,"Ġdictionary":7123,"star":7124,"stone":7125,"ĠTok":7126,"Ġhes":7127,"Ġstated":7128,"Ġwhom":7129,"Ġaspects":7130,"ĠHarr":7131,"Ġsharing":7132,"unny":7133,"Ġsuc":7134,"angers":7135,"Ġbridge":7136,"Ġtrapped":7137,"Ġremem":7138,"Ġbuzz":7139,"upiter":7140,"Ġdecisions":7141,"Ġspacecraft":7142,"ĠShakespeare":7143,"bye":7144,"Ġappeal":7145,"Ġsinging":7146,"Ġconfused":7147,"Ġdepression":7148,"Ġinvestors":7149,"Ġaudio":7150,"Ġrhyth":7151,"Ġ1996":7152,"Ġverses":7153,"Ġfairly":7154,"Ġcelebration":7155,"Ġrecommendations":7156,"ĠChristian":7157,"Ġillness":7158,"Explain":7159,"Ġthrowing":7160,"Ġvehicles":7161,"Ġsplit":7162,"Ġeru":7163,"ĠInternational":7164,"Ġbarely":7165,"Ġcursor":7166,"38":7167,"Bu":7168,"Today":7169,"Two":7170,"foot":7171,"ii":7172,"mony":7173,"oves":7174,"yo":7175,"Ġerr":7176,"Ġwave":7177,"Ġfant":7178,"Ġfries":7179,"Ġpm":7180,"Ġtoast":7181,"Ġreferences":7182,"Ġbeer":7183,"ĠTina":7184,"ĠMem":7185,"ĠCab":7186,"ĠCamp":7187,"rix":7188,"outs":7189,"Ġshine":7190,"Ġchapter":7191,"Ġseed":7192,"Ġrising":7193,"essed":7194,"anda":7195,"ĠJane":7196,"ansas":7197,"âĢĿ.":7198,"Ġ350":7199,"Ġsmiled":7200,"Ġexplains":7201,"Ġinsurance":7202,"Ġsnake":7203,"Ġrequests":7204,"ĠNews":7205,"lessly":7206,"Ġconstruct":7207,"Ġgoldfish":7208,"Ġsilent":7209,"Ġwooden":7210,"ĠEdward":7211,"Ġdocuments":7212,"Ġblanket":7213,"Ġadopt":7214,"Ġmeasures":7215,"Sincerely":7216,"ĠVirginia":7217,"ĠSoviet":7218,"Love":7219,"ND":7220,"ST":7221,"look":7222,"uke":7223,"Ġ%":7224,"heast":7225,"itan":7226,"Ġbacon":7227,"onents":7228,"ingu":7229,"Ġstunning":7230,"Ġstorage":7231,"ĠMong":7232,"umst":7233,"ĠFalse":7234,"osis":7235,"Ġjoint":7236,"ĠEgypt":7237,"ĠLoc":7238,"Ġleague":7239,"ĠOregon":7240,"Ġcovers":7241,"ailand":7242,"Ġshoulder":7243,"hesis":7244,"ermaid":7245,"Ġminimum":7246,"Ġpainted":7247,"Ġanswering":7248,"Ġconfidence":7249,"Ġwarming":7250,"Ġintroduce":7251,"Ġreaching":7252,"Ġauthorities":7253,"Ġkiller":7254,"ĠColor":7255,"Ġanti":7256,"Ġrecommended":7257,"Ġaccepted":7258,"Ġseparated":7259,"ĠSeries":7260,"Ġcycle":7261,"--------":7262,"Ġnarrative":7263,"Ġfifth":7264,"Ġpenguin":7265,"Ġelephant":7266,"Res":7267,"Using":7268,"apping":7269,"equ":7270,"rick":7271,"size":7272,"wind":7273,"Ġbomb":7274,"Ġlamp":7275,"Ġnod":7276,"Ġgor":7277,"Ġgifts":7278,"start":7279,"acity":7280,"Ġbean":7281,"Ġsticks":7282,"ima":7283,"irts":7284,"urd":7285,"ĠCin":7286,"ĠBird":7287,"Ġshore":7288,"thur":7289,"Ġexha":7290,"Ġconqu":7291,"ĠFederal":7292,"ĠLight":7293,"ĠLaw":7294,"ĠOw":7295,"aved":7296,"Ġcoal":7297,"cknow":7298,"Ġcontrib":7299,"Ġamb":7300,"Ġsurger":7301,"Ġacqu":7302,"ĠBeach":7303,"azine":7304,"Ġcareful":7305,"flies":7306,"ounce":7307,"Ġgenerations":7308,"roduct":7309,"Ġsupporting":7310,"Ġconfir":7311,"Ġengaging":7312,"Ġfranch":7313,"Ġencounter":7314,"Ġshoot":7315,"Ġcombined":7316,"Ġfeeding":7317,"Ġemergency":7318,"track":7319,"ĠRepublican":7320,"Ġreligious":7321,"Ġrabbit":7322,"intendo":7323,"95":7324,"Che":7325,"cake":7326,"face":7327,"kl":7328,"Ġtank":7329,"Ġoils":7330,"athered":7331,"itage":7332,"Ġpork":7333,"ician":7334,"Ġgender":7335,"ĠIII":7336,"stract":7337,"ĠSnow":7338,"ĠHot":7339,"ĠPower":7340,"Ġrot":7341,"ĠEv":7342,"rying":7343,"ptic":7344,"Ġwheel":7345,"Ġtech":7346,"earl":7347,"ogy":7348,"Ġcompre":7349,"ĠStone":7350,"Ġlists":7351,"Ġbackyard":7352,"Ġactors":7353,"Ġcheek":7354,"Ġcarr":7355,"Ġacad":7356,"Ġcrash":7357,"Ġminerals":7358,"Ġregions":7359,"text":7360,"Ġposts":7361,"ĊĊĠ":7362,"standing":7363,"Ġ2003":7364,"Ġ2008":7365,"ysis":7366,"Ġdried":7367,"Ġresulting":7368,"Ġtreated":7369,"Ġengage":7370,"ĠTrans":7371,"Ġstepped":7372,"Ġcamping":7373,"Ġtasty":7374,"Ġvegetable":7375,"ĠNothing":7376,"Ġdiscovers":7377,"Ġneighbors":7378,"Ġburst":7379,"ĠTechn":7380,"ĠCommun":7381,"ĠSecond":7382,"ĠValley":7383,"ĠCharlie":7384,"Ġinhab":7385,"ĠForest":7386,"Ġdemonstr":7387,"32":7388,"Dr":7389,"EM":7390,"ga":7391,"gor":7392,"mates":7393,"sk":7394,"uit":7395,"Ġtheater":7396,"atitude":7397,"Ġfault":7398,"Ġhobb":7399,"ashes":7400,"Ġthrew":7401,"oma":7402,"state":7403,"Ġrenew":7404,"ĠTre":7405,"ĠTenn":7406,"Ġforth":7407,"adows":7408,"ĠSudoku":7409,"ĠAriz":7410,"ums":7411,"ĠWal":7412,"istry":7413,"Ġrac":7414,"Ġ(\"":7415,"ĠLy":7416,"ĠJoseph":7417,"Ġsomehow":7418,"Ġrob":7419,"Ġblow":7420,"Ġoverly":7421,"xton":7422,"Ġnobody":7423,"ggy":7424,"Ġcolumn":7425,"Ġserver":7426,"being":7427,"away":7428,"Ġretire":7429,"Ġcris":7430,"ologists":7431,"ĠButter":7432,"Ġrealistic":7433,"Ġassum":7434,"Ġheaded":7435,"Ġvet":7436,"Ġ2015":7437,"ommy":7438,"Ġdiverse":7439,"anean":7440,"Ġtraveled":7441,"Ġcommunities":7442,"Ġopponent":7443,"Ġpresented":7444,"Ġexercises":7445,"Ġanticip":7446,"Ġlabel":7447,"Ġrequirements":7448,"Ġfunds":7449,"Ġvictim":7450,"Ġvictims":7451,"Ġjumped":7452,"Ġestablish":7453,"Ġteaching":7454,"Ġmistakes":7455,"elescope":7456,"Ġceremony":7457,"Ġmirror":7458,"Ġecos":7459,"build":7460,"ĠDemocr":7461,"Ġunexpected":7462,"44":7463,"46":7464,"Jan":7465,"apped":7466,"ailey":7467,"bel":7468,"boy":7469,"oe":7470,"oly":7471,"uh":7472,"ãĤ":7473,"Ġtut":7474,"Ġfacing":7475,"Ġbake":7476,"Ġbacter":7477,"Ġdent":7478,"Ġhint":7479,"Ġnorthern":7480,"Ġelder":7481,"ĠTesla":7482,"ĠSky":7483,"ĠMill":7484,"iform":7485,"olic":7486,"ulating":7487,"ĠWars":7488,"unes":7489,"ivered":7490,"Ġcanvas":7491,"ĠRow":7492,"Ġjelly":7493,"ĠLuc":7494,"ĠJu":7495,"ĠJackson":7496,"ĠThailand":7497,"Ġrolls":7498,"Ġuncle":7499,"Ġimages":7500,"Ġcontrast":7501,"Ġ31":7502,"Ġpartners":7503,"igned":7504,"Ġgoods":7505,"ĠAsian":7506,"Ġglow":7507,"Ġlands":7508,"Ġpromote":7509,"Ġelection":7510,"roduction":7511,"Ġdrag":7512,"Ġstayed":7513,"Ġreviews":7514,"Ġprofessor":7515,"Ġwarmth":7516,"Ġbasis":7517,"ĠNext":7518,"namon":7519,"Ġroute":7520,"ĠĠĠĠĠĠĠĠĠĠĠĠĠĠĠĠ":7521,"Ġpeaceful":7522,"Ġplatforms":7523,"Ġaffordable":7524,"Ġstyles":7525,"Ġboundaries":7526,"ĠHolmes":7527,"Ġconducted":7528,"clusive":7529,"Ġtablesp":7530,"Ġ!=":7531,"ĠArizona":7532,"++":7533,"Add":7534,"Bec":7535,"GE":7536,"Pretend":7537,"bal":7538,"ww":7539,"ãĥ":7540,"Ġsen":7541,"Ġwid":7542,"aters":7543,"Ġcoun":7544,"Ġdense":7545,"Ġlying":7546,"level":7547,"ĠSk":7548,"ĠHum":7549,"ĠBoy":7550,"Ġshirt":7551,"Ġrack":7552,"ained":7553,"Ġprove":7554,"Ġ\")":7555,"ĠLong":7556,"ĠJupiter":7557,"oding":7558,"Ġenemies":7559,"Ġpoison":7560,"Ġquant":7561,"apers":7562,"Ġcompar":7563,"Ġtrick":7564,"Ġbloom":7565,"weight":7566,"Ġ32":7567,"ĠChris":7568,"lfriend":7569,"Ġtrap":7570,"lands":7571,"Ġpassword":7572,"ommod":7573,"Str":7574,"Ġfallen":7575,"Ġdepartment":7576,"Ġzone":7577,"Ġreduced":7578,"Ġeducational":7579,"ĠGovern":7580,"Ġillust":7581,"Ġliterally":7582,"Ġfeatured":7583,"Ġticket":7584,"Ġintelligence":7585,"American":7586,"ĠSenate":7587,"iblings":7588,"igenous":7589,"ĠYouTube":7590,"Ġcrisis":7591,"Any":7592,"DA":7593,"Rem":7594,"ford":7595,"looking":7596,"tail":7597,"ynam":7598,"¸ı":7599,"ï¸ı":7600,"Ġterror":7601,"heat":7602,"inn":7603,"inals":7604,"Ġwins":7605,"itate":7606,"Ġbunch":7607,"Ġbored":7608,"Ġpace":7609,"Ġdownt":7610,"Ġnap":7611,"stood":7612,"ĠTalk":7613,"Ġiter":7614,"ĠSa":7615,"ĠAx":7616,"unte":7617,"Ġchorus":7618,"Ġcomic":7619,"ĠEastern":7620,"ĠNative":7621,"ĠJr":7622,"Ġclin":7623,"Ġclick":7624,"ĠThose":7625,"ĠThrough":7626,"Ġspider":7627,"Ġcontribut":7628,"ittee":7629,"phones":7630,"Ġ35":7631,"Ġdesp":7632,"Ġawards":7633,"Ġslice":7634,"Ġaccommod":7635,"Ġmini":7636,"Ġ64":7637,"Ġrefres":7638,"Ġ2009":7639,"Ġauthors":7640,"ĠShow":7641,"Ġmarine":7642,"Ġdepos":7643,"Ġoccurs":7644,"Ġpicking":7645,"Ġnegot":7646,"Ġfigures":7647,"Ġdigest":7648,"ĊĉĊ":7649,"Ġcollabor":7650,"Ġsearching":7651,"numbers":7652,"Ġpredators":7653,"Ġsoup":7654,"Ġreminder":7655,"Ġassigned":7656,"Ġharvest":7657,"Ġadopted":7658,"Ġadvertis":7659,"Question":7660,"Ġsexual":7661,"Ġpilot":7662,"ĠSarah":7663,"ĠFormat":7664,"Ġfeaturing":7665,"CH":7666,"DC":7667,"Does":7668,"Read":7669,"cest":7670,"oh":7671,"Ġtropical":7672,"hearted":7673,"Ġsiblings":7674,"Ġcott":7675,"oust":7676,"oni":7677,"Ġpier":7678,"Ġlock":7679,"Ġloose":7680,"omy":7681,"Ġease":7682,"ĠToy":7683,"Ġongoing":7684,"road":7685,"keys":7686,"ĠSol":7687,"Ġwhis":7688,"oli":7689,"ĠBru":7690,"ĠBrand":7691,"ĠDream":7692,"ĠFriend":7693,"ĠRel":7694,"ptive":7695,"ĠNick":7696,"reeze":7697,"Ġcoord":7698,"ĠKat":7699,"Ġshoulders":7700,"Ġserves":7701,"lete":7702,"Ġdifferences":7703,"Ġfollowers":7704,"Ġindoor":7705,"ramid":7706,"ĠAlaska":7707,"iking":7708,"Ġmeters":7709,"Ġdelivery":7710,"However":7711,"Ġsuggested":7712,"Ġbreaks":7713,"anned":7714,"Ġlawn":7715,"Ġfilling":7716,"Ġapproached":7717,"Ġpractical":7718,"Ġgardening":7719,"Ġcontainer":7720,"Ġcontained":7721,"ĠConst":7722,"Ġheavily":7723,"Ġarrive":7724,"Ġsenses":7725,"ĠEverything":7726,"Ġpurchased":7727,"hett":7728,"Ġaffected":7729,"ĠAngel":7730,"break":7731,"Ġchemicals":7732,"Ġscenes":7733,"ï¿½ï¿½ï¿½ï¿½":7734,"Ġdrug":7735,"Ġconsequences":7736,"Ġrisks":7737,")|":7738,"Dis":7739,"Spe":7740,"cor":7741,"gage":7742,"pm":7743,"pir":7744,"Ġcord":7745,"step":7746,"Ġhealing":7747,"iments":7748,"ader":7749,"ĠSystem":7750,"Ġanth":7751,"ules":7752,"pered":7753,"ĠPM":7754,"Ġchose":7755,"ĠFire":7756,"Ġliver":7757,"Ġlips":7758,"asting":7759,"Ġnotable":7760,"ĠLink":7761,"ĠNor":7762,"ĠJon":7763,"izer":7764,"ĠOkay":7765,"ĠKen":7766,"Ġflies":7767,"ruit":7768,"Ġdesper":7769,"letter":7770,"azed":7771,"Ġ65":7772,"Ġstatements":7773,"Ġpotato":7774,"cont":7775,"Ġcommunicate":7776,"Ġfarmer":7777,"Ġexplained":7778,"ĠClass":7779,"Ġannual":7780,"Ġreasoning":7781,"ĠWillow":7782,"ĠColumb":7783,"Ġclosing":7784,"Ġidentified":7785,"ĠGuard":7786,"Ġdrawing":7787,"Ġprincess":7788,"Ġdecline":7789,"Ġmaintaining":7790,"Ġthousand":7791,"ĠBuild":7792,"Ġgravity":7793,"Ġgirlfriend":7794,"Ġhouses":7795,"'.":7796,"31":7797,"Most":7798,"iants":7799,"ties":7800,"Ġille":7801,"Ġacknow":7802,"inity":7803,"Ġsci":7804,"Ġsizes":7805,"attered":7806,"Ġcig":7807,"Ġcul":7808,"Ġfare":7809,"Ġber":7810,"Ġbike":7811,"aning":7812,"Ġhook":7813,"Ġlitter":7814,"Ġlux":7815,"asters":7816,"ĠTimes":7817,"semb":7818,"uri":7819,"ĠSher":7820,"Ġanime":7821,"rael":7822,"ĠBack":7823,"uset":7824,"Ġrust":7825,"Ġconvin":7826,"Ġsuffe":7827,"ĠLatin":7828,"izers":7829,"wered":7830,"Ġparties":7831,"ubes":7832,"Ġarts":7833,"Ġcommit":7834,"issions":7835,"Ġhappily":7836,"Ġvarieties":7837,"Ġveter":7838,"ovals":7839,"Ġ186":7840,"Ġexpenses":7841,"Ġlesson":7842,"Ġ2001":7843,"Ġpolicy":7844,"Ġsupported":7845,"Ġmoral":7846,"Ġengaged":7847,"Ġcourage":7848,"Ġlapt":7849,"Ġingredient":7850,"Ġrainbow":7851,"Ġreplaced":7852,"ĠRoad":7853,"Ġbriefly":7854,"coln":7855,"Ġattempted":7856,"Ġattractions":7857,"egas":7858,"Ġrecognized":7859,"strong":7860,"Ġdeclared":7861,"Ġrelaxing":7862,"Ġemerged":7863,"Ġinjured":7864,"Ġriders":7865,"Despite":7866,"Ġtransportation":7867,"Ġspiritual":7868,"Ġdisappear":7869,"ersey":7870,"ĠOpen":7871,"quarium":7872,"Ġvibrant":7873,"Ġcousin":7874,"Ġolive":7875,"ĠHollywood":7876,"Ġcaffeine":7877,"Because":7878,"34":7879,"Col":7880,"Chor":7881,"IF":7882,"OO":7883,"iency":7884,"inth":7885,"Ġsir":7886,"Ġsarc":7887,"Ġchess":7888,"Ġfate":7889,"Ġfasc":7890,"essee":7891,"ari":7892,"ario":7893,"Ġinqu":7894,"alia":7895,"Ġlately":7896,"ĠIr":7897,"Ġreject":7898,"ĠTop":7899,"Ġstupid":7900,"Ġabilities":7901,"ĠPop":7902,"Ġworn":7903,"ĠGra":7904,"Ġherbs":7905,"ĠEgg":7906,"Ġintention":7907,"Ġspotted":7908,"Ġfluffy":7909,"Ġgratitude":7910,"ella":7911,"Ġapparent":7912,"Ġreput":7913,"Ġassess":7914,"Ġassass":7915,"Ġassets":7916,"Ġdiscount":7917,"196":7918,"Ġhearts":7919,"Ġtreasure":7920,"Ġboys":7921,"shaped":7922,"Ġdesigns":7923,"Ġdarkness":7924,"Ġinvestment":7925,"Ġimproved":7926,"ĠUSA":7927,"Ġcombat":7928,"Ġnovels":7929,"Ġ1980":7930,"Ġexpression":7931,"ĠSwift":7932,"ĠOhio":7933,"Ġsandwiches":7934,"Ġultimate":7935,"Super":7936,"Ġstrategy":7937,"ĠSpring":7938,"Ġsample":7939,"ĠSaturn":7940,"ĠJewish":7941,"vania":7942,"Ġfaith":7943,"ĠCraig":7944,"gorith":7945,"Chorus":7946,"400":7947,"bage":7948,"onder":7949,"pher":7950,"tuce":7951,"wa":7952,"Ġtort":7953,"Ġtons":7954,"reens":7955,"Ġsits":7956,"Ġsaving":7957,"Ġcock":7958,"Ġfool":7959,"Ġfiber":7960,"esome":7961,"Ġmail":7962,"Ġlunar":7963,"Ġthroat":7964,"stream":7965,"Ġrely":7966,"igan":7967,"ĠSing":7968,"iffe":7969,"ĠCall":7970,"Ġvo":7971,"opy":7972,"Ġplates":7973,"Ġclaws":7974,"Ġknock":7975,"avas":7976,"ograp":7977,"ĠKos":7978,"Ġpron":7979,"Ġ1929":7980,"ensions":7981,"Ġattended":7982,"Ġsurvey":7983,"Ġdecides":7984,"Ġproducer":7985,"ologies":7986,"Ġpoems":7987,"rows":7988,"azy":7989,"Ġdescriptive":7990,"ĠSeattle":7991,"Ġexposed":7992,"Ġmonthly":7993,"Ġdeveloping":7994,"Ġlearns":7995,"():":7996,"ĠArthur":7997,"Ġpopularity":7998,"Ġfridge":7999,"Ġcostume":8000,"Ġsuccessfully":8001,"Ġlayers":8002,"Ġcombine":8003,"Ġscientist":8004,"Ġforests":8005,"Ġattempts":8006,"Ġcrypt":8007,"Ġsignificantly":8008,"Ġordinary":8009,"ĠDescribe":8010,"Ġdebate":8011,"Ġdefend":8012,"Ġburning":8013,"Ġteenager":8014,"Ġmistake":8015,"Ġproposed":8016,"ĠOlympics":8017,"ĠMartin":8018,"Ġdrugs":8019,"Ġchoosing":8020,"Ġfulfill":8021,"umstances":8022,"Ġsurgery":8023,"\".[":8024,"79":8025,"Ass":8026,"Best":8027,"Co":8028,"Friend":8029,"HT":8030,"Ind":8031,"Reg":8032,"aun":8033,"csv":8034,"dire":8035,"kins":8036,"rame":8037,"uis":8038,"Ġtension":8039,"hent":8040,"rec":8041,"Ġsudden":8042,"oul":8043,"Ġmild":8044,"Ġdur":8045,"Ġdental":8046,"omed":8047,"ĠTower":8048,"ĠTitle":8049,"ĠSqu":8050,"ĠMel":8051,"ĠMouse":8052,"ĠBit":8053,"ĠBus":8054,"Ġrays":8055,"Ġriding":8056,"Ġconver":8057,"Ġalmond":8058,"Ġproceed":8059,"ĠGro":8060,"ĠGerald":8061,"oca":8062,"achuset":8063,"asser":8064,"avored":8065,"Ġspoken":8066,"Ġ->":8067,"Ġpeppers":8068,"Ġimpl":8069,"Ġovernight":8070,"inkle":8071,"Ġpray":8072,"Ġtwenty":8073,"Ġemo":8074,"Ġdesired":8075,"Ġraw":8076,"Ġconsists":8077,"Ġowned":8078,"cover":8079,"Ġdistant":8080,"ĠDeath":8081,"ĠKevin":8082,"Ġalongside":8083,"ĠProvide":8084,"ĠIndian":8085,"Ġchickens":8086,"Ġvolume":8087,"ðŁĳ":8088,"Ġattempting":8089,"ĠCentral":8090,"ĠResearch":8091,"Ġclaims":8092,"ĠMedit":8093,"Ġconsistent":8094,"Ġbrave":8095,"ĠAbout":8096,"Blue":8097,"ĠOlympic":8098,"Ġpollution":8099,"Ġstrawberries":8100,"ĠMassachuset":8101,"Ġenhance":8102,"Ġairplane":8103,"Ġentrance":8104,"Ġoctopus":8105,"Ġsucceed":8106,"ĠMassachusetts":8107,"')":8108,"AB":8109,"MA":8110,"VID":8111,"cies":8112,"data":8113,"}.":8114,"Ġsan":8115,"Ġsque":8116,"Ġwal":8117,"Ġpor":8118,"Ġpatch":8119,"icide":8120,"Ġstab":8121,"aman":8122,"ĠChat":8123,"olen":8124,"ĠHubble":8125,"ĠBon":8126,"pel":8127,"ĠPu":8128,"ĠPost":8129,"essions":8130,"Ġsoap":8131,"ĠGen":8132,"ĠRing":8133,"ĠNi":8134,"Ġquit":8135,"ĠUt":8136,"Ġgramm":8137,"duc":8138,"ften":8139,"ĠVictor":8140,"Ġapples":8141,"Ġbugs":8142,"Ġindic":8143,"Ġcrim":8144,"Ġsyndrome":8145,"Ġmaintenance":8146,"Ġmeditation":8147,"Ġelimin":8148,"198":8149,"Ġwaited":8150,"Ġengagement":8151,"erranean":8152,"Ġcorresp":8153,"Ġconversations":8154,"syl":8155,"Ġobserv":8156,"Ċĉĉ":8157,"Ġsurprising":8158,"Ġportray":8159,"Ġinternal":8160,"Ġglasses":8161,"ĠService":8162,"Ġhopes":8163,"Ġromance":8164,"Ġrevolution":8165,"Ġagreement":8166,"Ġforgot":8167,"Ġincorporate":8168,"ĠTrail":8169,"warf":8170,"Ġconfirmed":8171,"gi":8172,"ker":8173,"pan":8174,"rating":8175,"sudoku":8176,"Ġvert":8177,"height":8178,"react":8179,"Ġcried":8180,"Ġfence":8181,"arn":8182,"alle":8183,"Ġnick":8184,"Ġnaturally":8185,"Ġgig":8186,"Ġbee":8187,"ĠSummer":8188,"Ġans":8189,"ĠAut":8190,"ria":8191,"antha":8192,"Ġchampionship":8193,"Ġrides":8194,"Ġdoctors":8195,"ĠFort":8196,"ĠGroup":8197,"ĠRE":8198,"ĠJacob":8199,"aching":8200,"aping":8201,"Ġscale":8202,"neath":8203,"Ġdisp":8204,"Ġgrace":8205,"Ġsmoke":8206,"ĠVegas":8207,"Ġhomework":8208,"Ġcomma":8209,"Ġcreep":8210,"Ġexplos":8211,"Ġinformative":8212,"Ġtalked":8213,"ĊĊĊ":8214,"Ġdelicate":8215,"Ġvalid":8216,"Ġobl":8217,"ĠDev":8218,"Ġdefense":8219,"ungle":8220,"minute":8221,"Ġdivorce":8222,"Ġaccounts":8223,"Ġrequested":8224,"Ġpleasure":8225,"Ġsettle":8226,"Ġcategories":8227,"Ġconcise":8228,"Ġconcert":8229,"ĠAwards":8230,"Ġadvertising":8231,"Ġaccidentally":8232,"Ġvirtual":8233,"Ġiconic":8234,"Ġjewelry":8235,"ĠAssociation":8236,"ĠMediterranean":8237,"Go":8238,"Gu":8239,"ML":8240,"Time":8241,"po":8242,"pill":8243,"run":8244,"worth":8245,"rep":8246,"real":8247,"rete":8248,"eries":8249,"itut":8250,"Ġbrill":8251,"isy":8252,"Ġpanc":8253,"edge":8254,"Ġhiding":8255,"Ġharsh":8256,"Ġyesterday":8257,"Ġasleep":8258,"ĠBattle":8259,"Ġshapes":8260,"Ġneither":8261,"ĠWolf":8262,"Ġchain":8263,"Ġrum":8264,"Ġracing":8265,"Ġkick":8266,"ĠData":8267,"andy":8268,"ocaly":8269,"ĠNap":8270,"Ġsheets":8271,"Ġcoins":8272,"Ġeverybody":8273,"ĠChicken":8274,"Inst":8275,"ternal":8276,"Ġphones":8277,"Ġextended":8278,"rowing":8279,"ricane":8280,"Ġhealthier":8281,"Ġharder":8282,"Ġdivers":8283,"Ġprofile":8284,"Ġdrawn":8285,"Ġbulb":8286,"Ġwinner":8287,"Ġtrend":8288,"Another":8289,"ĠScot":8290,"Ġstops":8291,"ĠOrange":8292,"Ġofficially":8293,"Ġcultures":8294,"Ġfocusing":8295,"Ġmotor":8296,"Ġoperations":8297,"Ġbananas":8298,"Ġseriously":8299,"Ġcollected":8300,"ĠDavis":8301,"Ġgained":8302,"ĠJimmy":8303,"Ġbroadcast":8304,"Ġwisdom":8305,"Ġdisappointed":8306,"Ġceiling":8307,"Ġdestroyed":8308,"ĠBerlin":8309,"Ġproposal":8310,"ĠPennsyl":8311,"Press":8312,"Sam":8313,"Sub":8314,"div":8315,"function":8316,"iences":8317,"lam":8318,"ui":8319,"vy":8320,"Ġsought":8321,"Ġwestern":8322,"Ġpages":8323,"Ġinch":8324,"asive":8325,"omers":8326,"ĠIre":8327,"Ġheating":8328,"ĠScience":8329,"ĠCEO":8330,"ĠHaving":8331,"ĠBal":8332,"Ġshares":8333,"Ġshaped":8334,"ĠWood":8335,"antis":8336,"Ġcham":8337,"Ġchron":8338,"Ġrush":8339,"Ġracco":8340,"quality":8341,"Ġalgorith":8342,"ĠFil":8343,"ĠFred":8344,"ĠRom":8345,"ĠRad":8346,"ĠRedd":8347,"Ġnoted":8348,"Ġsug":8349,"ĠNumber":8350,"Ġmole":8351,"index":8352,"Ġquiz":8353,"ĠKent":8354,"Ġunit":8355,"aterpill":8356,"Ġscent":8357,"cluded":8358,"ĠChoose":8359,"Ġtraged":8360,"Ġmuff":8361,".\"[":8362,"Ġretreat":8363,"Ġincident":8364,"Ġmonarch":8365,"ancer":8366,"Ġtransm":8367,"Ġdelivered":8368,"Ġauthent":8369,"Ġkindness":8370,"comfort":8371,"ugs":8372,"shine":8373,"paragraph":8374,"Ġgrounds":8375,"Ġfright":8376,"Ġclosely":8377,"ĠJohnson":8378,"Ġinvolving":8379,"Ġauthority":8380,"Ġdiscussing":8381,"Ġorders":8382,"number":8383,"Ġinnoc":8384,"Ġcalculate":8385,"Ġparticipate":8386,"Ġstanza":8387,"Ġvolcanic":8388,"rophy":8389,"burg":8390,"Ġwishes":8391,"Ġtalent":8392,"Ġintelligent":8393,"ĠMongol":8394,"Ed":8395,"Out":8396,"RI":8397,"cur":8398,"iac":8399,"lace":8400,"ta":8401,"uum":8402,"was":8403,"warts":8404,"zil":8405,"Ġtap":8406,"health":8407,"inating":8408,"erving":8409,"Ġbills":8410,"onut":8411,"Ġpale":8412,"Ġhill":8413,"Ġthunder":8414,"Ġgalaxy":8415,"imize":8416,"ĠSEO":8417,"ĠHel":8418,"Ġshy":8419,"Ġshake":8420,"ĠWy":8421,"ĠWas":8422,"atell":8423,"ushes":8424,"ocado":8425,"acts":8426,"apse":8427,"irsty":8428,"ipes":8429,"ĠInter":8430,"Ġnewly":8431,"ordan":8432,"iano":8433,"Ġcommitted":8434,"Ġguarant":8435,"Ġstudying":8436,"Ġeastern":8437,"ricult":8438,"ĠAndy":8439,"ovo":8440,"Ġmedicine":8441,"Ġsunny":8442,"State":8443,"Ġmagnet":8444,"Ġmagazine":8445,"Ġpromoting":8446,"Ġmarked":8447,"ĠLeave":8448,"Ġdefine":8449,"Ġdefined":8450,"Ġprocesses":8451,"Ġdeeper":8452,"Ġdirections":8453,"Ġsteal":8454,"Ġexpectations":8455,"Ġoperation":8456,"Ġobserved":8457,"Ġtourist":8458,"Ġcovering":8459,"Ġimagination":8460,"Ġsurvival":8461,"Ġearthqu":8462,"Ġencouraging":8463,"Ġclaimed":8464,"Ġinvestigate":8465,"Ġengineer":8466,"Ġburned":8467,"check":8468,"ĠAntar":8469,"Ġlinked":8470,"Ġwealthy":8471,"ĠReading":8472,"Ġsacr":8473,"Ġinnovative":8474,"Ġyoga":8475,"Ġmushrooms":8476,"Ġembrace":8477,"ĠCardinals":8478,"fessor":8479,"Ġphenomenon":8480,"ĠHogwarts":8481,"Ġarrested":8482,"ĠRevolution":8483,"Ġhobbies":8484,"ĠTennessee":8485,"Ġberries":8486,"ĠPennsylvania":8487,"EL":8488,"Would":8489,"aus":8490,"iors":8491,"len":8492,"sm":8493,"uated":8494,"Ġwise":8495,"Ġfake":8496,"Ġboring":8497,"Ġtoes":8498,"Ġder":8499,"Ġdash":8500,"Ġdolph":8501,"Ġinher":8502,"Ġhits":8503,"Ġlion":8504,"Ġnic":8505,"Ġgang":8506,"ĠIN":8507,"Ġreverse":8508,"ĠTree":8509,"ĠTony":8510,"igor":8511,"ĠSant":8512,"ĠSiber":8513,"ĠAven":8514,"ĠCapt":8515,"Ġshorter":8516,"pelling":8517,"eless":8518,"elcome":8519,"ĠDen":8520,"ĠFox":8521,"Ġliz":8522,"Ġdeer":8523,"ĠLo":8524,"ĠĊĠ":8525,"assion":8526,"ĠKnow":8527,"Ġprime":8528,"rency":8529,"leton":8530,"Ġrecording":8531,"Ġrarely":8532,"Ġremoving":8533,"Ġconsult":8534,"Ġslices":8535,"wards":8536,"enery":8537,"Ġphase":8538,"ĊĠĠĠĠĠĠĠĠĠ":8539,"Ġevolved":8540,"ĠSpain":8541,"Ġrefers":8542,"uffed":8543,"umpy":8544,"ĠIsrael":8545,"Ġjoining":8546,"onym":8547,"Ġtraditions":8548,"Ġ;,;$":8549,"forward":8550,"Ġrainforest":8551,"Ġfastest":8552,"Ġinflamm":8553,"Ġgradually":8554,"Ġdifficulty":8555,"Ġcaptiv":8556,"Ġfemales":8557,"Ġsadness":8558,"Ġ1960":8559,"Ġmathem":8560,"ĠSwed":8561,"Ġnormally":8562,"Ġassistant":8563,"Ġregardless":8564,"Ġliterature":8565,"Ġfloat":8566,"Ġstretch":8567,"Ġstrategies":8568,"Ġsmoking":8569,"Ġfeathers":8570,"Ġremembered":8571,"Ġacademic":8572,"avascript":8573,"Ġanswered":8574,"Er":8575,"LA":8576,"NN":8577,"Sim":8578,"Sometimes":8579,"Tri":8580,"cas":8581,"ding":8582,"dri":8583,"Ġaid":8584,"Ġsons":8585,"erge":8586,"Ġbol":8587,"Ġlung":8588,"icotta":8589,"lled":8590,"Ġstolen":8591,"amer":8592,"ĠSir":8593,"ĠSally":8594,"Ġancest":8595,"ifer":8596,"ĠCare":8597,"ĠCivil":8598,"Ġseas":8599,"Ġrating":8600,"Ġalike":8601,"Ġcomed":8602,"ĠDut":8603,"ĠFall":8604,"ĠFantasy":8605,"Ġdeck":8606,"Ġje":8607,"ocate":8608,"ĠNever":8609,"ĠOsc":8610,"aven":8611,"ounding":8612,"ĠStock":8613,"ĠInvest":8614,"Ġovercome":8615,"Ġanyway":8616,"Ġdeserve":8617,"ĠYoung":8618,"Ġcharges":8619,"Ġawesome":8620,"Ġinvite":8621,"Ġcreativity":8622,"Ġcharacteristics":8623,"Ġlover":8624,"Thanks":8625,"iolet":8626,"Ġdescribes":8627,"Ġvegg":8628,"Ġevac":8629,"ĠAnn":8630,"Star":8631,"ĠPlus":8632,"Ġclimbers":8633,"Ġelectrical":8634,"Ġlawyer":8635,"screen":8636,"Ġinfo":8637,"Ġinfant":8638,"Ġgrader":8639,"Ġsafely":8640,"Ġcircle":8641,"Ġradi":8642,"Ġtallest":8643,"Ġpercentage":8644,"Ġharmful":8645,"Ġhunting":8646,"Ġridic":8647,"ĠRemove":8648,"ibrary":8649,"Frame":8650,"................":8651,"Ġenthusiastic":8652,"Ġresistance":8653,"Ġvocal":8654,"Ġshouted":8655,"Ġasteroid":8656,"Ġmosquitoes":8657,"51":8658,"Did":8659,"Ne":8660,"Sm":8661,"cons":8662,"food":8663,"iro":8664,"pret":8665,"rants":8666,"sent":8667,"Ġtang":8668,"input":8669,"rer":8670,"rels":8671,"Ġoun":8672,"Ġfoss":8673,"encer":8674,"Ġpour":8675,"Ġpairs":8676,"Ġgaze":8677,"Ġrein":8678,"Ġisol":8679,"Ġheal":8680,"ĠAst":8681,"ceans":8682,"ĠMaster":8683,"Ġshook":8684,"ĠPizza":8685,"ĠDou":8686,"ĠFar":8687,"ĠFur":8688,"ĠFoc":8689,"Ġproof":8690,"ardash":8691,"ĠEaster":8692,"ĠLas":8693,"ĠJersey":8694,"ears":8695,"ĠThink":8696,"Ġencl":8697,"Ġspan":8698,"Ġspine":8699,"ĠHey":8700,"soft":8701,"Ġpride":8702,"rub":8703,"Ġunderstood":8704,"Ġgluten":8705,"everal":8706,"ova":8707,"Ġ180":8708,"Ġexpans":8709,"ĠSports":8710,"Ġ2007":8711,"Ġsolo":8712,"Ġpolite":8713,"Ġdiary":8714,"Ġdrivers":8715,"Ġmissions":8716,"Ġbelieves":8717,"arrass":8718,"Ġsupernatural":8719,"Ġclimbed":8720,"oudini":8721,"Ġsummit":8722,"Ġshooting":8723,"ĠIndepend":8724,"Ġprotected":8725,"offs":8726,"Ġconcerned":8727,"Ġsavings":8728,"Ġcopies":8729,"Ġrolled":8730,"ĠCrash":8731,"Ġprompts":8732,"Ġelementary":8733,"Ġapplying":8734,"Ġsuffering":8735,"Ġethnic":8736,"Ġmanufacturing":8737,"ĠDistrict":8738,"Finally":8739,"Ġauthentic":8740,"ardashian":8741,"48":8742,"DO":8743,"SV":8744,"cus":8745,"gic":8746,"hh":8747,"iom":8748,"iot":8749,"mel":8750,"riger":8751,"zed":8752,"âĹ":8753,"Ġtor":8754,"Ġax":8755,"Ġsed":8756,"Ġwore":8757,"orph":8758,"Ġpaws":8759,"Ġpushing":8760,"Ġdil":8761,"Ġinfection":8762,"alph":8763,"Ġgraph":8764,"Ġgathered":8765,"eta":8766,"owed":8767,"ĠABA":8768,"char":8769,"ĠHill":8770,"Ġshame":8771,"istant":8772,"ellect":8773,"elines":8774,"Ġvital":8775,"Ġplain":8776,"ĠDark":8777,"ĠDoes":8778,"ĠGreg":8779,"Ġupbeat":8780,"ĠJour":8781,"append":8782,"Ġuncomfort":8783,"Ġwhenever":8784,"ounded":8785,"Ġimpe":8786,"Ġprepar":8787,"Ġendless":8788,"Ġentering":8789,"Ġinvis":8790,"Ġmonolog":8791,"Ġsecrets":8792,"Ġrealm":8793,"Ġpointed":8794,"Ġfiles":8795,"Ġmainly":8796,"Start":8797,"cientists":8798,"pending":8799,"Ġplanting":8800,"Ġ1995":8801,"Ġbench":8802,"Ġtradition":8803,"Ġboxes":8804,"Ġcreamy":8805,"Ġfights":8806,"Ġdeaths":8807,"Ġmixing":8808,"Ġphysically":8809,"Ġpacked":8810,"Ġpreparing":8811,"ĠBritain":8812,"Ġhosts":8813,"Ġburied":8814,"ographic":8815,"Ġattraction":8816,"Ġstruggled":8817,"Ġachieved":8818,"Ġconcern":8819,"ARS":8820,"ĠGlob":8821,"fficient":8822,"Ġrepeat":8823,"Ġinjuries":8824,"Ġassignment":8825,"ĠWilliams":8826,"Ġvolcanoes":8827,"________________":8828,"Ġdisappeared":8829,"Ġlaund":8830,"ĠAttorney":8831,"Ġthrive":8832,"Ġbelly":8833,"ĠWhether":8834,"ĠLincoln":8835,"Ġweapon":8836,"Ġsquirrel":8837,"Ġhaunted":8838,"Ġinstrument":8839,"Ġpineapple":8840,"keeper":8841,"Ġbacteria":8842,"Ġsuffered":8843,"App":8844,"BI":8845,"Car":8846,"Cal":8847,"Okay":8848,"ev":8849,"jo":8850,"kens":8851,"parent":8852,"piece":8853,"uate":8854,"walk":8855,"}:":8856,"ĊĊĠĠĠĠĠĠĠ":8857,"Ġtense":8858,"Ġarom":8859,"erd":8860,"Ġcel":8861,"Ġcuis":8862,"itis":8863,"Ġbonds":8864,"iser":8865,"Ġmart":8866,"anny":8867,"Ġdynam":8868,"Ġlen":8869,"Ġya":8870,"Ġyards":8871,"sell":8872,"ĠAL":8873,"ĠAM":8874,"ĠHon":8875,"ĠPig":8876,"Ġraces":8877,"eling":8878,"Ġvine":8879,"ĠFancy":8880,"Ġsuck":8881,"resents":8882,"ĠNFL":8883,"Ġfears":8884,"achment":8885,"Ġpeak":8886,"Ġresident":8887,"Ġaged":8888,"Ġagricult":8889,"Ġperman":8890,"Ġunderneath":8891,"ĠVe":8892,"Ġactress":8893,"Ġ48":8894,"angered":8895,"Ġconscious":8896,"Ġproducing":8897,"erman":8898,"Ġstudied":8899,"Ġrepresents":8900,"ikus":8901,"Ġaircraft":8902,"Ġlegacy":8903,"Ġdeeply":8904,"Ġtechnique":8905,"annah":8906,"ĠExpl":8907,"Ġviewers":8908,"Ġimproving":8909,"Ġorganic":8910,"Ġzomb":8911,"Ġofficers":8912,"Ġphysics":8913,"Ġvegetarian":8914,"Ġgrandfather":8915,"Ġclosest":8916,"Ġoperating":8917,"ĠCheese":8918,"ĠEnter":8919,"Ġcrying":8920,"ĠSmall":8921,"Ġspeaker":8922,"Ġ+=":8923,"Ġinfluenced":8924,"Ġpanic":8925,"Ġsoldiers":8926,"Ġdollar":8927,"Ġconsumers":8928,"Ġinteraction":8929,"Ġcircumstances":8930,"ĠMusic":8931,"ĠStudios":8932,"Ġembarrass":8933,"Ġqualities":8934,"Enter":8935,"Ġbattery":8936,"ĠReturn":8937,"Ġalleged":8938,"Ġmortgage":8939,"Ġfertil":8940,"Ġapplied":8941,"Ġchaos":8942,"Ġerrors":8943,"Ġcorrespond":8944,"Ġbrilliant":8945,"ĠIreland":8946,"36":8947,"56":8948,"IA":8949,"Red":8950,"Tok":8951,"Verse":8952,"aul":8953,"aism":8954,"cr":8955,"fu":8956,"gram":8957,"iary":8958,"lers":8959,"ml":8960,"rat":8961,"rons":8962,"inner":8963,"rend":8964,"Ġwitch":8965,"Ġbreeze":8966,"onge":8967,"ishes":8968,"Ġtokens":8969,"Ġdirty":8970,"alo":8971,"Ġlaughter":8972,"Ġlocked":8973,"Ġthorough":8974,"Ġnurs":8975,"Ġnails":8976,"eters":8977,"acement":8978,"enth":8979,"ĠTer":8980,"ĠTelescope":8981,"Ġonions":8982,"amental":8983,"ĠMiddle":8984,"Ġhabits":8985,"ĠHoudini":8986,"ĠBilly":8987,"Ġshock":8988,"agues":8989,"Ġ1000":8990,"elve":8991,"Ġconvert":8992,"ĠFalls":8993,"Ġintim":8994,"ĠNat":8995,"ĠNorthern":8996,"ĠNintendo":8997,"Ġenforce":8998,"ending":8999,"Ġunless":9000,"Ġtricks":9001,"inton":9002,"Ġresume":9003,"Ġcrunch":9004,"ificial":9005,"Ġrealizes":9006,"otte":9007,"Ġlighting":9008,"hips":9009,"rossing":9010,"Ġpossibility":9011,"Ġpatience":9012,"Ġchecked":9013,"ĠOrder":9014,"Ġpresentation":9015,"ĠSupport":9016,"Ġfocuses":9017,"eddy":9018,"ĠAdditionally":9019,"Ġfailure":9020,"Ġfeedback":9021,"Ġsuspect":9022,"Ġiniti":9023,"Ġnecessarily":9024,"iosis":9025,"Ġprivacy":9026,"Ġimmig":9027,"ĠJean":9028,"Ġcarrying":9029,"Ġpsychological":9030,"Ġprincipal":9031,"Ġgranted":9032,"ĠSocial":9033,"achelor":9034,"Ġcinnamon":9035,"ĠKennedy":9036,"ĠGarden":9037,"Ġdinosaurs":9038,"ĠDiscord":9039,"Ġlandscape":9040,"Ġpursue":9041,"Ġpleasant":9042,"ĠEverest":9043,"Ġfranchise":9044,"Ġcomprehens":9045,"Ġinhabit":9046,"Ġrefreshing":9047,"Ġadvertisement":9048,"Ġlaptop":9049,"ĠBitcoin":9050,"ĠReddit":9051,"250":9052,"Gener":9053,"IV":9054,"Mod":9055,"PU":9056,"RA":9057,"Up":9058,"hin":9059,"hour":9060,"nut":9061,"part":9062,"uber":9063,"vard":9064,"Åį":9065,"Ġ...":9066,"Ġaffe":9067,"Ġsights":9068,"Ġsessions":9069,"Ġfu":9070,"Ġfried":9071,"Ġlions":9072,"Ġnerve":9073,"Ġgrill":9074,"ĠTour":9075,"Ġstun":9076,"ĠSub":9077,"ĠSup":9078,"ĠHun":9079,"ĠHope":9080,"Ġneut":9081,"ĠWind":9082,"ĠWord":9083,"ĠWalk":9084,"ĠPant":9085,"Ġselection":9086,"Ġyours":9087,"Ġrows":9088,"Ġalert":9089,"Ġdeals":9090,"ĠGram":9091,"ĠRab":9092,"ĠRog":9093,"ĠRoose":9094,"ĠExt":9095,"ĠEduc":9096,"Their":9097,"ĠJenn":9098,"ĠOF":9099,"aval":9100,"Ġcomposed":9101,"Ġtracks":9102,"ĠStory":9103,"Ġdism":9104,"Ġresort":9105,"Ġtherefore":9106,"velt":9107,"obia":9108,"Ġpersist":9109,"heses":9110,"Ġtraum":9111,"Ġreco":9112,"Ġchef":9113,"venture":9114,"Ġsliced":9115,"Ġretired":9116,"Ġgreatly":9117,"Ġstrings":9118,"ifications":9119,"ĠAlways":9120,"Ġregret":9121,"Ġexposure":9122,"Ġanimated":9123,"Ġrefused":9124,"Ġyoungest":9125,"ĠAnna":9126,"Ġ75":9127,"array":9128,"ĠDec":9129,"Ġpayments":9130,"Ġconfusion":9131,"ercury":9132,"ĠJohnny":9133,"Ġorganisms":9134,"Ġpackaging":9135,"Ġvolunte":9136,"Ġcaptain":9137,"Ġindustrial":9138,"Ġarguments":9139,"Ġexpressed":9140,"Ġsurroundings":9141,"Ġangle":9142,"poses":9143,"Ġfunding":9144,"Ġmachines":9145,"ystems":9146,"Ġquietly":9147,"Ġresponded":9148,"Everyone":9149,"Ġcowork":9150,"oshi":9151,"Ġindependence":9152,"Ġsubstance":9153,"ĠApoll":9154,"ungeon":9155,"Ġexecutive":9156,"ĠBreak":9157,"Ġweapons":9158,"ĠBrazil":9159,"Ġduty":9160,"Ġsoreness":9161,"leanor":9162,"ĠCollege":9163,"ĠBuddh":9164,"Ġterritory":9165,"Ġprominent":9166,"Ġphilosophy":9167,"Ġscheduled":9168,"ĠColumbia":9169,"Ġreputation":9170,"ifferent":9171,"ĠRoosevelt":9172,"94":9173,"Com":9174,"Script":9175,"`,":9176,"cut":9177,"fol":9178,"main":9179,"rich":9180,"uine":9181,"Â°":9182,"Ġfaced":9183,"Ġdip":9184,"Ġlazy":9185,"aset":9186,"lee":9187,"Ġstaring":9188,"Ġstages":9189,"cel":9190,"ĠMach":9191,"ĠCreek":9192,"Ġwashing":9193,"changing":9194,"ravel":9195,"ĠBan":9196,"ĠWatch":9197,"ĠWonder":9198,"Ġorb":9199,"Ġorig":9200,"opher":9201,"ustion":9202,"ieval":9203,"aki":9204,"ĠRoll":9205,"Ġjar":9206,"ĠEar":9207,"Ġintellect":9208,"ĠNone":9209,"Ġoutl":9210,"Ġarc":9211,"ĠKansas":9212,"aph":9213,"iped":9214,"Ġcompare":9215,"ormous":9216,"ensity":9217,"ĠChief":9218,"Ġplayful":9219,"Ġpersu":9220,"Ġtraits":9221,"ventually":9222,"Ġworlds":9223,"aware":9224,"Ġstrict":9225,"Ġstranger":9226,"Ġinstant":9227,"Ġregards":9228,"ĠBeaut":9229,"Ġfiled":9230,"Ġputs":9231,"Ġrefriger":9232,"Ġ2002":9233,"Ġautumn":9234,"owser":9235,"Ġeditor":9236,"roduce":9237,"ĠLee":9238,"ĠLeg":9239,"Ġreviewer":9240,"Ġincreases":9241,"Ġbeginner":9242,"Ġchecking":9243,"Ġeffectively":9244,"ĠOrgan":9245,"ĠIndians":9246,"Ġsurfaces":9247,"Ġdivide":9248,"Ġbreathe":9249,"opsis":9250,"ĠRepresent":9251,"Ġwebsites":9252,"Ġfloating":9253,"aborate":9254,"Ġmurd":9255,"ĠMichel":9256,"Ġscratch":9257,"People":9258,"ĠJudaism":9259,"Ġscholars":9260,"ĠNetwork":9261,"Ġwrapped":9262,"Ġcorporate":9263,"Ġsighed":9264,"Ġrhythm":9265,"Ġdowntown":9266,"Ġcriminal":9267,"Ġinflammation":9268,"\"?":9269,"\");":9270,"':":9271,"300":9272,"={":9273,"bro":9274,"px":9275,"rus":9276,"worm":9277,"zu":9278,"zer":9279,"Ġtac":9280,"repre":9281,"Ġsatell":9282,"Ġbother":9283,"Ġbands":9284,"Ġpic":9285,"Ġhors":9286,"Ġnoodles":9287,"Ġgear":9288,"Ġgrey":9289,"ĠTO":9290,"Ġstairs":9291,"adium":9292,"igning":9293,"ĠMen":9294,"ĠMult":9295,"ĠMiam":9296,"ĠCir":9297,"ĠCubs":9298,"Ġhaikus":9299,"illing":9300,"ĠHoll":9301,"Ġshops":9302,"agan":9303,"istan":9304,"oren":9305,"Ġchant":9306,"Ġchores":9307,"Ġdebr":9308,"ĠRoyal":9309,"ĠEver":9310,"Ġ(<":9311,"Ġintake":9312,"indices":9313,"Ġclar":9314,"Ġenchant":9315,"Ġenormous":9316,"ĠUs":9317,"ĠStri":9318,"ĠStation":9319,"Ġflows":9320,"âĢĿ,":9321,"hyd":9322,"Ġaccused":9323,"Ġaccomp":9324,"Ġnowhere":9325,"Ġinvasion":9326,"Ġmining":9327,"type":9328,"atson":9329,"Though":9330,"Ġsunshine":9331,"Ġsubtle":9332,"uddy":9333,"Ġhorrible":9334,"Ġstarred":9335,"Ġcelebrated":9336,"Ġconnections":9337,"mediate":9338,"Ġsensitive":9339,"ĠGrass":9340,"Ġsignificance":9341,"ebra":9342,"Ġinvention":9343,"Ġsettings":9344,"Ġmelted":9345,"Ġliterary":9346,"Ġconcepts":9347,"Ġtickets":9348,"Ġsequence":9349,"Ġjudge":9350,"Ġsuspense":9351,"Ġtroops":9352,"ĠHistory":9353,"ĠColorado":9354,"Ġillegal":9355,"Ġsarcastic":9356,"Ġuncomfortable":9357,"reprene":9358,"Ġdebris":9359,"\">":9360,"%.":9361,"78":9362,"SR":9363,"TA":9364,"];":9365,"mar":9366,"she":9367,"ugh":9368,"your":9369,"Ġiced":9370,"Ġtune":9371,"Ġsorts":9372,"Ġwakes":9373,"Ġft":9374,"Ġfuck":9375,"Ġfired":9376,"Ġbay":9377,"Ġbatt":9378,"onel":9379,"orious":9380,"Ġmum":9381,"Ġmales":9382,"enic":9383,"left":9384,"Ġyield":9385,"ione":9386,"Ġstable":9387,"ample":9388,"amins":9389,"ilton":9390,"rained":9391,"Ġshadow":9392,"Ġabstract":9393,"Ġchief":9394,"Ġrings":9395,"ements":9396,"ĠDI":9397,"ĠFollow":9398,"ĠRick":9399,"Ġjam":9400,"inda":9401,"ĠJordan":9402,"ĠĊĠĠĠ":9403,"plays":9404,"ĠStat":9405,"Ġbless":9406,"Ġjustice":9407,"Ġprecious":9408,"Ġartistic":9409,"Ġchew":9410,"Ġindul":9411,"ĠUnfortunately":9412,"anyon":9413,"arming":9414,"ĠBeing":9415,"Ġcaption":9416,"Ġwrist":9417,"Ġextensive":9418,"random":9419,"Ġweekly":9420,"Ġsubur":9421,"Ġsubsequ":9422,"Ġdrunk":9423,"Ġfactor":9424,"Ġsignal":9425,"Ġpurposes":9426,"Ġdeveloper":9427,"Ġpromot":9428,"Ġdepart":9429,"erring":9430,"Ġaudiences":9431,"Ġapproved":9432,"Ġestate":9433,"Ġrivers":9434,"Ġstrikes":9435,"ĠConnect":9436,"Ġproperties":9437,"Ġextraord":9438,"Ġsurviv":9439,"ĠFinal":9440,"Ġencourages":9441,"Ġdrops":9442,"Ġsmells":9443,"Ġdefeat":9444,"Ġthrone":9445,"Ġirrit":9446,"Ġdevast":9447,"ĠJulia":9448,"Ġopinions":9449,"Ġgraduate":9450,"Frank":9451,"ĠParty":9452,"Ġfluid":9453,"Ġsocks":9454,"Ġconvince":9455,"Ġcontrovers":9456,"Ġaffection":9457,"%,":9458,"42":9459,"58":9460,"Each":9461,"Number":9462,"PS":9463,"Te":9464,"Text":9465,"cod":9466,"des":9467,"date":9468,"ean":9469,"gener":9470,"gmail":9471,"kind":9472,"mare":9473,"mble":9474,"pop":9475,"test":9476,"table":9477,"Ġtact":9478,"inch":9479,"inum":9480,"Ġsession":9481,"Ġwidth":9482,"athetic":9483,"Ġfed":9484,"esh":9485,"Ġpile":9486,"anwhile":9487,"Ġdwarf":9488,"Ġhired":9489,"Ġlou":9490,"Ġlad":9491,"Ġyeah":9492,"Ġgest":9493,"Ġeats":9494,"ĠIll":9495,"ĠTem":9496,"uther":9497,"ros":9498,"ĠAP":9499,"ĠAT":9500,"ĠMain":9501,"ĠCats":9502,"ĠColl":9503,"rior":9504,"esty":9505,"ĠWH":9506,"ĠPay":9507,"Ġseats":9508,"ppings":9509,"Ġdozen":9510,"Ġvivid":9511,"Ġalter":9512,"ĠDrag":9513,"ĠDaniel":9514,"ĠFre":9515,"ĠFill":9516,"ĠFive":9517,"Ġsole":9518,"akery":9519,"ĠRat":9520,"ĠRub":9521,"acked":9522,"Ġ\"\\":9523,"Ġsucc":9524,"ĠNob":9525,"ĠJS":9526,"Ġhasn":9527,"ĠYeah":9528,"ĠHeart":9529,"ĠKardashian":9530,"Ġroasted":9531,"Ġune":9532,"ĠStars":9533,"Ġscan":9534,"Ġdiss":9535,"rup":9536,"Ġ1950":9537,"Ġbackpack":9538,"Ġartif":9539,"Ġchees":9540,"Ġreluct":9541,"Ġproduces":9542,"Ġmonsters":9543,"Ġopal":9544,"Ġload":9545,"ampion":9546,"Ġinterior":9547,"ounced":9548,"Ġgenerated":9549,"ĠReact":9550,"Ġdelay":9551,"Ġairport":9552,"ĠMarg":9553,"ĠMaria":9554,"Ġenjoys":9555,"ugar":9556,"ĠKey":9557,"ĠBrady":9558,"Ġcoup":9559,"Ġlawsuit":9560,"Ġkeywords":9561,"Ġperforming":9562,"player":9563,"Ġmode":9564,"ilipp":9565,"Ġgenuine":9566,"Ġfailing":9567,"Ġdiscussed":9568,"Ġdressed":9569,"Ġsending":9570,"Ġalbums":9571,"Ġfundamental":9572,"Ġpaintings":9573,"Ġtouching":9574,"Ġconsumed":9575,"ĠPaxton":9576,"Ġpuzzles":9577,"Ġteenage":9578,"Ġpreferred":9579,"Ġthrown":9580,"Ġadaptation":9581,"Ġhabitat":9582,"rieve":9583,"Ġweakness":9584,"Ġfrustrated":9585,"Ġaimed":9586,"ungeons":9587,"Ġpenguins":9588,"Ġincreasingly":9589,"Ġhighlights":9590,"About":9591,"Ġsynopsis":9592,"Ġappointment":9593,"ĠCOVID":9594,"ĠMatthew":9595,"Ġoverwhelming":9596,"ĠAvoid":9597,"Ġpermission":9598,"Ġastronauts":9599,"Ġflexible":9600,"Ġarchitecture":9601,"ĠCastle":9602,"ĠBeatles":9603,"Strong":9604,"ĠKosovo":9605,"Ġtragedy":9606,"Trivia":9607,"Ġveggies":9608,"sentence":9609,"Ġmonologue":9610,"ĠSupreme":9611,"Bob":9612,"El":9613,"Mic":9614,"Peter":9615,"Water":9616,"brain":9617,"chers":9618,"df":9619,"den":9620,"human":9621,"li":9622,"range":9623,"Ã¡":9624,"inate":9625,"Ġsoph":9626,"Ġoak":9627,"Ġoceans":9628,"Ġfry":9629,"Ġbub":9630,"Ġpou":9631,"Ġped":9632,"eding":9633,"asma":9634,"icit":9635,"Ġgross":9636,"Ġstays":9637,"amic":9638,"amous":9639,"sey":9640,"ĠSav":9641,"ĠSomething":9642,"ceived":9643,"ĠMind":9644,"ĠCut":9645,"ĠCream":9646,"ĠCoun":9647,"ĠHood":9648,"ĠBible":9649,"Ġshield":9650,"Ġshadows":9651,"ulary":9652,"Ġabund":9653,"ĠPearl":9654,"Ġchili":9655,"Ġsem":9656,"about":9657,"abel":9658,"ĠDub":9659,"ĠFa":9660,"ĠFah":9661,"ĠFamily":9662,"ĠGalaxy":9663,"ĠLim":9664,"Ġtender":9665,"inding":9666,"Ġsomebody":9667,"Ġshed":9668,"Ġenviron":9669,"Ġcomponent":9670,"ĠChurch":9671,"lfred":9672,"Ġimpressive":9673,"formation":9674,"Ġrecycl":9675,"Ġlettuce":9676,"Ġski":9677,"Ġindicate":9678,"Ġopens":9679,"iki":9680,"Ġclassify":9681,"Ġclassroom":9682,"Ġfilter":9683,"Ġinformed":9684,"Ġinformal":9685,"flix":9686,"ovid":9687,"Ġsword":9688,"Ġlessons":9689,"Ġmemorable":9690,"Ġsounded":9691,"Ġ2004":9692,"Ġedges":9693,"ĠFlash":9694,"ustomer":9695,"Ġoccas":9696,"Ġelectron":9697,"Ġtitled":9698,"ĠScout":9699,"ĠWithout":9700,"Ġcapacity":9701,"Ġsilence":9702,"Ġtouched":9703,"Ġtourists":9704,"Ġdeadly":9705,"Ġmatters":9706,"Ġsettled":9707,"Ġconsumption":9708,"Ġspirits":9709,"Ġregarded":9710,"ATE":9711,"Ġcrops":9712,"Ġcivilization":9713,"iscons":9714,"ĠAgain":9715,"Ġreligion":9716,"Imagine":9717,"Ġmanufacture":9718,"Ġsocket":9719,"Ġoccupied":9720,"ĠVenice":9721,"Ġpregnancy":9722,"Ġaggressive":9723,"ĠKorean":9724,"ioxide":9725,"Ġcandidate":9726,"ĠBruce":9727,"Ġchronological":9728,"ĠFocus":9729,"Ġcuisine":9730,"Ġorigins":9731,"ĠMiami":9732,"Ġenvironments":9733,")[":9734,"52":9735,"97":9736,"Sk":9737,"corn":9738,"gie":9739,"jis":9740,"named":9741,"then":9742,"Ġaquarium":9743,"inet":9744,"atile":9745,"Ġborrow":9746,"orize":9747,"Ġmud":9748,"Ġreaches":9749,"Ġbeet":9750,"ĠTele":9751,"Ġstocks":9752,"ĠSure":9753,"ĠBad":9754,"ĠBase":9755,"ulu":9756,"aghett":9757,"unks":9758,"ĠPublic":9759,"Ġchase":9760,"Ġchairs":9761,"Ġconference":9762,"ĠFle":9763,"ĠFather":9764,"Ġjungle":9765,"ĠEleanor":9766,"ĠLive":9767,"ĠLady":9768,"Ġouter":9769,"oodle":9770,"ĠJess":9771,"ĠJason":9772,"ĠThings":9773,"oda":9774,"arer":9775,"arest":9776,"Ġspy":9777,"Ġuniform":9778,"Ġcomprom":9779,"Ġdisaster":9780,"ormal":9781,"Ġcolored":9782,"Ġgoodbye":9783,"Ġrail":9784,"Ġawk":9785,"Ġconsume":9786,"Ġproducers":9787,"Ġmonkeys":9788,"Ġsmallest":9789,"Ġinsist":9790,"Ġlocals":9791,"Ġpasses":9792,"Ġclever":9793,"Ġmedieval":9794,"Ġexped":9795,"Ġavocado":9796,"Ġmarks":9797,"ĠPlant":9798,"Ġdeepest":9799,"Ġelected":9800,"puter":9801,"Ġ1991":9802,"Char":9803,"Ġzero":9804,"Ġcampus":9805,"ĠCalcul":9806,"Ġprotecting":9807,"Ġinspire":9808,"Ġcollapse":9809,"Ġsurvived":9810,"Ġ1969":9811,"Ġvacuum":9812,"ĠSpaceX":9813,"nament":9814,"Ġplatinum":9815,"Before":9816,"oleon":9817,"breaking":9818,"Ġparticipants":9819,"Ġthrust":9820,"Ġfrequent":9821,"Ġapplications":9822,"ĠAlexander":9823,"ĠBoard":9824,"Ġphrases":9825,"Ġtunnel":9826,"Ġcoconut":9827,"Ġgathering":9828,"Ġcomplicated":9829,"ĠAtlantic":9830,"Ġunlikely":9831,"Ġmammals":9832,"Ġconvenient":9833,"Ġmobile":9834,"Ġfierce":9835,"ĠSusan":9836,"Ġdespair":9837,"Ġvoices":9838,"ĠABAB":9839,"Ġhorses":9840,"98":9841,"='":9842,"Cola":9843,"Rep":9844,"Ste":9845,"Tim":9846,"cup":9847,"don":9848,"home":9849,"making":9850,"nings":9851,"power":9852,"pread":9853,"va":9854,"yon":9855,"including":9856,"itivity":9857,"Ġfits":9858,"Ġbio":9859,"Ġbanks":9860,"Ġpests":9861,"Ġdread":9862,"Ġhal":9863,"lements":9864,"Ġrept":9865,"enter":9866,"ĠTik":9867,"Ġstared":9868,"selling":9869,"rock":9870,"adas":9871,"ĠCanyon":9872,"chain":9873,"ĠHor":9874,"ĠHorse":9875,"ĠBarry":9876,"ĠWomen":9877,"through":9878,"ĠPy":9879,"Ġchasing":9880,"usage":9881,"abulary":9882,"ĠDar":9883,"ĠDave":9884,"ĠDead":9885,"osph":9886,"redients":9887,"ĠRest":9888,"Ġintent":9889,"indy":9890,"Ġshelf":9891,"pert":9892,"cium":9893,"Ġrolling":9894,"Ġ36":9895,"ishment":9896,"Ġunderwater":9897,"Ġattitude":9898,"Ġhomeown":9899,"Ġhomemade":9900,"Ġendangered":9901,"athon":9902,"athan":9903,"atherine":9904,"Ġacres":9905,"Ġcrown":9906,"Ġbegun":9907,"Ġinsight":9908,"Ġinsert":9909,"Ġglowing":9910,"Ġsubt":9911,"Ġsolved":9912,"Ġsolutions":9913,"idespread":9914,"Ġproductivity":9915,"uffs":9916,"ĠPluto":9917,"Ġwinds":9918,"ĠArm":9919,"Ġstandards":9920,"Ġbeginners":9921,"Ġtemple":9922,"Ġ1998":9923,"Ġprize":9924,"Ġtrading":9925,"Ġrainy":9926,"Ġbarbe":9927,"ĠElmo":9928,"ĠInstitute":9929,"colored":9930,"Although":9931,"ĠEmperor":9932,"Ġcatching":9933,"Ġpolitics":9934,"Ġappreciation":9935,"ĠSteven":9936,"Ġlaughing":9937,"Ġchopped":9938,"Ġinstalled":9939,"Ġtower":9940,"ĠUpon":9941,"OUR":9942,"ĠJefferson":9943,"Ġfolks":9944,"Ġextends":9945,"ulsion":9946,"Ġturkey":9947,"iveness":9948,"Ġnutrition":9949,"ĠObama":9950,"removals":9951,"Ġcrystal":9952,"Ġremarkable":9953,"Ġfragr":9954,"Ġlicense":9955,"Ġanalysis":9956,"Ġguidance":9957,"Ġgrammar":9958,"Ġlaundry":9959,"isconsin":9960,"aghetti":9961,").[":9962,",'":9963,"IM":9964,"Jim":9965,"Mike":9966,"Pass":9967,"RL":9968,"TER":9969,"cil":9970,"gly":9971,"gment":9972,"mart":9973,"mile":9974,"inis":9975,"Ġcasser":9976,"Ġfond":9977,"Ġbor":9978,"orrect":9979,"Ġdying":9980,"Ġhind":9981,"Ġhip":9982,"Ġhire":9983,"Ġlap":9984,"Ġlakes":9985,"ĠIT":9986,"Ġstrain":9987,"Ġstones":9988,"urse":9989,"ĠSong":9990,"ĠSuddenly":9991,"ĠSonic":9992,"ĠAAB":9993,"ĠCake":9994,"ĠComb":9995,"ĠHand":9996,"ĠPur":9997,"Ġrushed":9998,"Ġalign":9999,"ĠDri":10000,"ĠFound":10001,"ĠRain":10002,"Ġjars":10003,"Ġteens":10004,"ĠJake":10005,"Ġgobl":10006,"Ġclay":10007,"earing":10008,"ichael":10009,"Ġspoon":10010,"Ġcopper":10011,"ĠUFC":10012,"Ġroses":10013,"Ġblur":10014,"Ġspeeds":10015,"orders":10016,"Ġnoises":10017,"Ġperpet":10018,"Ġslam":10019,"Ġslog":10020,"Ġcaring":10021,"Ġdeciding":10022,"Ġhumming":10023,"Ġexploration":10024,"Ġsynt":10025,"Ġinstinct":10026,"Ġrestore":10027,"Through":10028,"oking":10029,"Ġinterpret":10030,"Ġ[\"":10031,"Ġsunset":10032,"Ġevolution":10033,"Ġrefund":10034,"Ġdipl":10035,"Ġresulted":10036,"Ġtreatments":10037,"Ġcoron":10038,"Ġorganize":10039,"Ġconsideration":10040,"Ġsteel":10041,"Ġsteak":10042,"ĠProfessor":10043,"Ġbasement":10044,"Ġpressed":10045,"Ġtastes":10046,"Ġdestruction":10047,"Ġreducing":10048,"Ġgenetic":10049,"Ġfrogs":10050,"Ġoperator":10051,"Ġ},":10052,"Ġarrives":10053,"ĠPhilipp":10054,"ddie":10055,"Ġcompetitive":10056,"Ġstruggles":10057,"Ġsubjects":10058,"III":10059,"nesota":10060,"ĠMinnesota":10061,"EST":10062,"month":10063,"Ġcircus":10064,"ĠBillboard":10065,"ĠPatri":10066,"rupted":10067,"Ġunfold":10068,"Ġmotivated":10069,"Describe":10070,"Ġpremie":10071,"Ġfrustration":10072,"Ġyelled":10073,"Ġnavigate":10074,"Ġpregnant":10075,"Ġbucket":10076,"Ġhorizon":10077,"Ġcertified":10078,"Ġsteady":10079,"ĠTokyo":10080,"Ġfantastic":10081,"Ġelderly":10082,"ĠRowling":10083,"ĠGovernor":10084,"Ġmartial":10085,"Ġawkward":10086,"71":10087,"85":10088,"Cons":10089,"Fe":10090,"IG":10091,"SE":10092,"Sl":10093,"Tweet":10094,"Yet":10095,"bar":10096,"bul":10097,"comm":10098,"ipper":10099,"mm":10100,"mind":10101,"vol":10102,"Ġâ":10103,"esides":10104,"Ġmaj":10105,"Ġpul":10106,"Ġpunch":10107,"Ġdanced":10108,"story":10109,"ĠTan":10110,"Ġhell":10111,"Ġstere":10112,"roid":10113,"ĠArab":10114,"tery":10115,"cell":10116,"ĠHur":10117,"ĠBB":10118,"ĠBC":10119,"ested":10120,"Ġexists":10121,"ema":10122,"Ġvoted":10123,"Ġalley":10124,"ĠFame":10125,"osc":10126,"Ġprohib":10127,"Ġsocc":10128,"asty":10129,"ĠEth":10130,"gered":10131,"Ġleather":10132,"ĠNOT":10133,"Ġtends":10134,"ĠJoy":10135,"ĠJosh":10136,"Ġgoats":10137,"ĠThor":10138,"cip":10139,"ĠStand":10140,"Ġscored":10141,"Ġflag":10142,"Ġresolution":10143,"Ġresolve":10144,"Ġagent":10145,"Ġ1900":10146,"ĠVan":10147,".\")":10148,"Ġfindings":10149,"Ġcommission":10150,"Ġslide":10151,"Ġreads":10152,"Ġtrials":10153,"Ġrepair":10154,"Ġ600":10155,"brid":10156,"Ġfactory":10157,"Ġpubl":10158,"comp":10159,"Ġpotentially":10160,"Ġmovements":10161,"ĠBrut":10162,"Ġresemb":10163,"Ġ1999":10164,"Ġreceiving":10165,"Ġfurry":10166,"Ġkilling":10167,"Ġinflation":10168,"Ġdawn":10169,"Ġgenres":10170,"ĠTeam":10171,"ĠCoffee":10172,"Ġroads":10173,"Ġruled":10174,"Ġdrove":10175,"Ġgarage":10176,"Ġmatches":10177,"ĠMichigan":10178,"Ġdecorate":10179,"Ġthreatened":10180,"Ġhikes":10181,"Ġdomestic":10182,"secut":10183,"market":10184,"Ġmeasured":10185,"ĠMicro":10186,"Ġvitamins":10187,"ĠVisit":10188,"Ġelephants":10189,"Ġfortune":10190,"radius":10191,"Ġgrip":10192,"Ġaccurate":10193,"Ġpaddle":10194,"Ġoccasionally":10195,"Ġcontemporary":10196,"Ġcarrots":10197,"Ġacknowled":10198,"sembly":10199,"Ġcreepy":10200,"aterpillar":10201,"ĠOscar":10202,"Ġfossil":10203,"Ġintimid":10204,"Ġextraordinary":10205,"ĠDragons":10206,"Ġsoccer":10207,"47":10208,"::":10209,"Based":10210,"Dog":10211,"OC":10212,"Rec":10213,"SC":10214,"afe":10215,"bucks":10216,"map":10217,"ping":10218,"pot":10219,"rim":10220,"rise":10221,"turn":10222,"uity":10223,"vi":10224,"yes":10225,"zero":10226,"Ġvel":10227,"Ġtack":10228,"Ġwars":10229,"Ġwidespread":10230,"Ġcraw":10231,"onto":10232,"orters":10233,"eded":10234,"Ġdorm":10235,"Ġhitting":10236,"Ġhiring":10237,"Ġlane":10238,"icon":10239,"Ġye":10240,"Ġnations":10241,"ĠTao":10242,"immer":10243,"urous":10244,"Ġwhist":10245,"ilty":10246,"ĠMer":10247,"ĠCost":10248,"ĠCrow":10249,"outheast":10250,"umns":10251,"ĠHuman":10252,"ĠBow":10253,"ĠBall":10254,"Ġshred":10255,"Ġchir":10256,"Ġsections":10257,"Ġrit":10258,"Ġrural":10259,"Ġconvey":10260,"quest":10261,"open":10262,"Ġcompelling":10263,"ĠDig":10264,"ĠFro":10265,"rous":10266,"ĠGot":10267,"ĠEll":10268,"geous":10269,"ĠLily":10270,"ĠLarry":10271,"ĠNY":10272,"ĠĊĠĠ":10273,"plit":10274,"Ġknees":10275,"ĠKim":10276,"Ġsail":10277,"necess":10278,"âĢĿâĢĶ":10279,"elling":10280,"Ġlistened":10281,"Ġbrid":10282,"ĠChild":10283,"Ġartificial":10284,"Ġcharm":10285,"Ġawake":10286,"Ġbug":10287,"Ġconservation":10288,"Ġbelt":10289,"Ġrelative":10290,"Ġsurve":10291,"Ġguards":10292,"Ġtrips":10293,"Ġmineral":10294,"Ġinstantly":10295,"Ġboots":10296,"ancers":10297,"Ġsnail":10298,"Ġpolic":10299,"Ġmustard":10300,"Ġpromises":10301,"ructure":10302,"ĠArch":10303,"ĠArmy":10304,"Ġminds":10305,"Ġbitter":10306,"Ġtrends":10307,"ercy":10308,"Ġelectronic":10309,"appropriate":10310,"Ġ1997":10311,"reshold":10312,"Ġpublicly":10313,"anguage":10314,"Ġresponsibilities":10315,"Ġpupp":10316,"Ġfigured":10317,"ĠQuill":10318,"Ġspeakers":10319,"Ġaffirm":10320,"Ġinfluential":10321,"Ġsavory":10322,"Ġsettlement":10323,"Ġentertaining":10324,"ylan":10325,"Ġarranged":10326,"Ġjumping":10327,"Ġfacility":10328,"Ġanxious":10329,"Ġalternate":10330,"ĠSpecial":10331,"Ġempire":10332,"Ġthriller":10333,"Maybe":10334,"Ġleadership":10335,"Ġcocoa":10336,"Ġmeteorite":10337,"ĠRobin":10338,"ĠSociety":10339,"ĠHistor":10340,"Ġwonders":10341,"ĠDogs":10342,"Keep":10343,"Ġcrispy":10344,"Ġcontributions":10345,"Ġcommitment":10346,"Subject":10347,"Ġearthquake":10348,"Ġpreparation":10349,"Ġenforcement":10350,"ĠApollo":10351,"Ġsemi":10352,"';":10353,"://":10354,"called":10355,"drop":10356,"fers":10357,"iy":10358,"sky":10359,"ynt":10360,"Ã³":10361,"Ġsigh":10362,"orie":10363,"Ġmour":10364,"Ġpant":10365,"Ġtob":10366,"aration":10367,"Ġdull":10368,"Ġdioxide":10369,"Ġinning":10370,"Ġrear":10371,"oters":10372,"ĠSP":10373,"ĠST":10374,"ĠSoon":10375,"ĠSoph":10376,"ĠMs":10377,"ĠCorn":10378,"olis":10379,"ĠBi":10380,"ĠBank":10381,"ĠBox":10382,"ĠBailey":10383,"Ġshiny":10384,"ĠWisconsin":10385,"ĠPok":10386,"ĠPerson":10387,"Ġexotic":10388,"Ġvul":10389,"ĠFR":10390,"Ġbutt":10391,"ĠLion":10392,"ĠLater":10393,"ĠNorm":10394,"ooky":10395,"plot":10396,"endment":10397,"ĠUk":10398,"ĠKind":10399,"ĠKids":10400,"Ġpeers":10401,"Ġunh":10402,"Ġunnecess":10403,"Ġtrim":10404,"ĠStay":10405,"Ġscram":10406,"Ġscrew":10407,"Ġblame":10408,"neys":10409,"week":10410,"Ġgrin":10411,"ressing":10412,"alsa":10413,"obile":10414,"ĠChildren":10415,"ĠVin":10416,"ventional":10417,"ĠAsh":10418,"Ġreply":10419,"Ġlovers":10420,"Ġrunner":10421,"ĠReal":10422,"String":10423,"ĠAdminist":10424,"Ġmindful":10425,"Ġmarry":10426,"balls":10427,"ĠZoo":10428,"Ġissued":10429,"Ġcaps":10430,"Ġ`.":10431,"Ġbadly":10432,"Ġsteep":10433,"Ġstealing":10434,"Ġbutterflies":10435,"Ġversions":10436,"apsed":10437,"Ġobserve":10438,"Ġtotally":10439,"ĠCoast":10440,"ĠUniversal":10441,"Ġcandle":10442,"Ġimagined":10443,"ĠEmily":10444,"Ġpaths":10445,"Ġvillain":10446,"Ġbrands":10447,"Ġstraightforward":10448,"Ġcollecting":10449,"Ġaffecting":10450,"ĠMountains":10451,"Ġpredict":10452,"Ġurban":10453,"rabble":10454,"Ġupdated":10455,"points":10456,"Ġconcrete":10457,"Ġforgotten":10458,"Ġmotivation":10459,"ĠPortland":10460,"ĠPortug":10461,"ĠMusk":10462,"Ġgraduated":10463,"ĠPalace":10464,"Ġselected":10465,"ĠPrize":10466,"Ġrubber":10467,"Ġhypert":10468,"ĠRecords":10469,"Ġdepths":10470,"Ġsquirrels":10471,"Ġapologize":10472,"ĠAtlanta":10473,"Ġrevenge":10474,"ĠLearning":10475,"Ġobstacles":10476,"movement":10477,"Ġgrooming":10478,"ĠLucy":10479,"Ġsenior":10480,"Ġcomparison":10481,"Ġapparently":10482,"direction":10483,"Ġrecovery":10484,"800":10485,"Act":10486,"Data":10487,"Har":10488,"More":10489,"PC":10490,"Ty":10491,"Tom":10492,"Title":10493,"Work":10494,"cal":10495,"fits":10496,"makers":10497,"non":10498,"pres":10499,"ritten":10500,"rison":10501,"script":10502,"tes":10503,"there":10504,"ĉĉ":10505,"Ġtorn":10506,"heit":10507,"instein":10508,"Ġther":10509,"Ġok":10510,"Ġcv":10511,"Ġcooper":10512,"itled":10513,"itches":10514,"Ġbass":10515,"inging":10516,"Ġmice":10517,"Ġpitc":10518,"Ġtoppings":10519,"Ġdive":10520,"Ġlined":10521,"Ġloses":10522,"Ġgases":10523,"idays":10524,"Ġstarring":10525,"âĢĭ":10526,"adel":10527,"ĠSC":10528,"Ġwithdraw":10529,"Ġanch":10530,"cted":10531,"ila":10532,"ilian":10533,"ĠMade":10534,"ifies":10535,"ĠCub":10536,"Ġhaz":10537,"olas":10538,"ĠHan":10539,"ulpt":10540,"ĠPress":10541,"usic":10542,"Ġranks":10543,"Ġvamp":10544,"ĠFour":10545,"ĠFree":10546,"Ġdece":10547,"Ġsoot":10548,"aky":10549,"ĠEP":10550,"Ġintrig":10551,"ĠNavy":10552,"Ġmold":10553,"ĠYet":10554,"Ġtrunk":10555,"Ġflip":10556,"Ġcontents":10557,"renheit":10558,"Ġtwin":10559,"Ġ33":10560,"Ġ39":10561,"Ġemissions":10562,"Ġemerge":10563,"ĠChip":10564,"ockets":10565,"ĠVR":10566,"Ġshortly":10567,"Ġappet":10568,"eremy":10569,"Ġattorney":10570,"Ġlets":10571,"Ġbund":10572,"Ġindo":10573,"Inter":10574,"Ġguilty":10575,"jective":10576,"Ġcurse":10577,"nergy":10578,"Three":10579,"ika":10580,"Ġeasiest":10581,"Ġrespir":10582,"oked":10583,"Ġposted":10584,"Ġintermediate":10585,"Ġsniff":10586,"Ġelaborate":10587,"Ġdrift":10588,"Ġtransition":10589,"return":10590,"Ġproductive":10591,";,;$":10592,"Ġprofound":10593,"Ġcourses":10594,"Ġtravels":10595,"iginal":10596,"Ġparentheses":10597,"Ġtemporary":10598,"years":10599,"Ġcapabilities":10600,"Ġorganizations":10601,"Ġemployment":10602,"Ġestimate":10603,"agery":10604,"ursor":10605,"Ġprinted":10606,"Ġmassage":10607,"Ġcontrols":10608,"Click":10609,"Ġdivision":10610,"Ġimprovement":10611,"Ġcomputers":10612,"ĠTea":10613,"ĠEnjoy":10614,"Ġaffili":10615,"egers":10616,"Ġcandles":10617,"Ġsends":10618,"Ġinjury":10619,"Ġhunger":10620,"Ġarmor":10621,"ĠPerhaps":10622,"Ġscenario":10623,"Ġdesserts":10624,"Ġembark":10625,"Ġhurricane":10626,"Ġignore":10627,"Ġoverwhelmed":10628,"Ġyogurt":10629,"Ġduties":10630,"otype":10631,"ĠLearn":10632,"Ġannouncement":10633,"ĠToronto":10634,"Ġtoothpaste":10635,"Ġtissues":10636,"Ġshrimp":10637,"Ġnodded":10638,"Ġexhausted":10639,"Ġretirement":10640,"Ġdiversity":10641,"ĠCaptain":10642,"Ġinvisible":10643,"ĠFahrenheit":10644,"06":10645,"Gr":10646,"Jack":10647,"Other":10648,"VER":10649,"find":10650,"iar":10651,"log":10652,"ski":10653,"uz":10654,"ËĪ":10655,"inance":10656,"reck":10657,"Ġwolves":10658,"Ġfer":10659,"Ġfrag":10660,"onia":10661,"Ġmal":10662,"Ġpoop":10663,"antern":10664,"arb":10665,"Ġthief":10666,"Ġecho":10667,"owered":10668,"Ġbeast":10669,"Ġhello":10670,"Ġstew":10671,"ador":10672,"kel":10673,"ĠSaf":10674,"ĠSeveral":10675,"ctuary":10676,"oops":10677,"ĠMot":10678,"ĠMermaid":10679,"ĠMercury":10680,"ĠCV":10681,"ĠCy":10682,"ĠCher":10683,"ĠCoca":10684,"ĠCovid":10685,"chy":10686,"riors":10687,"oliosis":10688,"umbs":10689,"ĠBrew":10690,"este":10691,"agus":10692,"agger":10693,"Ġchampion":10694,"Ġsear":10695,"Ġvoid":10696,"ĠDylan":10697,"ĠFem":10698,"ĠFoot":10699,"ĠGulf":10700,"Ġjaw":10701,"Ġjazz":10702,"ĠLarge":10703,"ĠLGB":10704,"ĠLibrary":10705,"Ġintric":10706,"ocol":10707,"ĠNich":10708,"close":10709,"reating":10710,"cipl":10711,"Ġmanip":10712,"Ġspices":10713,"Ġspicy":10714,"Ġrod":10715,"Ġworkplace":10716,"ultane":10717,"ewis":10718,"ĠChampionship":10719,"ĠVer":10720,"Ġawful":10721,"Ġbuff":10722,"Ġinvitation":10723,"Ġloans":10724,"Ġcleans":10725,"Ġcountless":10726,"Ġ[]":10727,"Ġlandmark":10728,"ĠShort":10729,"ĠMaya":10730,"Ġmarkets":10731,"ructive":10732,"Ġmothers":10733,"ĠLeon":10734,"ĠZe":10735,"Ġdesignated":10736,"Ġmeetings":10737,"Ġrhymes":10738,"Ġ1993":10739,"iversary":10740,"Ġlaying":10741,"bitious":10742,"Ġheaven":10743,"umbling":10744,"Ġbottles":10745,"ðŁĴ":10746,"Ġimprovements":10747,"Ġroutes":10748,"Ġstopping":10749,"iosity":10750,"Ġrecognition":10751,"Ġconsumer":10752,"Ġinteractions":10753,"Ġbiography":10754,"Ġcalculus":10755,"Ġexplanations":10756,"Ġdomest":10757,"Ġupdates":10758,"ĠLaunch":10759,"Ġresource":10760,"Ġnecklace":10761,"Ġattending":10762,"ĠSecret":10763,"ĠHarvard":10764,"filled":10765,"ĠInterest":10766,"ĠMagic":10767,"Ġcolonies":10768,"itzer":10769,"ĠMeta":10770,"ĠRonald":10771,"Ġuncertain":10772,"Ġmoisture":10773,"Ġsegment":10774,"Ġdataset":10775,"Ġbesides":10776,"Ġvenom":10777,"Ġcosmic":10778,"ĠStanley":10779,"Ġrapidly":10780,"Ġbeliefs":10781,"Ġcontribute":10782,"klah":10783,"Ġecosystems":10784,"pherd":10785,"Ġemojis":10786,"ĠWyoming":10787,"Ġmathemat":10788,"Ġounces":10789,"melon":10790,"Ġvinegar":10791,"ĠExplore":10792,"ĠPatriots":10793,"ĠBrutus":10794,"ĠLGBT":10795,"Fi":10796,"IR":10797,"Ing":10798,"\\-":10799,"ked":10800,"pired":10801,"school":10802,"vity":10803,"vable":10804,"ĊĊĠĠĠĠĠĠĠĠĠĠĠ":10805,"Ġtu":10806,"Ġod":10807,"Ġomin":10808,"Ġwished":10809,"Ġwrap":10810,"erget":10811,"ouch":10812,"Ġfaint":10813,"only":10814,"eness":10815,"Ġtoll":10816,"Ġdice":10817,"Ġlatter":10818,"Ġnerves":10819,"ĠIke":10820,"Ġbeard":10821,"Ġbeverage":10822,"Ġstaple":10823,"Ġank":10824,"ilit":10825,"ĠCateg":10826,"choice":10827,"riel":10828,"ighters":10829,"ĠHem":10830,"ĠBry":10831,"ĠWitch":10832,"ĠWinter":10833,"ĠPand":10834,"ĠGO":10835,"ĠGoth":10836,"ĠLow":10837,"ĠJer":10838,"ĠJes":10839,"Ġfee":10840,"Ġenzy":10841,"Ġenerget":10842,"arella":10843,"Ġspinal":10844,"endar":10845,"Ġimper":10846,"Ġscrap":10847,"Ġworker":10848,"weed":10849,"Ġresil":10850,"Ġgran":10851,"Ġgrasp":10852,"Ġnoble":10853,"Ġcolony":10854,"ĠVill":10855,"Ġrecon":10856,"Ġrecover":10857,"Ġreliable":10858,"Ġformula":10859,"inson":10860,"bsolutely":10861,"Ġtribe":10862,"Ġassists":10863,"ikes":10864,"Ġcounts":10865,"raction":10866,"oker":10867,"anche":10868,"pson":10869,"aughters":10870,"ounters":10871,"Ġelite":10872,"Ġmemoir":10873,"Ġhardly":10874,"ĠAdams":10875,"ĠJoey":10876,"Ġsuggesting":10877,"Ġeleg":10878,"Ġplanted":10879,"Ġelectro":10880,"Ġ1992":10881,"zzarella":10882,"ĠProte":10883,"ĠProv":10884,"Ġfreshly":10885,"Ġrival":10886,"Ġadventurous":10887,"Ġstrive":10888,"value":10889,"Ġoperate":10890,"Ġdigging":10891,"Ġhosting":10892,"addy":10893,"Ġrandomly":10894,"Ġvariations":10895,"ĠSamantha":10896,"ĠCommission":10897,"Ġimmense":10898,"Ġdepends":10899,"Ġadmit":10900,"Ġcorrectly":10901,"Ġpalace":10902,"Ġtimer":10903,"Ġtaxes":10904,"Ġheroes":10905,"Ġadapted":10906,"Ġghosts":10907,"ĠPoly":10908,"Ġdetective":10909,"Ġprinciples":10910,"Ġexpanded":10911,"ĠSilver":10912,"Ġathletes":10913,"Ġwondered":10914,"âĢįâ":10915,"ĠStephen":10916,"Ġfestival":10917,"Ġannoyed":10918,"Ġadministr":10919,"building":10920,"Ġnegoti":10921,"Ġcotton":10922,"Ġvertical":10923,"ĠNapoleon":10924,"Ġchamber":10925,"Ġmagnetic":10926,"ĠAvengers":10927,"Error":10928,"ĠRabbit":10929,"Ġpicnic":10930,"\"]":10931,"96":10932,"Ben":10933,"Big":10934,"Dav":10935,"Fore":10936,"Green":10937,"Know":10938,"Luc":10939,"Sn":10940,"See":10941,"Whe":10942,"bi":10943,"bour":10944,"burn":10945,"first":10946,"falls":10947,"lifting":10948,"rors":10949,"uction":10950,"zes":10951,"zens":10952,"Ġtennis":10953,"Ġaer":10954,"include":10955,"Ġwaking":10956,"atient":10957,"Ġcure":10958,"Ġcogn":10959,"Ġfame":10960,"Ġbakery":10961,"Ġpants":10962,"Ġpockets":10963,"eder":10964,"Ġindu":10965,"Ġlighter":10966,"omatic":10967,"Ġgn":10968,"eton":10969,"stairs":10970,"acious":10971,"Ġrefe":10972,"Ġreign":10973,"Ġbeating":10974,"ĠTreat":10975,"Ġonion":10976,"separ":10977,"rove":10978,"igers":10979,"ĠSweet":10980,"ĠAge":10981,"Ġaspect":10982,"umer":10983,"ĠHT":10984,"Ġneat":10985,"ĠWales":10986,"uno":10987,"ĠPine":10988,"ĠProp":10989,"ĠDom":10990,"ĠFish":10991,"Ġproced":10992,"Ġsod":10993,"ĠGround":10994,"Ġherb":10995,"Ġjury":10996,"Ġjeal":10997,"Ġsufficient":10998,"Ġlend":10999,"Ġintr":11000,"ĠJam":11001,"Ġfees":11002,"Ġfever":11003,"izable":11004,"early":11005,"Ġspare":11006,"ĠKong":11007,"ĠStill":11008,"Ġscoop":11009,"Ġdispos":11010,"Ġsmiling":11011,"obi":11012,"Ġrecall":11013,"Ġcharming":11014,"othy":11015,"issa":11016,"Ġcarbs":11017,"Ġindeed":11018,"Ġmonitor":11019,"ĠWeek":11020,"Ġtrivia":11021,"ĠAlbert":11022,"Ġminimal":11023,"Ġsimultane":11024,"Ġclassical":11025,"Ġboil":11026,"hoe":11027,"ĠTherefore":11028,"brush":11029,"engers":11030,"Ġ85":11031,"ĠAncient":11032,"ucose":11033,"ĠAdult":11034,"Ġedition":11035,"Ġwaist":11036,"ĠArts":11037,"Weak":11038,"Week":11039,"Ġoriginated":11040,"Ġgrains":11041,"Ġcolleagues":11042,"iversity":11043,"Ġdestinations":11044,"Ġfairies":11045,"Ġ</":11046,"ĠEnvironment":11047,"Ġargue":11048,"Ġspeaks":11049,"such":11050,"Ġsoldier":11051,"ĠCommittee":11052,"Ġdecorations":11053,"Ġtails":11054,"ĠIslands":11055,"Donald":11056,"ĠCountry":11057,"Review":11058,"ĠPerform":11059,"Ġdefinition":11060,"Ġsubstant":11061,"ĠHawaiian":11062,"Ġpools":11063,"Ġcruel":11064,"Ġpeanuts":11065,"islav":11066,"Ġspinach":11067,"ĠInternet":11068,"Ġvocabulary":11069,"Ġmentions":11070,"Ġmoistur":11071,"Ġdatab":11072,"Ġcherry":11073,"Ġabsorb":11074,"Ġbeside":11075,"ĠNetflix":11076,"birds":11077,"Ġdiagnosed":11078,"Ġvessels":11079,"ĠKhan":11080,"Ġobtained":11081,"Ġprofessionals":11082,"ĠHarrison":11083,"Ġgorgeous":11084,"Ġcheeks":11085,"Ġtablespoons":11086,"Ġcounsel":11087,"ĠVictoria":11088,"ĠScotland":11089,"Ġridiculous":11090,"ĠGrammy":11091,"ĠEducation":11092,"ĠTikTok":11093,"ĠAdministration":11094,"klahoma":11095,"Ġenergetic":11096,"Ġjealous":11097,"43":11098,"74":11099,"Bel":11100,"HL":11101,"Max":11102,"Never":11103,"PR":11104,"Pol":11105,"QU":11106,"Under":11107,"Woman":11108,"[]":11109,"cue":11110,"create":11111,"hab":11112,"iago":11113,"rum":11114,"za":11115,"itus":11116,"Ġfart":11117,"Ġmerg":11118,"anke":11119,"Ġtopped":11120,"Ġtoler":11121,"Ġdies":11122,"Ġdwell":11123,"Ġinev":11124,"Ġhats":11125,"Ġgut":11126,"ĠID":11127,"eterm":11128,"stick":11129,"Ġstability":11130,"Ġsturd":11131,"urora":11132,"ĠAlfred":11133,"Ġwhims":11134,"ĠCass":11135,"ĠCNN":11136,"ighth":11137,"ĠHappy":11138,"ĠBrian":11139,"ulum":11140,"ĠWizard":11141,"ĠWatson":11142,"aga":11143,"agle":11144,"ĠPick":11145,"Ġchronic":11146,"Ġcanal":11147,"emed":11148,"oples":11149,"abs":11150,"ĠDiv":11151,"Ġmyst":11152,"Ġdealing":11153,"ardo":11154,"ĠRun":11155,"ĠRod":11156,"ĠLisa":11157,"Ġgoat":11158,"Ġgodd":11159,"avir":11160,"Ġspray":11161,"aux":11162,"Ġcomposition":11163,"Ġimagery":11164,"Ġsculpt":11165,"Ġcontrolled":11166,"ittens":11167,"Ġ37":11168,"Ġamuse":11169,"Ġambitious":11170,"Ġcolumns":11171,"Ġraising":11172,"Ġ44":11173,"ĠUni":11174,"Ġhighway":11175,"Ġsyrup":11176,"Ġhanded":11177,"ĠAlong":11178,"Ġinsult":11179,"Ġprovider":11180,"ucked":11181,"Ġmetap":11182,"Ġpresents":11183,"Ġcounting":11184,"Ġbush":11185,"Ġbushes":11186,"Ġswam":11187,"Ġsnakes":11188,"Ġdistingu":11189,"Ġ79":11190,"ĠAdventure":11191,"Ġcommunic":11192,"century":11193,"Ġprocessing":11194,"Ġtempt":11195,"ĠWithin":11196,"Ġpracticing":11197,"Ġcontainers":11198,"Ġreasonable":11199,"Ġversus":11200,"Ġstriking":11201,"Ġcircul":11202,"ĠQuest":11203,"Ġarrival":11204,"ĠJustin":11205,"Ġtournament":11206,"Ġ1986":11207,"Ġdressing":11208,"Ġlabels":11209,"Ġruling":11210,"Ġpreventing":11211,"ĠDrink":11212,"define":11213,"Ġinterviews":11214,"Ġthrows":11215,"Ġrepresented":11216,"Ġrepresentative":11217,"Ġglobally":11218,"ĠArea":11219,"Ġengineering":11220,"ribution":11221,"Ġcoastal":11222,"Ġsorted":11223,"Ġearliest":11224,"Ġreactions":11225,"Ġsprink":11226,"Ġpandas":11227,"ĠCharlotte":11228,"ĠAustralian":11229,"rastructure":11230,"Ġslept":11231,"ĠMarketing":11232,"Ġexpertise":11233,"Ġnutritious":11234,"Ġrenov":11235,"Ġpyramid":11236,"Ġrevenue":11237,"ĠBetter":11238,"Ġprecise":11239,"ĠPicture":11240,"Ġporch":11241,"ĠKentucky":11242,"Ġdolphin":11243,"Ġancestors":11244,"âĹı":11245,"Ġinhabitants":11246,"ĠDIY":11247,"Ġpolicies":11248,"Ġtobacco":11249,"Ġgoddess":11250,"57":11251,"93":11252,"Box":11253,"EF":11254,"Head":11255,"Life":11256,"Mark":11257,"Next":11258,"UL":11259,"XX":11260,"front":11261,"ja":11262,"lock":11263,"oise":11264,"ooms":11265,"pse":11266,"Ġtatt":11267,"Ġtones":11268,"Ġtube":11269,"Ġawe":11270,"Ġsalsa":11271,"Ġward":11272,"eria":11273,"Ġcudd":11274,"Ġbats":11275,"Ġbuddy":11276,"orient":11277,"Ġmim":11278,"Ġdrain":11279,"Ġdump":11280,"Ġdairy":11281,"Ġhorm":11282,"aline":11283,"Ġlid":11284,"icians":11285,"Ġgrief":11286,"ĠTrain":11287,"Ġheights":11288,"Ġstake":11289,"Ġwhisk":11290,"ĠMA":11291,"ĠMajor":11292,"ĠCro":11293,"ĠCDC":11294,"ĠHoo":11295,"ĠBell":11296,"Ġmelt":11297,"ĠPast":11298,"Ġexh":11299,"Ġworms":11300,"Ġvoters":11301,"Ġkit":11302,"abled":11303,"ĠDue":11304,"ĠDuke":11305,"ĠFact":11306,"Ġlip":11307,"akam":11308,"ĠRand":11309,"ĠEp":11310,"rylic":11311,"Ġteaches":11312,"eping":11313,"ĠĊĠĠĠĠ":11314,"Ġclut":11315,"Ġusage":11316,"assium":11317,"active":11318,"aug":11319,"Ġscenery":11320,"Ġblast":11321,"nell":11322,"Ġcontributed":11323,"Ġagencies":11324,"Ġprev":11325,"Ġwherever":11326,"Ġcolour":11327,"ĠVers":11328,"Ġtragic":11329,"Ġgoodness":11330,"Ġ42":11331,"Ġawa":11332,"Ġfounder":11333,"ĠUnlike":11334,"Ġsyll":11335,"Ġhandling":11336,"Ġinsul":11337,"Ġnightmare":11338,"Ġeval":11339,"lessness":11340,"Ġpossibilities":11341,"ĠDevelop":11342,"Ġsalary":11343,"ports":11344,"Ġbeds":11345,"Ġbedtime":11346,"annels":11347,"ĠExper":11348,"Ġelsewhere":11349,"Ġencounters":11350,"Ġperformances":11351,"Ġexpecting":11352,"Ġcuts":11353,"Ġgovernor":11354,"Ġcelebrity":11355,"Ġphotograph":11356,"Ġinspiring":11357,"Ġabsolute":11358,"Ġhostile":11359,"Ġattractive":11360,"Ġaccepts":11361,"regular":11362,"Ġexplores":11363,"Ġradius":11364,"Ã©mon":11365,"ĠAustin":11366,"Ġterrain":11367,"Ġdisplayed":11368,"Ġrelaxed":11369,"Ġcredited":11370,"Ġteenagers":11371,"faction":11372,"uka":11373,"ĠClean":11374,"Ġmicrow":11375,"Ġastronomers":11376,"Ġreaction":11377,"!!!":11378,"ĠRocky":11379,"Ġverte":11380,"ĠFranklin":11381,"Ġsequel":11382,"ĠBurger":11383,"Ġmerch":11384,"country":11385,"ĠBetween":11386,"ĠPlanet":11387,"writing":11388,"Ġfrosting":11389,"ĠElectric":11390,"ĠDevil":11391,"ĠDutch":11392,"Ġthoroughly":11393,"Ġtacos":11394,"Ġpromotional":11395,"Ġsurvivors":11396,"ĠMicrosoft":11397,"ĠPokÃ©mon":11398,"Ġindoors":11399,"Ġominous":11400,"54":11401,"Ant":11402,"BO":11403,"Cong":11404,"Day":11405,"EC":11406,"Geor":11407,"Harry":11408,"Little":11409,"Michael":11410,"NP":11411,"Sec":11412,"Year":11413,"bra":11414,"bread":11415,"dig":11416,"frame":11417,"gement":11418,"mod":11419,"pig":11420,"tan":11421,"Ġtill":11422,"Ġaims":11423,"rection":11424,"Ġsaves":11425,"Ġcable":11426,"Ġbust":11427,"Ġbachelor":11428,"oning":11429,"Ġmature":11430,"Ġpound":11431,"ano":11432,"edIn":11433,"Ġhilar":11434,"Ġlob":11435,"ĠIron":11436,"eting":11437,"idy":11438,"idst":11439,"Ġstumbled":11440,"amation":11441,"seen":11442,"imb":11443,"ĠSi":11444,"ĠSho":11445,"ĠAh":11446,"ĠMand":11447,"ĠCooper":11448,"ĠTheatre":11449,"Ġwears":11450,"ĠHa":11451,"ĠHard":11452,"ĠBag":11453,"Ġshades":11454,"ulously":11455,"estial":11456,"ĠWrit":11457,"anted":11458,"ĠPC":11459,"ĠPic":11460,"ĠPers":11461,"ĠProm":11462,"Ġchin":11463,"Ġchances":11464,"orted":11465,"ĠDor":11466,"ĠDie":11467,"ĠDick":11468,"ĠDennis":11469,"ntil":11470,"ĠFu":11471,"ĠFest":11472,"Ġprosecut":11473,"ĠGay":11474,"ĠGun":11475,"ĠRP":11476,"ĠRos":11477,"ĠEddie":11478,"ĠEinstein":11479,"ĠLiving":11480,"Ġintegers":11481,"ĠNon":11482,"ĠNote":11483,"Ġknee":11484,"ĠThus":11485,"cled":11486,"Ġmanaging":11487,"Ġpose":11488,"ĠYanke":11489,"ĠURL":11490,"hattan":11491,"apor":11492,"apore":11493,"Ġcompost":11494,"ĠStyle":11495,"ĠStraw":11496,"Ġblocks":11497,"Ġspelling":11498,"ountered":11499,"ĠChange":11500,"ĠChannel":11501,"ĠViet":11502,"Ġartwork":11503,"Ġarticles":11504,"oths":11505,"Ġ56":11506,"Ġrelatives":11507,"Ġcarn":11508,"Ġacne":11509,"cription":11510,"Ġentreprene":11511,"Ġparas":11512,"Ġexplored":11513,"Ġdifferently":11514,"covery":11515,"Ġregulations":11516,"Ġheadphones":11517,"hopper":11518,"Ġmighty":11519,"oval":11520,"Ġposting":11521,"Ġswear":11522,"Ġhover":11523,"Ġsignature":11524,"ĠShould":11525,"atted":11526,"ĠAdv":11527,"ĠDeep":11528,"ushi":11529,"ertainly":11530,"Ġbulk":11531,"Ġtrem":11532,"Ġtreas":11533,"shire":11534,"ĠBridge":11535,"zzle":11536,"Ġdreamed":11537,"Ġballoon":11538,"ĠHeritage":11539,"Ġbasically":11540,"Ġequally":11541,"Ġequival":11542,"Ġsixth":11543,"Ġobjective":11544,"Ġantiox":11545,"ĠNeed":11546,"ĠRober":11547,"ourage":11548,"Ġobsc":11549,"Ġindustries":11550,"arciss":11551,"Ġdetermination":11552,"Ġtracking":11553,"roller":11554,"Ġsouls":11555,"Ġmidnight":11556,"Ġparticipating":11557,"Ġbelongs":11558,"Ġbelonged":11559,"Black":11560,"Ġstretched":11561,"Ġdiscoveries":11562,"ĠPolice":11563,"Ġstrawberry":11564,"Nothing":11565,"ĠFeel":11566,"ĠJews":11567,"Ġdistracted":11568,"Ġlifted":11569,"Ġinstruments":11570,"Ġjacket":11571,"Ġtrigger":11572,"Ġdigestive":11573,"ĠSingapore":11574,"ĠBusiness":11575,"Ġraccoon":11576,"Ġmonarchy":11577,"Ġpermanent":11578,"Ġintellectual":11579,"Ġaccompan":11580,"Ġbattles":11581,"Ġcasserole":11582,"Ġunnecessary":11583,"Ġrespiratory":11584,"ĠHTML":11585,"Ġsodium":11586,"Ġantioxid":11587,"59":11588,"61":11589,"Call":11590,"MO":11591,"MS":11592,"Python":11593,"Ro":11594,"Size":11595,"Sorry":11596,"TX":11597,"UN":11598,"`.":11599,"after":11600,"affe":11601,"bling":11602,"cific":11603,"dict":11604,"half":11605,"km":11606,"kish":11607,"lar":11608,"lower":11609,"mate":11610,"overs":11611,"socket":11612,"ĠÃ":11613,"Ŀ¤":11614,"erk":11615,"erie":11616,"atus":11617,"Ġcact":11618,"Ġcub":11619,"Ġcakes":11620,"itize":11621,"Ġfetch":11622,"Ġbits":11623,"Ġbump":11624,"Ġpd":11625,"Ġpenc":11626,"Ġtoe":11627,"Ġdrew":11628,"Ġdiced":11629,"Ġhier":11630,"Ġlens":11631,"Ġthirsty":11632,"omon":11633,"leting":11634,"etah":11635,"Ġstare":11636,"Ġstove":11637,"Ġstadium":11638,"ĠSide":11639,"ĠSalt":11640,"ĠMD":11641,"ĠMale":11642,"ĠMaple":11643,"olving":11644,"ĠHR":11645,"ĠBoo":11646,"ĠBesides":11647,"Ġshines":11648,"Ġshining":11649,"Ġshallow":11650,"Ġneural":11651,"third":11652,"ĠPract":11653,"opes":11654,"Ġplum":11655,"ĠDi":11656,"ĠDiana":11657,"ĠFal":11658,"ĠRef":11659,"ĠEventually":11660,"Ġsuicide":11661,"gends":11662,"Ġleap":11663,"ĠNakam":11664,"ivia":11665,"Ġclown":11666,"ĠOklahoma":11667,"cling":11668,"actic":11669,"Ġmane":11670,"Ġmans":11671,"ichain":11672,"Ġunfor":11673,"Ġsausage":11674,"ĠStream":11675,"Ġflights":11676,"ccoli":11677,"Ġbrace":11678,"Ġbrushing":11679,"Ġsmiles":11680,"ensation":11681,"Ġwhereas":11682,"ĠVit":11683,"Ġserv":11684,"avender":11685,"Ġsometime":11686,"Ġaccent":11687,"Ġindigenous":11688,"Ġhappier":11689,"Ġforming":11690,"Ġguilt":11691,"rama":11692,"ĠBean":11693,"Those":11694,"Ġdeter":11695,"Ġpopcorn":11696,"export":11697,"Ġdrone":11698,"Ġrefuge":11699,"Ġcentre":11700,"Ġdistur":11701,"Ġdistributed":11702,"Ġfunctional":11703,"Ġ95":11704,"ĠLeaf":11705,"ĠBring":11706,"Ġtemples":11707,"Ġseemingly":11708,"Ġviewed":11709,"ĠProject":11710,"ĠProgram":11711,"Ġhandsome":11712,"headed":11713,"Ġcomforting":11714,"Ġamongst":11715,"Ġcelebrating":11716,"ðŁı":11717,"Ġkidney":11718,"Ġproteins":11719,"ĠEdwin":11720,"Ġ1965":11721,"ĠXbox":11722,"Ġgarbage":11723,"Ġpresidential":11724,"Ġmischie":11725,"Ġimmediate":11726,"Ġattacked":11727,"ambur":11728,"Ġconsisting":11729,"ESS":11730,"Ġengineers":11731,"html":11732,"Ġtargeted":11733,"ĠLaure":11734,"Ġlogo":11735,"Ġcrafts":11736,"Ġblankets":11737,"ippers":11738,"Suggest":11739,"Ġloudly":11740,"Ġdedication":11741,"Ġunsure":11742,"Ġspinning":11743,"Ġawarded":11744,"Ġscreaming":11745,"Ġthrilling":11746,"ĠBroad":11747,"Ġexecut":11748,"Ġfolk":11749,"Ġefficiency":11750,"Ġskilled":11751,"Ġvirtually":11752,"Ġsegreg":11753,"Ġrenowned":11754,"Ġgreeted":11755,"Ġallergies":11756,"Ġranked":11757,"Ġstroke":11758,"Ġadministration":11759,"Ġparameter":11760,"Ġtissue":11761,"Ġexhibits":11762,"Ġhesit":11763,"ĠHarris":11764,"Ġerupt":11765,"ĠTechnology":11766,"Ġassumed":11767,"Ġdentist":11768,"Ġdeposits":11769,"ĠFriends":11770,"Ġdisappearance":11771,"ographer":11772,"Ġeliminate":11773,"giene":11774,"Ġinnocent":11775,"ĠSwedish":11776,"ĠFurther":11777,"ĠIndependence":11778,"ĠNatalia":11779,"Ġneutral":11780,"Ġsuburban":11781,"Ġsophistic":11782,"Ġvulner":11783,"Ġpitcher":11784,"islavski":11785,"George":11786,"([":11787,")}":11788,"Bet":11789,"DR":11790,"Food":11791,"Last":11792,"Look":11793,"Looking":11794,"Narr":11795,"Paul":11796,"Val":11797,"Yeah":11798,"cat":11799,"cursor":11800,"dar":11801,"days":11802,"five":11803,"ipt":11804,"law":11805,"math":11806,"ras":11807,"rot":11808,"when":11809,"yers":11810,"Ġtubes":11811,"Ġwound":11812,"Ġwires":11813,"ati":11814,"Ġfog":11815,"Ġbanned":11816,"Ġmall":11817,"Ġdict":11818,"ala":11819,"aser":11820,"Ġthumb":11821,"leans":11822,"etitive":11823,"steps":11824,"Ġrevel":11825,"ĠTa":11826,"Ġheated":11827,"Ġstrand":11828,"amiliar":11829,"imm":11830,"adian":11831,"ĠSay":11832,"ĠAqu":11833,"ĠMosc":11834,"ĠCam":11835,"ĠBern":11836,"ĠBBC":11837,"agles":11838,"ĠPan":11839,"ĠPage":11840,"Ġatomic":11841,"Ġsells":11842,"ighting":11843,"Ġconsec":11844,"Ġwors":11845,"ĠFairy":11846,"ĠRh":11847,"ĠLess":11848,"ĠLooking":11849,"Ġintend":11850,"ocur":11851,"ĠNa":11852,"ĠNic":11853,"ĠNHL":11854,"ĠOak":11855,"ĠOper":11856,"ouses":11857,"oded":11858,"Ġadequ":11859,"uebl":11860,"Ġmanif":11861,"ĠUlt":11862,"ĠKiss":11863,"Ġpeaks":11864,"Ġunp":11865,"Ġunpre":11866,"Ġcompleting":11867,"Ġworksh":11868,"next":11869,"Ġdisag":11870,"Ġdiscipl":11871,"Ġoverth":11872,"Ġreserv":11873,"phia":11874,"eller":11875,"Ġdescent":11876,"ensed":11877,"Ġcharging":11878,"Ġincon":11879,"Ġfoundation":11880,"Ġtriangle":11881,"Ġmines":11882,"Ġextension":11883,"meal":11884,"Ġpreserve":11885,"hole":11886,"ĠSeuss":11887,"Ġhealthcare":11888,"ĊĊĠĊ":11889,"Ġpursuit":11890,"ĠAnne":11891,"Ġdevelops":11892,"Ġdriven":11893,"asket":11894,"Ġcompletion":11895,"Ġopposing":11896,"Ġdesigner":11897,"paragus":11898,"Ġcostumes":11899,"zzy":11900,"Ġencountered":11901,"ĠOrleans":11902,"Ġzones":11903,"Ġhybrid":11904,"Ġspends":11905,"Ġcamps":11906,"ursive":11907,"Ġmodules":11908,"mbre":11909,"cules":11910,"Ġripe":11911,"ĠCarl":11912,"Ġreplacement":11913,"Ġinfrastructure":11914,"Ġgraduation":11915,"Ġdivine":11916,"Ġdifficulties":11917,"Ġobsessed":11918,"ĠAmory":11919,"Ġtours":11920,"Ġpulling":11921,"Ġholidays":11922,"Ġstrengthen":11923,"Ġattracted":11924,"Ġ1977":11925,"ĠEdison":11926,"ĠEmma":11927,"Ġcatchy":11928,"Ġdamaged":11929,"Ġcorners":11930,"Ġreveals":11931,"Share":11932,"Ġaffects":11933,"Ġstuffed":11934,"profit":11935,"Ġtailor":11936,"Ġcrocod":11937,"Ġviolent":11938,"security":11939,"Ġpossession":11940,"Ġcitizen":11941,"ĠAgency":11942,"Ġfifteen":11943,"Ġsuffer":11944,"Ġrabbits":11945,"Ġbowling":11946,"Ġratio":11947,"Provide":11948,"Ġhydrogen":11949,"Ġventure":11950,"Ġlaser":11951,"Ġbonus":11952,"Ġconvenience":11953,"ihu":11954,"Ġcontrolling":11955,"Ġterrifying":11956,"arette":11957,"Ġoptimistic":11958,"Ġfreelance":11959,"ĠMemorial":11960,"ĠLocated":11961,"Ġluxury":11962,"ameron":11963,"Ġexpansion":11964,"Ġcorresponding":11965,"Generate":11966,"avalry":11967,"ĠMachine":11968,"ĠAABB":11969,"minded":11970,"ĠBBQ":11971,"Ingredients":11972,"ĠFestival":11973,"ĠVietnam":11974,"ĠMoscow":11975,"!)":11976,"02":11977,"81":11978,"88":11979,"Absolutely":11980,"Bre":11981,"Back":11982,"Baby":11983,"Eat":11984,"Element":11985,"HD":11986,"OV":11987,"Often":11988,"Ret":11989,"UM":11990,"grossing":11991,"han":11992,"hall":11993,"iang":11994,"low":11995,"mus":11996,"mph":11997,"pical":11998,"powered":11999,"rations":12000,"sur":12001,"var":12002,"vate":12003,"vals":12004,"Ġwarr":12005,"Ġcows":12006,"ithe":12007,"Ġbil":12008,"arse":12009,"Ġink":12010,"Ġinex":12011,"Ġhid":12012,"Ġhug":12013,"omes":12014,"Ġgoose":12015,"ethe":12016,"string":12017,"ĠTogether":12018,"lyph":12019,"Ġhen":12020,"Ġforb":12021,"Ġstains":12022,"igi":12023,"ĠAND":12024,"Ġash":12025,"ĠCock":12026,"raine":12027,"ĠHomer":12028,"ĠBor":12029,"Ġshocked":12030,"ĠWin":12031,"ĠWils":12032,"ĠPR":12033,"ĠPom":12034,"ĠPass":12035,"Ġchannels":12036,"Ġranging":12037,"essim":12038,"elong":12039,"eman":12040,"emaker":12041,"opt":12042,"abama":12043,"Ġplasma":12044,"andra":12045,"ĠGil":12046,"ĠGael":12047,"redict":12048,"Ġherd":12049,"ĠRight":12050,"ĠEle":12051,"Ġoutfit":12052,"mentation":12053,"Ġsheep":12054,"Ġshells":12055,"ods":12056,"asses":12057,"Ġcoverage":12058,"ĠKaren":12059,"Ġcompr":12060,"Ġcompassion":12061,"Ġblade":12062,"Ġnewest":12063,"Ġnewfound":12064,"Ġoverlook":12065,"cca":12066,"Ġoffset":12067,"Ġtwelve":12068,"ruption":12069,"Ġperception":12070,"Ġbride":12071,"Ġbackward":12072,"obs":12073,"ĠViolet":12074,"Ġactively":12075,"Ġmayor":12076,"Ġreminis":12077,"Ġ54":12078,"issed":12079,"issance":12080,"Ġconserv":12081,"Ġcarp":12082,"Ġcarbo":12083,"Ġcarrier":12084,"Ġenters":12085,"Ġentitled":12086,"Ins":12087,"erms":12088,"ĠAli":12089,"Ġsurely":12090,"Ġfinances":12091,"Ġglimp":12092,"price":12093,"Ġcaut":12094,"Ġtexts":12095,"ĠAndrew":12096,"Ġmedication":12097,"Ġmemo":12098,"Ġpositions":12099,"rett":12100,"Ġfreeze":12101,"ĠAdam":12102,"ĠWhit":12103,"Ġediting":12104,"Ġpots":12105,"Ġtraveler":12106,"Ġactivist":12107,"center":12108,"Ġengines":12109,"ĠPrime":12110,"Ġchecks":12111,"Charl":12112,"Ġprints":12113,"Ġdestro":12114,"Ġcooler":12115,"ĠAmong":12116,"ĠChristopher":12117,"Ġaccessories":12118,"Ġcritics":12119,"Ġburger":12120,"Ġpulls":12121,"Ġcardio":12122,"ĠSmart":12123,"Ġacceptance":12124,"Ġsensation":12125,"ĠMcG":12126,"ĠEdgar":12127,"Ġcompanions":12128,"Ġcompete":12129,"ĠNorthwest":12130,"Ġvariables":12131,"Ġfatal":12132,"Ġinputs":12133,"Ġglobe":12134,"ĠGetting":12135,"amboo":12136,"Ġdecorative":12137,"Ġurgent":12138,"Ġreminded":12139,"Ġjuicy":12140,"Ġreflects":12141,"Ġflowing":12142,"ĠImport":12143,"ĠLouisiana":12144,"ĠJulie":12145,"Ġhabitats":12146,"ĠMartian":12147,"Ġdisappointment":12148,"Ġspaceship":12149,"Ġconvicted":12150,"Ġskeleton":12151,"Ġcrystals":12152,"Ġswitching":12153,"Ġobviously":12154,"ĠDragon":12155,"Ġparameters":12156,"ĠPictures":12157,"ĠWalmart":12158,"Ġracial":12159,"ĠDemocratic":12160,"itutional":12161,"Ġmuffins":12162,"Ġcaptivating":12163,"ĠGlobal":12164,"ĠPanthers":12165,"ĠRepresentatives":12166,"Ġsatellite":12167,"ĠLaunchPass":12168,"Ġwhimsical":12169,"Ġglimpse":12170,"033":12171,"53":12172,"AY":12173,"Both":12174,"IP":12175,"Mom":12176,"Sty":12177,"Was":12178,"Welcome":12179,"felt":12180,"hal":12181,"high":12182,"hrig":12183,"jud":12184,"loop":12185,"maker":12186,"noun":12187,"pa":12188,"tains":12189,"Ġain":12190,"Ġaest":12191,"hell":12192,"Ġsorrow":12193,"nda":12194,"itness":12195,"itational":12196,"Ġfires":12197,"Ġfighter":12198,"ori":12199,"Ġmaid":12200,"Ġpaw":12201,"Ġpapers":12202,"Ġpipes":12203,"Ġpiano":12204,"Ġdangers":12205,"Ġhose":12206,"Ġhills":12207,"Ġlava":12208,"Ġthigh":12209,"Ġgal":12210,"sticks":12211,"entials":12212,"otect":12213,"lyn":12214,"idency":12215,"Ġsta":12216,"Ġstem":12217,"Ġstations":12218,"Ġstems":12219,"amas":12220,"sea":12221,"rops":12222,"ura":12223,"verages":12224,"ĠSad":12225,"ĠAud":12226,"ctory":12227,"Ġwhipped":12228,"ĠMu":12229,"ĠMath":12230,"ĠCath":12231,"ĠBul":12232,"ĠBear":12233,"ĠBunny":12234,"Ġshru":12235,"Ġshots":12236,"uli":12237,"Ġneur":12238,"ĠWil":12239,"Ġmere":12240,"ĠPin":12241,"Ġcanine":12242,"essage":12243,"aining":12244,"Ġdozens":12245,"employ":12246,"Ġvice":12247,"Ġplacing":12248,"ĠDV":12249,"Ġliber":12250,"ghan":12251,"uds":12252,"akin":12253,"Ġjet":12254,"ĠEU":12255,"ĠEc":12256,"ĠLewis":12257,"ĠNut":12258,"Ġmozzarella":12259,"ĠJeremy":12260,"mented":12261,"izards":12262,"Ġquar":12263,"ĠKa":12264,"Ġcomponents":12265,"Ġtract":12266,"Ġscare":12267,"Ġdisplays":12268,"Ġnewer":12269,"heddar":12270,"Ġbetray":12271,"gging":12272,"Ġtrave":12273,"bey":12274,"Ġslang":12275,"Ġslower":12276,"Ġrelate":12277,"Ġcaramel":12278,"Ġparalle":12279,"Ġsecured":12280,"Ġhandful":12281,"Ġglac":12282,"Ġglitter":12283,"Ġphosph":12284,"Ġvisa":12285,"Ġpassengers":12286,"Ġclassification":12287,"amps":12288,"Ġlasting":12289,"Ġlasted":12290,"ounge":12291,"ĠSpice":12292,"Ġreflection":12293,"Ġleftover":12294,"Ġdevelopers":12295,"Ġdiets":12296,"Ġdrill":12297,"comb":12298,"comes":12299,"ĠMayor":12300,"Ġsuggestion":12301,"ĠAthens":12302,"Ġtravelers":12303,"2019":12304,"Ġimportantly":12305,"conf":12306,"Ġcalming":12307,"Ġcalcium":12308,"Ġsupports":12309,"Ġsupportive":12310,"Ġcoloring":12311,"Ġprocessed":12312,"Ġcountryside":12313,"Chocolate":12314,"Ġanniversary":12315,"ĠDonald":12316,"Ġfreshwater":12317,"Ġgrades":12318,"Ġcircles":12319,"Ġfemin":12320,"ĠManhattan":12321,"Ġconnecting":12322,"Ġhosted":12323,"Ġescaped":12324,"Ġ1989":12325,"Ġdiscussion":12326,"Ġmagician":12327,"ĠEmploy":12328,"Ġcompetitors":12329,"Ġpurchasing":12330,"Ġsuspected":12331,"ĠSwiss":12332,"Ġrevealing":12333,"Ġclaiming":12334,"Ġpleased":12335,"icycle":12336,"Ġmiser":12337,"Ġdeclined":12338,"Ġmelting":12339,"Ġconsistently":12340,"proof":12341,"Ġcrowds":12342,"Ġirre":12343,"ĠSecurity":12344,"Ġsymbols":12345,"Ġscenic":12346,"Ġstretching":12347,"Ġnetworks":12348,"Ġcereal":12349,"Ġdenied":12350,"Ġprosper":12351,"ĠSpringer":12352,"Ġthrilled":12353,"Ġphotosynt":12354,"ĠSatoshi":12355,"Ġjudgment":12356,"Ġpillow":12357,"Ġgods":12358,"ĠHamilton":12359,"ĠÂ·":12360,"Ġsatisfied":12361,"Ġprecision":12362,"Ġunlock":12363,"Ġrepeatedly":12364,"Ġsubscribers":12365,"ĠPhiladel":12366,"Ġrespectively":12367,"ĠOwl":12368,"++)":12369,"ouston":12370,"ĠIrish":12371,"ĠSquare":12372,"Ġsanctuary":12373,"Ġobservations":12374,"Ġalgorithm":12375,"Ġmolecules":12376,"Ġguarantee":12377,"Ġlizards":12378,"hhs":12379,"Ġcelestial":12380,"Ġdynamic":12381,"Ġconsciousness":12382,"ĠWordPress":12383,"Ġrefrigerator":12384,"oneliness":12385,"Ġbridges":12386,"ĠLGBTQ":12387,"separated":12388,"Ŀ¤ï¸ı":12389,"ihuah":12390,"ĠWilson":12391,"ĠPhiladelphia":12392,":\",":12393,"AC":12394,"Brief":12395,"Hy":12396,"Happy":12397,"Id":12398,"King":12399,"Key":12400,"OB":12401,"Queen":12402,"Ref":12403,"SL":12404,"Sy":12405,"UT":12406,"bet":12407,"cakes":12408,"dis":12409,"dep":12410,"deg":12411,"fried":12412,"jamin":12413,"jection":12414,"ln":12415,"lad":12416,"mn":12417,"master":12418,"oat":12419,"oard":12420,"pit":12421,"vous":12422,"void":12423,"vsky":12424,"wers":12425,"watch":12426,"western":12427,"Ġicy":12428,"Ġaqu":12429,"init":12430,"income":12431,"rene":12432,"Ġome":12433,"Ġwanna":12434,"Ġcic":12435,"ouver":12436,"itals":12437,"Ġfav":12438,"Ġfade":12439,"Ġbom":12440,"Ġpoo":12441,"Ġpessim":12442,"Ġdug":12443,"Ġdrought":12444,"Ġhay":12445,"alache":12446,"omfort":12447,"Ġgum":12448,"Ġginger":12449,"Ġgiants":12450,"Ġreun":12451,"Ġreass":12452,"Ġreform":12453,"idel":12454,"Ġstiff":12455,"Ġugly":12456,"ĠSon":12457,"ĠSyl":12458,"ĠSugar":12459,"ĠActor":12460,"ĠMoss":12461,"ĠMai":12462,"ĠCold":12463,"chron":12464,"rape":12465,"illed":12466,"ĠBang":12467,"ĠBuff":12468,"Ġshipping":12469,"ĠWong":12470,"ĠWright":12471,"unky":12472,"ĠPack":12473,"ĠPink":12474,"ĠPitt":12475,"ĠParm":12476,"ĠPsych":12477,"Ġseals":12478,"Ġcans":12479,"Ġrhin":12480,"ĠDungeons":12481,"Ġproport":12482,"Ġdeploy":12483,"Ġsoy":12484,"redit":12485,"Ġheritage":12486,"ĠRay":12487,"ĠRio":12488,"ĠLenn":12489,"ĠLunar":12490,"ĠLuna":12491,"ĠNature":12492,"ĠNels":12493,"iza":12494,"Ġadorable":12495,"actions":12496,"cia":12497,"Ġspice":12498,"ĠUN":12499,"Ġpeoples":12500,"Ġcompos":12501,"ĠStir":12502,"Ġscales":12503,"Ġscoring":12504,"never":12505,"Ġoverview":12506,"Ġprince":12507,"Ġgrants":12508,"Ġlisting":12509,"ubin":12510,"Ġ1930":12511,"Ġpreferences":12512,"Ġimpression":12513,"ritch":12514,"ĠVanc":12515,"ĠView":12516,"Ġrecovered":12517,"Ġcommem":12518,"Ġwatering":12519,"Ġacrylic":12520,"ĠWeather":12521,"inspired":12522,"Ġinsights":12523,"Ġrepur":12524,"Ġapocaly":12525,"Ġcuriosity":12526,"Ġpointing":12527,"Ġextinct":12528,"Ġpopulations":12529,"azi":12530,"ovies":12531,"Ġmilest":12532,"Ġdeliber":12533,"ĠAnth":12534,"Ġdiscomfort":12535,"ĠMarco":12536,"ĠMayo":12537,"ĠDean":12538,"Ġsalty":12539,"ĠBlood":12540,"cony":12541,"Ġdepict":12542,"Ġrockets":12543,"ĠExpress":12544,"Ġpicks":12545,"Ġreporting":12546,"Chapter":12547,"Ġstrongest":12548,"Ġbasics":12549,"Ġboxing":12550,"Ġcombines":12551,"tainment":12552,"Ġsandy":12553,"Ġprotective":12554,"Ġconversational":12555,"ĠNev":12556,"ĠConf":12557,"valid":12558,"ĠPhoto":12559,"Ġcriteria":12560,"Ġfails":12561,"Ġ1985":12562,"ĠCole":12563,"ĠEns":12564,"Ġarguing":12565,"ographical":12566,"Ġimpacts":12567,"Ġtelephone":12568,"Ġcollapsed":12569,"Ġstreams":12570,"Ġpige":12571,"Ġannouncing":12572,"Ġinventory":12573,"Ġaston":12574,"Ġvibe":12575,"2001":12576,"Ġassociate":12577,"Ġappreciated":12578,"Ġinteractive":12579,"Ġgaining":12580,"amini":12581,"Ġmeaningful":12582,"Ġblew":12583,"Ġfloors":12584,"Ġbuds":12585,"Ġfrequency":12586,"Ġlinks":12587,"ĠPatrick":12588,"Ġshelves":12589,"Ġownership":12590,"Ġdiscovering":12591,"ĠStudio":12592,"ĠSimply":12593,"Ġpirates":12594,"Ġpremise":12595,"Ġprinciple":12596,"ĠApalache":12597,"Ġdelightful":12598,"ĠTravel":12599,"Ġfoxes":12600,"winning":12601,"Ġinspirational":12602,"Ġodds":12603,"Ġhypot":12604,"Ġelevator":12605,"Ġowls":12606,"Ġuniversity":12607,"Ġgreeting":12608,"Ġsharks":12609,"ĠADHD":12610,"writer":12611,"Ġhorizont":12612,"Ġsubmit":12613,"ĠGirls":12614,"ĠDirector":12615,"Ġcheerful":12616,"Ġtutor":12617,"Ġunclear":12618,"ĠSolomon":12619,"Ġwhispered":12620,"ĠKatie":12621,"Ġanthrop":12622,"Color":12623,"Ġfascinating":12624,"Ġconverted":12625,"Ġoblig":12626,"ĠSiberia":12627,"Ġjeans":12628,"Ġagricultural":12629,"Ġcoworkers":12630,"ĠMichelle":12631,"ĠHolland":12632,"Ġdeparture":12633,"Ġexpedition":12634,"Ġreptiles":12635,"Ġstereoty":12636,"ĠSafety":12637,"Ġsimultaneously":12638,"Ġsturdy":12639,"ĠUniverse":12640,"Ġinsulin":12641,"ĠDiego":12642,"ĠVancouver":12643,"((":12644,"Ge":12645,"Great":12646,"James":12647,"Op":12648,"Put":12649,"Ser":12650,"Sum":12651,"Sun":12652,"Santis":12653,"Scientists":12654,"VP":12655,"eat":12656,"fiction":12657,"group":12658,"iel":12659,"json":12660,"lon":12661,"phew":12662,"sight":12663,"squ":12664,"ĊĊĠĠĠĠĠĠĠĠĠĠĠĠĠĠĠ":12665,"Ġsushi":12666,"Ġcoop":12667,"itutes":12668,"Ġmint":12669,"Ġmashed":12670,"Ġmermaid":12671,"Ġpies":12672,"aro":12673,"Ġhack":12674,"Ġhood":12675,"also":12676,"Ġlime":12677,"Ġthy":12678,"Ġnit":12679,"Ġbeats":12680,"ĠTen":12681,"ĠTable":12682,"ĠTzu":12683,"aya":12684,"idget":12685,"amine":12686,"season":12687,"url":12688,"verty":12689,"ilo":12690,"ilant":12691,"ĠCry":12692,"ĠHerm":12693,"ĠHouston":12694,"ĠBCE":12695,"Ġshifting":12696,"eston":12697,"Ġnephew":12698,"agged":12699,"Ġorbits":12700,"ĠPra":12701,"Ġricotta":12702,"esses":12703,"Ġconce":12704,"Ġalright":12705,"allas":12706,"ĠDC":12707,"ĠDays":12708,"ĠFine":12709,"udge":12710,"ĠGri":12711,"ĠGord":12712,"ĠGiants":12713,"ĠRen":12714,"ĠRice":12715,"ĠRachel":12716,"Ġjavascript":12717,"ĠEat":12718,"Ġ()":12719,"ĠLabor":12720,"ocyan":12721,"Ġallies":12722,"feld":12723,"ĠON":12724,"ĠOd":12725,"ĠThai":12726,"clamation":12727,"Ġpoverty":12728,"Ġspiders":12729,"aund":12730,"ĠHell":12731,"Ġsafer":12732,"Ġscents":12733,"Ġspells":12734,"interest":12735,"Ġresidence":12736,"phant":12737,"angled":12738,"Ġbrow":12739,"ĠChap":12740,"Ġfoster":12741,"Ġundert":12742,"oster":12743,"Ġraining":12744,"Ġcheaper":12745,"Ġslim":12746,"Ġretrieve":12747,"Ġsetup":12748,"Ġmonk":12749,"ĠAlabama":12750,"Ġglucose":12751,"Ġapology":12752,"Ġcurves":12753,"Ġbrewing":12754,"Ġassume":12755,"ĠCanadian":12756,"Ġswallow":12757,"Ġ1800":12758,"Ġhollow":12759,"Ġ2024":12760,"Ġairlines":12761,"Ġpromised":12762,"ĠArgent":12763,"ĠArctic":12764,"grad":12765,"ĠEngine":12766,"Ġrocky":12767,"ĠScar":12768,"rolog":12769,"Ġ1994":12770,"Ġkeyboard":12771,"Only":12772,"Ġlimits":12773,"ĠTracy":12774,"Ġsteam":12775,"Ġpositively":12776,"Ġseasonal":12777,"Ġintroducing":12778,"Ġweights":12779,"Ġantib":12780,"ĠNeg":12781,"Ġcooling":12782,"Ġcloset":12783,"Ġsilica":12784,"Ġtouches":12785,"ummies":12786,"ĠManagement":12787,"Ġ1982":12788,"Ġlifelong":12789,"Ġcardboard":12790,"Ġaccepting":12791,"Ġsensory":12792,"ĠGuide":12793,"Ġimagin":12794,"Ġhonored":12795,"Ġ1968":12796,"Ġdietary":12797,"Ġhoped":12798,"Ġbiological":12799,"Ġthreats":12800,"ĠOverall":12801,"Ġstorms":12802,"Ġfacilities":12803,"Ġroller":12804,"Ġcrowded":12805,"Ġmillenn":12806,"trans":12807,"Ġpalm":12808,"Ġforgive":12809,"ĠImper":12810,"Ġstretches":12811,"Ġbillions":12812,"ĠRepublicans":12813,"Ġ1959":12814,"Ġnarrator":12815,"alaxies":12816,"ĠBelow":12817,"Ġsamples":12818,"Ġcampaigns":12819,"ĠIncre":12820,"ĠKnock":12821,"Ġsuspicious":12822,"Ġnomination":12823,"Ġnominated":12824,"quarters":12825,"Ġrestrictions":12826,"Ġhaunting":12827,"Ġscholar":12828,"Ġmushroom":12829,"Ġflashlight":12830,"ĠModern":12831,"Ġlegendary":12832,"Ġutilize":12833,"Ġtossed":12834,"Ġconvincing":12835,"ĠGeraldine":12836,"ĠChatbot":12837,"Ġpancakes":12838,"ĠJournal":12839,"Ġimpeachment":12840,"ratulations":12841,"ĠEarly":12842,"Ġmurdered":12843,"ĠMargaret":12844,"Ġwhistle":12845,"Ġshredded":12846,"Ġpuppies":12847,"Ġtherm":12848,"Ġvampire":12849,"ĠPandas":12850,"Ġcognitive":12851,"Ġmetaphor":12852,"Ġinconven":12853,"Style":12854,"64":12855,"91":12856,"Ah":12857,"Bill":12858,"Book":12859,"Kn":12860,"Mag":12861,"OS":12862,"SH":12863,"Son":12864,"Sal":12865,"aire":12866,"dit":12867,"names":12868,"pine":12869,"push":12870,"uously":12871,"vised":12872,"yere":12873,"Ġtin":12874,"Ġtales":12875,"iners":12876,"Ġsings":12877,"Ġwax":12878,"Ġcrop":12879,"Ġcuc":12880,"ituri":12881,"Ġfib":12882,"Ġfram":12883,"Ġbubble":12884,"Ġbamboo":12885,"orp":12886,"Ġtomb":12887,"aron":12888,"Ġdaughters":12889,"Ġhambur":12890,"Ġlush":12891,"lly":12892,"Ġna":12893,"Ġgalaxies":12894,"stal":12895,"entive":12896,"ĠTown":12897,"ĠTerry":12898,"ido":12899,"Ġstalk":12900,"igious":12901,"irubin":12902,"urrection":12903,"ĠAmy":12904,"ĠAurora":12905,"ctica":12906,"Ġwhit":12907,"ĠMust":12908,"ĠCore":12909,"ĠTheod":12910,"ĠHills":12911,"Ġshaking":12912,"Ġshuff":12913,"ĠWon":12914,"ĠPuebl":12915,"Ġseal":12916,"Ġcanyon":12917,"Ġranges":12918,"Ġexit":12919,"Ġexclaimed":12920,"Ġcongr":12921,"ureau":12922,"opic":12923,"Ġkicked":12924,"ĠDan":12925,"ĠDion":12926,"ĠDew":12927,"ĠDituri":12928,"Ġproven":12929,"Ġproved":12930,"ĠGhost":12931,"ĠRam":12932,"ideo":12933,"Ġjumps":12934,"ĠEnt":12935,"ĠEss":12936,"Ġsup":12937,"ĠLes":12938,"ĠLab":12939,"ĠLine":12940,"ĠLinda":12941,"ocated":12942,"ĠJem":12943,"plate":12944,"Ġclue":12945,"ĠOwn":12946,"Ġknight":12947,"Ġknocked":12948,"reated":12949,"acted":12950,"Ġspa":12951,"Ġspaghetti":12952,"oglyph":12953,"ĠKnight":12954,"ĠString":12955,"Ġscope":12956,"ĠIns":12957,"Ġflames":12958,"Ġflesh":12959,"Ġoverhead":12960,"inks":12961,"Ġreson":12962,"ellar":12963,"rencies":12964,"gettable":12965,"Ġattach":12966,"Ġende":12967,"Ġpersonally":12968,"Ġcrashing":12969,"Ġstray":12970,"cedented":12971,"Ġinstruction":12972,"Ġcurve":12973,"otto":12974,"uckle":12975,"flower":12976,"Ġswift":12977,"Ġsoundtrack":12978,"Ġautobi":12979,"Ġvalley":12980,"Ġdistribution":12981,"comed":12982,"Ġedible":12983,"ĠForce":12984,"Ġlegally":12985,"Ġbedding":12986,"Ġexcuse":12987,"Ġdefault":12988,"annock":12989,"Ġdetailing":12990,"Ġconstitution":12991,"Ġinvesting":12992,"Ġinvestments":12993,"Ġpriest":12994,"onyms":12995,"ĠIndust":12996,"scale":12997,"Ġsquash":12998,"Ġsquares":12999,"Ġdestiny":13000,"Ġprotects":13001,"Ġversatile":13002,"Ġreplacing":13003,"Ġstrips":13004,"Ġcasting":13005,"Ġbrightly":13006,"ĠJustice":13007,"Ġcritically":13008,"ĠManager":13009,"ĠCharacter":13010,"Ġ1983":13011,"Ġ1984":13012,"Alice":13013,"ĠGrace":13014,"Ġpurchases":13015,"Ġspreading":13016,"Ġcamel":13017,"Ġrequesting":13018,"Ġstrengths":13019,"Ġvacc":13020,"position":13021,"Ġtroubles":13022,"Ġruined":13023,"Ġlosses":13024,"Ġimmers":13025,"Ġbiology":13026,"ĠMinister":13027,"Ġsticky":13028,"Ġarrang":13029,"Ġcredits":13030,"Ġbrains":13031,"Ġcircular":13032,"Ġdocumentary":13033,"Ġfacial":13034,"Ġresponding":13035,"Ġtrusted":13036,"obbling":13037,"Ġcowboy":13038,"Ġtimeline":13039,"Ġwelcoming":13040,"ĠJuliet":13041,"Ġremotely":13042,"Ġgraduating":13043,"Orange":13044,"AME":13045,"ĠTHIS":13046,"Ġdetected":13047,"Ġducks":13048,"Ġautomatically":13049,"Ġenthusiasm":13050,"Ġaiming":13051,"Ġbowls":13052,"Ġmeteoroids":13053,"Ġcomplaint":13054,"ĠMovie":13055,"Ġtransformed":13056,"Ġasteroids":13057,"Ġloyalty":13058,"Ġallergic":13059,"Ġdistinctive":13060,"ĠDefine":13061,"uminum":13062,"ĠKorea":13063,"ĠBuddy":13064,"Ġpraise":13065,"Ġlegislation":13066,"Ġannoying":13067,"Ġcartoon":13068,"ĠMontana":13069,"Ġrelieve":13070,"ĠDemocrats":13071,"Ġtablespoon":13072,"Ġrejected":13073,"Ġstabil":13074,"Ġnicknamed":13075,"ĠAntarctica":13076,"ĠJennifer":13077,"Ġlouder":13078,"ĠSophie":13079,"presso":13080,"Ġintricate":13081,"avirus":13082,"Ġamusement":13083,"Ġcactus":13084,"Ġconsecutive":13085,"ĠGaelic":13086,"ĠLennon":13087,"ĠNevada":13088,"Ġcongrat":13089,"));":13090,"86":13091,"92":13092,"Ang":13093,"Count":13094,"Fire":13095,"Hist":13096,"Host":13097,"MC":13098,"Mat":13099,"Part":13100,"Sat":13101,"UR":13102,"aac":13103,"ba":13104,"bly":13105,"ez":13106,"eenth":13107,"fo":13108,"gans":13109,"gress":13110,"graph":13111,"hk":13112,"hr":13113,"his":13114,"lie":13115,"lib":13116,"mat":13117,"och":13118,"rower":13119,"sun":13120,"vo":13121,"warming":13122,"Ġ]":13123,"Ġtv":13124,"inc":13125,"Ġtheories":13126,"nding":13127,"Ġcsv":13128,"Ġcaterpillar":13129,"Ġcavalry":13130,"organ":13131,"Ġmant":13132,"Ġmasc":13133,"Ġpest":13134,"Ġpipe":13135,"Ġinaug":13136,"Ġloos":13137,"Ġthreshold":13138,"iche":13139,"icient":13140,"Ġnort":13141,"Ġgate":13142,"Ġgel":13143,"Ġecc":13144,"Ġeco":13145,"sty":13146,"entric":13147,"Ġbeings":13148,"ĠTilian":13149,"otin":13150,"uration":13151,"ĠSleep":13152,"ĠSelf":13153,"ĠAround":13154,"ĠABC":13155,"ilogy":13156,"ĠMiles":13157,"ĠMuch":13158,"ĠMNP":13159,"ĠCindy":13160,"chi":13161,"riet":13162,"Ġweld":13163,"Ġweeds":13164,"ĠBL":13165,"ĠBY":13166,"ĠBacon":13167,"Ġships":13168,"ulus":13169,"Ġorch":13170,"ĠPA":13171,"ĠPen":13172,"ĠPull":13173,"Ġchains":13174,"usk":13175,"Ġseiz":13176,"Ġsector":13177,"Ġrou":13178,"Ġ120":13179,"Ġworries":13180,"Ġvoting":13181,"ĠDO":13182,"ĠDifferent":13183,"ĠFBI":13184,"arten":13185,"ositive":13186,"usty":13187,"ĠRa":13188,"ĠRu":13189,"ĠEnergy":13190,"ĠLi":13191,"ĠLie":13192,"ocal":13193,"ockey":13194,"Ġwheat":13195,"Ġwheels":13196,"Ġoutcome":13197,"ooked":13198,"ĠThom":13199,"Ġenable":13200,"Ġads":13201,"Ġspo":13202,"Ġspooky":13203,"Ġarise":13204,"ĠKate":13205,"Ġrode":13206,"Ġunits":13207,"ĠStop":13208,"Ġscreens":13209,"arks":13210,"Ġanybody":13211,"Ġoffense":13212,"Ġ34":13213,"Ġagents":13214,"hedral":13215,"Ġbrut":13216,"Ġ1920":13217,"Ġ1939":13218,"Ġafterward":13219,"Ġremoval":13220,"awa":13221,"Ġsketch":13222,"Ġdecent":13223,"Ġacuity":13224,"Ġmonit":13225,"Ġshowc":13226,"Ġglance":13227,"Ġresting":13228,"Ġloaded":13229,"Ġsupplement":13230,"Ġboats":13231,"Ġboiling":13232,"Ġdetection":13233,"Ġheadline":13234,"flowers":13235,"Ġspecified":13236,"Ġsunrise":13237,"Ġdelayed":13238,"Ġsolitary":13239,"Ġpolish":13240,"rainstorm":13241,"ĠDeSantis":13242,"Ġbehalf":13243,"aneous":13244,"Ġprotocol":13245,"Ġcalf":13246,"elsius":13247,"Ġconfront":13248,"Ġdefensive":13249,"ercise":13250,"Ġii":13251,"ĠSoft":13252,"Ġreleases":13253,"Ġreception":13254,"Child":13255,"Ġemployer":13256,"ĠCarter":13257,"ĠElon":13258,"Ġfootsteps":13259,"Ġseafood":13260,"Ġcelebrations":13261,"Ġphotography":13262,"ĠPhot":13263,"Ġbalanced":13264,"Ġensuring":13265,"Ġcompeting":13266,"Ġ1964":13267,"Ġsuspend":13268,"Ġtasked":13269,"ĠReserve":13270,"Ġpanels":13271,"Ġdrying":13272,"Ġadventurer":13273,"ĠDesign":13274,"aspberry":13275,"Ġfarming":13276,"Ġfarmers":13277,"Ġassociation":13278,"Ġimmune":13279,"Ġchemistry":13280,"Ġcrossing":13281,"Ġaddressed":13282,"Ġviral":13283,"Ġbehaviors":13284,"spis":13285,"ĠStarbucks":13286,"Ġbelongings":13287,"ÂłĊ":13288,"Ġlaunching":13289,"ippi":13290,"ĠValue":13291,"Ġtowel":13292,"Ġmotivational":13293,"ugged":13294,"Array":13295,"Ġpsychology":13296,"Ġignored":13297,"Ġqualified":13298,"Ġpriority":13299,"Ġscreams":13300,"Ġcracked":13301,"Ġcrackers":13302,"Ġtalents":13303,"ĠJeffrey":13304,"Ġsuperheroes":13305,"Ġoccupation":13306,"ĠIncorpor":13307,"Trans":13308,"Ġmentally":13309,"ĠYears":13310,"Ġpygame":13311,"Ġaccurately":13312,"Ġexcessive":13313,"Phone":13314,"ĠCurrent":13315,"Ġinfected":13316,"ĠTurkish":13317,"Ġ>=":13318,"ĠDaily":13319,"roductive":13320,"Ġrenewable":13321,"Ġecosystem":13322,"Remember":13323,"ĠAxiom":13324,"Ġclinical":13325,"Ġcollaboration":13326,"ĠGuardians":13327,"Ġconvinced":13328,"Ġduration":13329,"Ġportrayed":13330,"worthy":13331,"lamath":13332,"ĠFilm":13333,"Ġsugars":13334,"Ġinherit":13335,"Ġstunned":13336,"ĠRoger":13337,"ĠWonderland":13338,"ĠMultichain":13339,"Ġsuspenseful":13340,"ĠCouncil":13341,"ĠFlashlight":13342,"ĠFRB":13343,"ĠPortugal":13344,"ĠNelson":13345,"Ġcommemor":13346,"ĠAnthony":13347,".âĢĻ":13348,"69":13349,"72":13350,";\">":13351,"Cur":13352,"Certainly":13353,"Deb":13354,"Hen":13355,"Hot":13356,"KE":13357,"Lear":13358,"Mal":13359,"PT":13360,"Per":13361,"Rel":13362,"SP":13363,"Set":13364,"Wow":13365,"cp":13366,"dist":13367,"dge":13368,"four":13369,"rant":13370,"tw":13371,"tree":13372,"total":13373,"Ġteddy":13374,"atable":13375,"itu":13376,"itia":13377,"Ġfount":13378,"Ġbou":13379,"inge":13380,"Ġpist":13381,"Ġpans":13382,"arot":13383,"aroni":13384,"Ġdare":13385,"Ġdungeon":13386,"Ġhated":13387,"Ġlantern":13388,"Ġgasp":13389,"owel":13390,"stalk":13391,"ĠToo":13392,"ĠTab":13393,"ĠĠĠĊ":13394,"Ġheir":13395,"semble":13396,"imation":13397,"root":13398,"igue":13399,"uristic":13400,"ĠMa":13401,"ĠMine":13402,"ĠMix":13403,"ĠMush":13404,"ĠCape":13405,"rav":13406,"illery":13407,"oline":13408,"umbers":13409,"ĠHong":13410,"ĠBush":13411,"ĠBobby":13412,"estly":13413,"pection":13414,"pelled":13415,"ista":13416,"ĠPain":13417,"Ġchap":13418,"Ġraced":13419,"Ġvague":13420,"Ġkg":13421,"ĠDam":13422,"ĠDim":13423,"ĠDur":13424,"ĠFruit":13425,"Ġprol":13426,"ĠLay":13427,"ĠLiber":13428,"ocation":13429,"ocity":13430,"ĠNorse":13431,"Ġouts":13432,"Ġfeast":13433,"plan":13434,"plant":13435,"Ġknitting":13436,"odd":13437,"ĠUber":13438,"ĠKane":13439,"ĠâĢ¦":13440,"ipolar":13441,"Ġscam":13442,"Ġscrub":13443,"Ġblooms":13444,"Ġdisrupt":13445,"ĠInformation":13446,"Ġbraces":13447,"Ġdesires":13448,"Ġ1945":13449,"ĠChiang":13450,"bean":13451,"Ġhomeless":13452,"issippi":13453,"Ġslip":13454,"Ġaccum":13455,"Ġcarpet":13456,"Ġskies":13457,"Ġhumid":13458,"Ġincorrect":13459,"Ġcrick":13460,"Ġcrumb":13461,"rams":13462,"Ġhandy":13463,"Ġinspection":13464,"Ġearning":13465,"Ġminister":13466,"Ġrepairs":13467,"Ġexperiments":13468,"Ġsentiment":13469,"Ġvisually":13470,"ĠBegin":13471,"Ġmuscular":13472,"Ġpassive":13473,"Ġboot":13474,"Ġfilters":13475,"Ġmainland":13476,"Ġswords":13477,"Ġwrites":13478,"Ġelves":13479,"Ġcentered":13480,"Ġsolace":13481,"Ġlander":13482,"Ġhardest":13483,"they":13484,"Ġheartfelt":13485,"Ġcontinent":13486,"ĠDepending":13487,"Ġpatent":13488,"ĠPlat":13489,"connect":13490,"Ġmarathon":13491,"Ġwinners":13492,"Ġsuperior":13493,"ĠZeal":13494,"Ġdefines":13495,"Ġtechnologies":13496,"ĠClark":13497,"Ġgrave":13498,"Ġwarned":13499,"Christ":13500,"Ġdiner":13501,"Ġsweetness":13502,"ĠSuch":13503,"Ġavailability":13504,"Ġfootage":13505,"Ġreplies":13506,"ĠRoom":13507,"Ġreduces":13508,"books":13509,"ðŁĮ":13510,"Ġobser":13511,"Ġrecommendation":13512,"knife":13513,"Ġ1971":13514,"Ġ1972":13515,"ĠMcDonald":13516,"Ġlowercase":13517,"Ġbrownies":13518,"Ġruins":13519,"inois":13520,"Att":13521,"owdered":13522,"Ġcrossed":13523,"Ġcalculated":13524,"Ġutter":13525,"Ġlaughs":13526,"obbie":13527,"ĠHarbor":13528,"cending":13529,"Ġtransported":13530,"Ġpossessions":13531,"Ġwitches":13532,"Ġ||":13533,"ĠContin":13534,"Ġignoring":13535,"Ġautomated":13536,"Image":13537,"Ġexpanding":13538,"Ġscratching":13539,"metic":13540,"Ġaccomplished":13541,"Ġextending":13542,"Ġguns":13543,"Ġcomplaining":13544,"Ġsacred":13545,"ĠMissou":13546,"Ġathlete":13547,"Ġgallo":13548,"Ġstrokes":13549,"Ġsubscription":13550,"ĠStanislavski":13551,"Ġdecrease":13552,"ĠTurkey":13553,"Ġguidelines":13554,"Ġpumpkin":13555,"Ġbuzzing":13556,"Ġjoints":13557,"Ġdragons":13558,"Ġdesperately":13559,"ĠAuthor":13560,"Ġsugary":13561,"Ġisolation":13562,"ĠEntertainment":13563,"ĠBuddhist":13564,"ĠBeauty":13565,"Ġchanting":13566,"ĠPyramid":13567,"Ġaffirmations":13568,"Ġdomesticated":13569,"ĠProvince":13570,"Whether":13571,"Ġsubstantial":13572,"Ġdatabase":13573,"Police":13574,"Ġtremend":13575,"Narrator":13576,"Ġadequate":13577,"Ġunprecedented":13578,"Ġreservoir":13579,"degree":13580,"Ġaquatic":13581,"Ġcicadas":13582,"Ġeccentric":13583,".]":13584,"?!":13585,"BG":13586,"BS":13587,"Categ":13588,"EX":13589,"FF":13590,"July":13591,"La":13592,"Mary":13593,"Off":13594,"PA":13595,"Pre":13596,"Pat":13597,"Sur":13598,"TI":13599,"TV":13600,"Total":13601,"chet":13602,"dale":13603,"hop":13604,"lay":13605,"mit":13606,"mass":13607,"public":13608,"split":13609,"tk":13610,"title":13611,"woman":13612,"Ġta":13613,"Ġaunt":13614,"Ġsip":13615,"Ġwrest":13616,"Ġwaved":13617,"Ġcrib":13618,"Ġcrab":13619,"Ġcheddar":13620,"oub":13621,"Ġfist":13622,"Ġfusion":13623,"Ġfaded":13624,"orous":13625,"Ġmph":13626,"Ġtofu":13627,"Ġlug":13628,"leg":13629,"iciency":13630,"Ġnurse":13631,"vet":13632,"ĠIM":13633,"ĠIran":13634,"ĠISD":13635,"ston":13636,"store":13637,"Ġreq":13638,"Ġrend":13639,"Ġrect":13640,"ĠTal":13641,"ĠTest":13642,"ĠTitan":13643,"Ġstance":13644,"Ġstub":13645,"amount":13646,"imir":13647,"Ġumbre":13648,"ighed":13649,"ĠSci":13650,"ĠSource":13651,"ĠAle":13652,"ĠAld":13653,"ĠMoo":13654,"ĠMaur":13655,"ĠMovies":13656,"ĠCH":13657,"ĠCSV":13658,"ĠCelsius":13659,"ĠTheory":13660,"rait":13661,"raham":13662,"rient":13663,"illas":13664,"ĠHans":13665,"ĠHiro":13666,"Ġshaman":13667,"pey":13668,"Ġabuse":13669,"Ġabrupt":13670,"Ġaboard":13671,"three":13672,"ĠParent":13673,"ĠPhys":13674,"ĠPenny":13675,"Ġchim":13676,"Ġsevent":13677,"Ġsemes":13678,"Ġdolls":13679,"quet":13680,"Ġvom":13681,"opia":13682,"ĠDu":13683,"ĠFun":13684,"ĠFair":13685,"ĠFarm":13686,"ustle":13687,"ĠGrill":13688,"ĠGiven":13689,"aka":13690,"ĠRoss":13691,"ĠRyan":13692,"Ġnotably":13693,"ĠNash":13694,"Ġclo":13695,"oga":13696,"ĠKaz":13697,"ĠKlamath":13698,"Ġwerew":13699,"Ġunac":13700,"Ġscav":13701,"Ġblurb":13702,"Ġflame":13703,"phy":13704,"Ġgrim":13705,"obias":13706,"Ġdonut":13707,"Ġplayw":13708,"Ġplaylist":13709,"Ġimpressed":13710,"Ġpersons":13711,"iances":13712,"Ġdownload":13713,"ĠShepherd":13714,"Ġcheating":13715,"Ġcheetah":13716,"Ġcommas":13717,"...\"":13718,"Ġcarries":13719,"Ġsurge":13720,"pectives":13721,"ificent":13722,"Ġinstances":13723,"asha":13724,"Ġprovince":13725,"Ġcurtain":13726,"Ġcurrency":13727,"Ġcared":13728,"ampoo":13729,"Ġpresidents":13730,"azel":13731,"Ġtops":13732,"brown":13733,"Ġcareers":13734,"flow":13735,"Ġmedications":13736,"Ġsnipp":13737,"Ġrequiring":13738,"Ġteammates":13739,"ouncing":13740,"Ġ800":13741,"Ġ72":13742,"ĠMarie":13743,"Ġenjoyable":13744,"Ġforehead":13745,"Ġsalads":13746,"Ġpaste":13747,"Ġprofitable":13748,"ĠBlues":13749,"Ġsupermarket":13750,"shima":13751,"Ġconfig":13752,"Ġhopeful":13753,"Ġtechnological":13754,"Ġgrabs":13755,"Ġspecialist":13756,"Ġtested":13757,"Change":13758,"Ġannually":13759,"ĠUSB":13760,"Ġgreenhouse":13761,"Ġzebra":13762,"Ġgardens":13763,"Ġhygiene":13764,"Ġslowing":13765,"Ġvegetation":13766,"Ġfroze":13767,"Ġsonnet":13768,"Ġobservation":13769,"Ġbagel":13770,"Ġepid":13771,"Ġbald":13772,"Ġexisted":13773,"Ġ1976":13774,"Ġ1963":13775,"Ġprevention":13776,"Ġencouraged":13777,"Ġdropping":13778,"Ġchallenged":13779,"Ġfarms":13780,"ĠSammy":13781,"Ġsightings":13782,"Ġrounded":13783,"Ġdecorating":13784,"Ġbanking":13785,"Ġconsisted":13786,"Ġarrange":13787,"htt":13788,"eye":13789,"Ġirregular":13790,"ĠGenerate":13791,"Ġreflecting":13792,"ĠMonth":13793,"Ġtherapist":13794,"Ġdemanded":13795,"Ġunfamiliar":13796,"Ġwelcomed":13797,"Ġpropulsion":13798,"ĠSimilar":13799,"Ġpremium":13800,"ĠBelg":13801,"purpose":13802,"Ġmeasurement":13803,"Ġresistant":13804,"Ġdelighted":13805,"ĠSlow":13806,"rizotin":13807,"ĠMississippi":13808,"Ġ1893":13809,"Ġimplementing":13810,"averick":13811,"Ġhousing":13812,"Ġrobots":13813,"ĠCapital":13814,"Ġsatisfying":13815,"William":13816,"Scene":13817,"bellion":13818,"Ġdescending":13819,"ĠDrake":13820,"Ġsneak":13821,"Ġfiery":13822,"Ġaltitude":13823,"Ġconstructed":13824,"----------------":13825,"window":13826,"ĠCommunity":13827,"ï¿½ï¿½ï¿½ï¿½ï¿½ï¿½ï¿½ï¿½":13828,"ĠLinkedIn":13829,"Ġdesperate":13830,"Ġsurprisingly":13831,"Ġexplosion":13832,"ĠDataFrame":13833,"ĠAntarctic":13834,"Ġlungs":13835,"Ġcomedic":13836,"conscious":13837,"Ġnursery":13838,"Ġfuels":13839,"ĠBreakfast":13840,"Ġartifacts":13841,"Michel":13842,"ĠBaseball":13843,"Ġborrower":13844,"Ġslogan":13845,"ĠPhilippines":13846,"Ġritual":13847,"Ġunhappy":13848,"Ġanchor":13849,"ĠCategory":13850,"David":13851,"Ġmerged":13852,"Ġhilarious":13853,"ĠYankees":13854,"ĠNakamoto":13855,"Insert":13856,"Ġdestroying":13857,"judice":13858,"Ġparallel":13859,"ĠHiroshima":13860,"rizotinib":13861,"01":13862,"77":13863,"Alex":13864,"Comm":13865,"Craft":13866,"Eng":13867,"ECT":13868,"Full":13869,"Ham":13870,"Jess":13871,"Long":13872,"Mon":13873,"Mel":13874,"Nature":13875,"Try":13876,"aque":13877,"best":13878,"bury":13879,"bula":13880,"dam":13881,"dream":13882,"eer":13883,"fil":13884,"gue":13885,"giving":13886,"hum":13887,"monds":13888,"nies":13889,"pace":13890,"sum":13891,"uitive":13892,"uya":13893,"âĸ":13894,"âľ":13895,"Ġtum":13896,"Ġties":13897,"Ġtensions":13898,"herap":13899,"inator":13900,"Ġsher":13901,"Ġcer":13902,"Ġbicycle":13903,"isure":13904,"esame":13905,"Ġmate":13906,"Ġmorn":13907,"Ġmarsh":13908,"Ġpave":13909,"Ġtox":13910,"edia":13911,"Ġinhib":13912,"Ġling":13913,"Ġlavender":13914,"Ġlounge":13915,"Ġyummy":13916,"Ġnaming":13917,"Ġgam":13918,"Ġgems":13919,"Ġgains":13920,"Ġeternal":13921,"stop":13922,"stage":13923,"struct":13924,"acer":13925,"acent":13926,"ĠTL":13927,"Ġstack":13928,"rose":13929,"iration":13930,"ĠAC":13931,"ĠMAA":13932,"ĠCad":13933,"ĠCool":13934,"Ġwasted":13935,"illance":13936,"ĠHold":13937,"ĠHung":13938,"ĠBand":13939,"ĠBenn":13940,"ĠBureau":13941,"Ġshattered":13942,"Ġorcas":13943,"ĠPerry":13944,"Ġcance":13945,"Ġrises":13946,"Ġdose":13947,"Ġdock":13948,"quiat":13949,"Ġkrill":13950,"ĠDru":13951,"ĠDarc":13952,"ĠDictionary":13953,"ĠDallas":13954,"ĠFel":13955,"ĠFrost":13956,"Ġprose":13957,"udes":13958,"ĠGib":13959,"ĠRd":13960,"ĠRail":13961,"ĠRush":13962,"astes":13963,"ĠEst":13964,"ĠEqu":13965,"Ġ\"^":13966,"Ġsuits":13967,"ĠLower":13968,"ĠLenny":13969,"ptical":13970,"ĠNBC":13971,"Ġoutbreak":13972,"Ġoutfits":13973,"ĠJill":13974,"Ġclues":13975,"Ġcluster":13976,"ĠObs":13977,"Ġadul":13978,"Ġadoles":13979,"arehouse":13980,"arett":13981,"Ġspokes":13982,"ĠKill":13983,"Ġroast":13984,"Ġcompounds":13985,"Ġtrace":13986,"Ġtrump":13987,"Ġscoliosis":13988,"Ġneeding":13989,"ĠInn":13990,"Ġrespected":13991,"Ġbrushed":13992,"ĠCham":13993,"Ġfoil":13994,"Ġplayground":13995,"Ġimprison":13996,"Ġperspectives":13997,"Ġkeen":13998,"Ġacted":13999,"letal":14000,"Ġtraps":14001,"Ġappropri":14002,"plex":14003,"Ġ52":14004,"Ġconspir":14005,"Ġentries":14006,"Invest":14007,"Ġguided":14008,"lected":14009,"bsp":14010,"Ġhandc":14011,"Ġfinance":14012,"eking":14013,"rones":14014,"Ġcurly":14015,"Ġcurls":14016,"pring":14017,"prise":14018,"Ġregist":14019,"Ġcaf":14020,"Ġboiled":14021,"Ġgameplay":14022,"Ġeyel":14023,"Ġpops":14024,"ĠSeason":14025,"Ġswir":14026,"Ġsnap":14027,"ĠSpencer":14028,"Ġsecondary":14029,"Ġdelays":14030,"Ġauto":14031,"Stan":14032,"Ġhardware":14033,"Ġemails":14034,"Ġkinderg":14035,"Ġpaints":14036,"compass":14037,"Ġappend":14038,"ĠDeb":14039,"Ġpromotes":14040,"Ġexamine":14041,"ĠAthen":14042,"arthy":14043,"Ġbulbs":14044,"Ġmarvel":14045,"Ġcalendar":14046,"Ġsuperst":14047,"grown":14048,"ajit":14049,"ĠBrother":14050,"Ġgrapes":14051,"working":14052,"Ġreceives":14053,"ĠPrint":14054,"Ġbasil":14055,"Ġtasting":14056,"ĠIndigenous":14057,"Ġrip":14058,"ĠCarls":14059,"Ġphysician":14060,"Ġcultiv":14061,"Ġfootprint":14062,"Ġcolder":14063,"Ġ<=":14064,"Ġidentical":14065,"Ġcomputing":14066,"Ġfailures":14067,"Ġepic":14068,"Ġescapes":14069,"ĠTech":14070,"ĠText":14071,"Ġdiscussions":14072,"Ġdresses":14073,"Ġexplorers":14074,"Ġexpressing":14075,"loat":14076,"ĠXXX":14077,"Ġinventions":14078,"Ġruin":14079,"Ġrugged":14080,"Ġoccurring":14081,"Should":14082,"Ġdebts":14083,"Ġconsuming":14084,"Ġweekends":14085,"Ġharmon":14086,"Ġentertained":14087,"ĠMedicine":14088,"ATION":14089,"Ġtargets":14090,"Ġdomain":14091,"Ġadmire":14092,"Ġadmitted":14093,"Ġachievement":14094,"ĠTomatoes":14095,"Ġunfair":14096,"Ġfirmly":14097,"Ġempower":14098,"Ġtowels":14099,"Ġmeasuring":14100,"Ġpossessed":14101,"Ġsmoothie":14102,"ĠControl":14103,"Ġhurts":14104,"Ġenthusiast":14105,"Ġpassionate":14106,"Ġsparkling":14107,"Ġsmoked":14108,"Ġgravitational":14109,"Ġmutual":14110,"ĠðŁĺ":14111,"Ġwitnessed":14112,"Ġrestricted":14113,"THE":14114,"Ġvarying":14115,"âĢįðŁĳ":14116,"ĠGehrig":14117,"Ġlasag":14118,"ĠBooks":14119,"Ġcorporation":14120,"Ġemphasizes":14121,"Ġdecreased":14122,"Ġscarce":14123,"Ġconcentration":14124,"Ġexhibit":14125,"Ġadoption":14126,"www":14127,"ĠDreams":14128,"Ġcoordination":14129,"Ġcigarette":14130,"Ġcryptocur":14131,"Ġsacrific":14132,"Ġniche":14133,"onymous":14134,"Ġevacuated":14135,"Ġzombies":14136,"Ġzombie":14137,"ĠIllinois":14138,"Ġweaknesses":14139,"Ġbeetles":14140,"Ġgoblins":14141,"ĠNicholas":14142,"anchester":14143,"Ġelectroly":14144,"ĠFactory":14145,"ĠRoberts":14146,"Ġaccompanied":14147,"Ġantioxidants":14148,"Ġbilirubin":14149,"Ġphotosynthesis":14150,"ĠImperial":14151,"ĠMissouri":14152,"ĠNashville":14153,"ĠDarcy":14154,"arettes":14155,")]":14156,"67":14157,"600":14158,"Boy":14159,"Cause":14160,"FO":14161,"Four":14162,"GA":14163,"HR":14164,"Hope":14165,"Je":14166,"Music":14167,"Pet":14168,"TY":14169,"Taylor":14170,"kach":14171,"sub":14172,"td":14173,"wall":14174,"zo":14175,"zie":14176,"inian":14177,"req":14178,"Ġtheaters":14179,"Ġwarehouse":14180,"ativity":14181,"Ġcust":14182,"Ġcubes":14183,"Ġfares":14184,"Ġbore":14185,"isode":14186,"inga":14187,"esan":14188,"Ġmun":14189,"Ġmand":14190,"Ġpad":14191,"Ġpear":14192,"Ġhatch":14193,"Ġles":14194,"Ġlocks":14195,"lend":14196,"leine":14197,"Ġnause":14198,"Ġnests":14199,"aco":14200,"ĠTi":14201,"ĠTommy":14202,"ayak":14203,"lda":14204,"imore":14205,"imated":14206,"imental":14207,"rolling":14208,"âĢĺ":14209,"kee":14210,"ĠSke":14211,"ĠSix":14212,"ĠAff":14213,"ilk":14214,"ĠMaking":14215,"ĠMission":14216,"ĠMommy":14217,"ĠManchester":14218,"ifice":14219,"ifully":14220,"ĠCand":14221,"ĠThespis":14222,"charge":14223,"children":14224,"riers":14225,"olot":14226,"Ġshipped":14227,"agging":14228,"Ġoranges":14229,"Ġmeats":14230,"pell":14231,"item":14232,"thood":14233,"ĠProdu":14234,"Ġchore":14235,"Ġchop":14236,"Ġsewing":14237,"Ġrats":14238,"Ġrug":14239,"âĢĻ,":14240,"pps":14241,"Ġconve":14242,"emann":14243,"Ġvib":14244,"Ġkings":14245,"Ġkale":14246,"abling":14247,"ĠDest":14248,"ĠFear":14249,"ĠFrog":14250,"usters":14251,"uded":14252,"ĠGall":14253,"ĠGret":14254,"arded":14255,"ĠRings":14256,"ĠRocket":14257,"ĠRalph":14258,"ĠRTX":14259,"ĠEur":14260,"Ġintensity":14261,"ĠNatural":14262,"onely":14263,"Ġoutstanding":14264,"ĠĊĠĠĠĠĠĠĠ":14265,
[...]
